/***************************************************************************//**
* \file CAP_MODEL_tflm_model_int8x8.c
*
* \brief
* Autogenerated with ml-coretools, this file contains CAP_MODEL model data.
* Date: 2024-09-30 16:12:19.857530
*******************************************************************************
* \copyright
* Copyright 2024, Cypress Semiconductor Corporation (an Infineon company).
* All rights reserved.
* You may use this file only in accordance with the license, terms, conditions,
* disclaimers, and limitations in the end user license agreement accompanying
* the software package with which this file was provided.
******************************************************************************/


#include "CAP_MODEL_tflm_model_int8x8.h"


#ifdef CY_ML_MODEL_MEM
#include "cy_utils.h"
#define Q(x) #x
#define QUOTE(x) Q(x)
CY_SECTION(QUOTE(CY_ML_MODEL_MEM))
const
#endif

uint8_t CAP_MODEL_model_bin[CAP_MODEL_MODEL_BIN_LEN] __attribute__((aligned(4))) = {
0x28, 0x00, 0x00, 0x00, 0x54, 0x46, 0x4c, 0x33, 0x00, 0x00, 0x00, 0x00, 0x00, 0x00, 0x00, 0x00,
0x00, 0x00, 0x00, 0x00, 0x00, 0x00, 0x12, 0x00, 0x1c, 0x00, 0x18, 0x00, 0x14, 0x00, 0x10, 0x00,
0x0c, 0x00, 0x08, 0x00, 0x00, 0x00, 0x04, 0x00, 0x12, 0x00, 0x00, 0x00, 0x18, 0x00, 0x00, 0x00,
0x70, 0x00, 0x00, 0x00, 0x38, 0x17, 0x00, 0x00, 0x48, 0x17, 0x00, 0x00, 0x60, 0x30, 0x00, 0x00,
0x03, 0x00, 0x00, 0x00, 0x02, 0x00, 0x00, 0x00, 0x34, 0x00, 0x00, 0x00, 0x04, 0x00, 0x00, 0x00,
0xdc, 0xff, 0xff, 0xff, 0x19, 0x00, 0x00, 0x00, 0x04, 0x00, 0x00, 0x00, 0x13, 0x00, 0x00, 0x00,
0x43, 0x4f, 0x4e, 0x56, 0x45, 0x52, 0x53, 0x49, 0x4f, 0x4e, 0x5f, 0x4d, 0x45, 0x54, 0x41, 0x44,
0x41, 0x54, 0x41, 0x00, 0x08, 0x00, 0x0c, 0x00, 0x08, 0x00, 0x04, 0x00, 0x08, 0x00, 0x00, 0x00,
0x18, 0x00, 0x00, 0x00, 0x04, 0x00, 0x00, 0x00, 0x13, 0x00, 0x00, 0x00, 0x6d, 0x69, 0x6e, 0x5f,
0x72, 0x75, 0x6e, 0x74, 0x69, 0x6d, 0x65, 0x5f, 0x76, 0x65, 0x72, 0x73, 0x69, 0x6f, 0x6e, 0x00,
0x1a, 0x00, 0x00, 0x00, 0xb8, 0x16, 0x00, 0x00, 0xa4, 0x16, 0x00, 0x00, 0x78, 0x16, 0x00, 0x00,
0x54, 0x16, 0x00, 0x00, 0x34, 0x16, 0x00, 0x00, 0x18, 0x16, 0x00, 0x00, 0x00, 0x16, 0x00, 0x00,
0xa4, 0x15, 0x00, 0x00, 0x10, 0x15, 0x00, 0x00, 0xfc, 0x08, 0x00, 0x00, 0x68, 0x08, 0x00, 0x00,
0x54, 0x02, 0x00, 0x00, 0x00, 0x02, 0x00, 0x00, 0x5c, 0x01, 0x00, 0x00, 0x50, 0x01, 0x00, 0x00,
0x3c, 0x01, 0x00, 0x00, 0x28, 0x01, 0x00, 0x00, 0x14, 0x01, 0x00, 0x00, 0x00, 0x01, 0x00, 0x00,
0xec, 0x00, 0x00, 0x00, 0xd8, 0x00, 0x00, 0x00, 0xc4, 0x00, 0x00, 0x00, 0xb0, 0x00, 0x00, 0x00,
0x9c, 0x00, 0x00, 0x00, 0x70, 0x00, 0x00, 0x00, 0x04, 0x00, 0x00, 0x00, 0x0a, 0xe9, 0xff, 0xff,
0x04, 0x00, 0x00, 0x00, 0x58, 0x00, 0x00, 0x00, 0x0c, 0x00, 0x00, 0x00, 0x08, 0x00, 0x0e, 0x00,
0x08, 0x00, 0x04, 0x00, 0x08, 0x00, 0x00, 0x00, 0x10, 0x00, 0x00, 0x00, 0x28, 0x00, 0x00, 0x00,
0x00, 0x00, 0x06, 0x00, 0x08, 0x00, 0x04, 0x00, 0x06, 0x00, 0x00, 0x00, 0x04, 0x00, 0x00, 0x00,
0x01, 0x00, 0x00, 0x00, 0xeb, 0x03, 0x00, 0x00, 0x00, 0x00, 0x0a, 0x00, 0x10, 0x00, 0x0c, 0x00,
0x08, 0x00, 0x04, 0x00, 0x0a, 0x00, 0x00, 0x00, 0x02, 0x00, 0x00, 0x00, 0x02, 0x00, 0x00, 0x00,
0x04, 0x00, 0x00, 0x00, 0x06, 0x00, 0x00, 0x00, 0x32, 0x2e, 0x31, 0x34, 0x2e, 0x31, 0x00, 0x00,
0x00, 0x00, 0x00, 0x00, 0x72, 0xe9, 0xff, 0xff, 0x04, 0x00, 0x00, 0x00, 0x10, 0x00, 0x00, 0x00,
0x31, 0x2e, 0x31, 0x34, 0x2e, 0x30, 0x00, 0x00, 0x00, 0x00, 0x00, 0x00, 0x00, 0x00, 0x00, 0x00,
0x00, 0x00, 0x00, 0x00, 0x00, 0x00, 0x00, 0x00, 0x00, 0x00, 0x00, 0x00, 0xd8, 0xd1, 0xff, 0xff,
0x00, 0x00, 0x00, 0x00, 0x00, 0x00, 0x00, 0x00, 0x00, 0x00, 0x00, 0x00, 0xe8, 0xd1, 0xff, 0xff,
0x00, 0x00, 0x00, 0x00, 0x00, 0x00, 0x00, 0x00, 0x00, 0x00, 0x00, 0x00, 0xf8, 0xd1, 0xff, 0xff,
0x00, 0x00, 0x00, 0x00, 0x00, 0x00, 0x00, 0x00, 0x00, 0x00, 0x00, 0x00, 0x08, 0xd2, 0xff, 0xff,
0x00, 0x00, 0x00, 0x00, 0x00, 0x00, 0x00, 0x00, 0x00, 0x00, 0x00, 0x00, 0x18, 0xd2, 0xff, 0xff,
0x00, 0x00, 0x00, 0x00, 0x00, 0x00, 0x00, 0x00, 0x00, 0x00, 0x00, 0x00, 0x28, 0xd2, 0xff, 0xff,
0x00, 0x00, 0x00, 0x00, 0x00, 0x00, 0x00, 0x00, 0x00, 0x00, 0x00, 0x00, 0x38, 0xd2, 0xff, 0xff,
0x00, 0x00, 0x00, 0x00, 0x00, 0x00, 0x00, 0x00, 0x00, 0x00, 0x00, 0x00, 0x48, 0xd2, 0xff, 0xff,
0x00, 0x00, 0x00, 0x00, 0x00, 0x00, 0x00, 0x00, 0x00, 0x00, 0x00, 0x00, 0x58, 0xd2, 0xff, 0xff,
0x00, 0x00, 0x00, 0x00, 0x00, 0x00, 0x00, 0x00, 0x00, 0x00, 0x00, 0x00, 0x68, 0xd2, 0xff, 0xff,
0x00, 0x00, 0x00, 0x00, 0x32, 0xea, 0xff, 0xff, 0x04, 0x00, 0x00, 0x00, 0x90, 0x00, 0x00, 0x00,
0xd8, 0x58, 0x06, 0xe3, 0x81, 0xec, 0xf1, 0x3b, 0xfa, 0xf8, 0xb4, 0xe9, 0x0b, 0x7f, 0xe9, 0x3e,
0x47, 0xec, 0x88, 0x34, 0xa8, 0x81, 0xea, 0x91, 0xfb, 0xcf, 0xca, 0x55, 0xb6, 0x66, 0x4d, 0x81,
0x7f, 0x0d, 0x17, 0xee, 0xc2, 0x7f, 0xa9, 0x9f, 0x51, 0x94, 0xe0, 0xf5, 0xd5, 0x98, 0x11, 0xee,
0xf2, 0xb8, 0x33, 0x6a, 0x7f, 0xfe, 0xe7, 0xc3, 0xde, 0xe7, 0x7f, 0xaf, 0x04, 0xe8, 0x42, 0xda,
0x1b, 0xb2, 0x0b, 0x1f, 0x81, 0xf1, 0x17, 0x0b, 0x81, 0x06, 0x83, 0x17, 0xf2, 0x9f, 0x36, 0x4b,
0x24, 0xb1, 0x8e, 0xa5, 0xf1, 0x20, 0x85, 0x7f, 0x0e, 0xf8, 0xfe, 0x81, 0xe2, 0xea, 0x08, 0xdb,
0x16, 0xf3, 0x1e, 0x04, 0x29, 0x35, 0x1f, 0x81, 0x18, 0x36, 0x1c, 0xff, 0x99, 0x15, 0x9f, 0xe1,
0x1e, 0x98, 0x47, 0x7f, 0xf8, 0xd0, 0x81, 0x0f, 0x07, 0x4d, 0xf6, 0xf8, 0x0e, 0x09, 0xce, 0xdb,
0x96, 0xd2, 0xcc, 0x81, 0x09, 0x3c, 0xfb, 0x07, 0xe1, 0x39, 0x00, 0xa3, 0x4a, 0x9f, 0x5d, 0x81,
0x00, 0x00, 0x00, 0x00, 0xd2, 0xea, 0xff, 0xff, 0x04, 0x00, 0x00, 0x00, 0x40, 0x00, 0x00, 0x00,
0x2a, 0x3a, 0x00, 0x00, 0xf5, 0x73, 0xff, 0xff, 0x5a, 0xd5, 0x00, 0x00, 0xf3, 0xf5, 0xff, 0xff,
0x90, 0xfe, 0xff, 0xff, 0xbb, 0xe6, 0xff, 0xff, 0x5f, 0x02, 0x00, 0x00, 0x55, 0xe2, 0xff, 0xff,
0x36, 0xfe, 0xff, 0xff, 0xf8, 0x2a, 0x00, 0x00, 0x08, 0x6a, 0x00, 0x00, 0x9c, 0xe1, 0xff, 0xff,
0xb2, 0xce, 0xff, 0xff, 0x7e, 0x40, 0x00, 0x00, 0x59, 0x69, 0x00, 0x00, 0xfe, 0x4b, 0x00, 0x00,
0x00, 0x00, 0x00, 0x00, 0x22, 0xeb, 0xff, 0xff, 0x04, 0x00, 0x00, 0x00, 0x00, 0x06, 0x00, 0x00,
0x04, 0xff, 0xdd, 0xef, 0xc1, 0x1c, 0x08, 0x81, 0x15, 0xf4, 0x15, 0xe3, 0xfd, 0xcd, 0x34, 0xe5,
0x00, 0xf7, 0x0a, 0x32, 0x25, 0xfb, 0xf3, 0x23, 0xe5, 0xf9, 0xc8, 0xfc, 0xbe, 0x0e, 0x06, 0xf6,
0xbf, 0x08, 0x16, 0xdc, 0x1e, 0xe5, 0xe3, 0x2b, 0x29, 0x3b, 0x56, 0x11, 0x0c, 0x5c, 0x04, 0x05,
0x11, 0x06, 0xdd, 0xe4, 0x55, 0xf9, 0x50, 0xc8, 0xd1, 0xd3, 0xc6, 0x01, 0xda, 0xdf, 0x23, 0xff,
0x23, 0xfd, 0x16, 0x19, 0x7f, 0x16, 0x94, 0x90, 0x28, 0x0c, 0xe0, 0x4c, 0x3e, 0x02, 0x2f, 0x0f,
0xc6, 0xec, 0xdd, 0xea, 0xd2, 0xfd, 0x36, 0x78, 0xd8, 0xd9, 0x64, 0x33, 0xfb, 0x32, 0xa6, 0x62,
0xe9, 0x0b, 0x1e, 0xf1, 0x7f, 0x24, 0x26, 0xa3, 0xe8, 0x11, 0xcb, 0x1d, 0x0e, 0xde, 0x35, 0xfd,
0xef, 0x06, 0xdb, 0xff, 0x3b, 0xf0, 0xec, 0xb5, 0xff, 0xf8, 0xc8, 0x15, 0x09, 0x1c, 0x02, 0x36,
0xae, 0x23, 0xf9, 0x03, 0x21, 0xf8, 0xfe, 0x25, 0x2b, 0x0d, 0x56, 0x1d, 0x1a, 0x03, 0xef, 0xee,
0x2c, 0xcc, 0x43, 0x2c, 0x58, 0xe0, 0xe7, 0x4d, 0xde, 0xcc, 0xd0, 0xf4, 0xad, 0x45, 0x9f, 0xd1,
0xe7, 0xfb, 0x33, 0xdf, 0x27, 0x2a, 0xee, 0xef, 0xf5, 0x15, 0x4f, 0x07, 0x00, 0xc4, 0xcb, 0xe4,
0x40, 0xe3, 0x1f, 0xf1, 0x42, 0x11, 0x0e, 0x08, 0x41, 0x01, 0xfb, 0xcd, 0x4b, 0x81, 0x21, 0xd0,
0x3e, 0x29, 0x3d, 0x99, 0x7d, 0x2a, 0x11, 0xc7, 0x72, 0x57, 0x0a, 0xec, 0x71, 0xd7, 0x69, 0xb9,
0xdb, 0x10, 0xcb, 0x1b, 0xed, 0xe0, 0xda, 0xed, 0xda, 0xbd, 0xbe, 0x34, 0xd0, 0x3f, 0xdb, 0xfc,
0x81, 0x02, 0x25, 0x12, 0x3a, 0xe9, 0x2e, 0x31, 0xc4, 0xe6, 0x29, 0x00, 0xec, 0x3b, 0x95, 0x03,
0xfb, 0xee, 0x2f, 0xc2, 0x7f, 0xaa, 0xed, 0xd5, 0xc0, 0xa6, 0xb8, 0xe6, 0xb0, 0x13, 0xce, 0x2c,
0x7e, 0xf4, 0x2e, 0x02, 0x37, 0xe4, 0xfc, 0x47, 0x1a, 0x1a, 0x32, 0x2b, 0xcc, 0x2d, 0x34, 0xd6,
0x29, 0xe6, 0xba, 0xfb, 0xd2, 0xf6, 0xe1, 0xde, 0xec, 0xed, 0xfa, 0x0e, 0xe6, 0xe0, 0xdb, 0x1d,
0x23, 0x0d, 0xd4, 0xb5, 0xdd, 0x01, 0xf5, 0x81, 0x2e, 0x17, 0xf1, 0xcf, 0x3e, 0xe6, 0x1a, 0x10,
0x1a, 0x13, 0x00, 0x2a, 0x13, 0x0c, 0x19, 0x45, 0xe7, 0xfe, 0x14, 0x0e, 0xea, 0x0e, 0xe3, 0xe6,
0xf5, 0xf3, 0xda, 0xfb, 0xd9, 0xc6, 0xda, 0x14, 0xef, 0xf0, 0xf4, 0x0b, 0xd0, 0x13, 0xe9, 0x25,
0xff, 0xf8, 0x95, 0xfb, 0x81, 0xc4, 0x8a, 0x0d, 0xf4, 0x10, 0xfc, 0xcd, 0x15, 0x29, 0x38, 0x3a,
0x1e, 0xf0, 0xff, 0x0b, 0x20, 0x14, 0x0e, 0xff, 0x18, 0x17, 0x04, 0x11, 0x20, 0x0c, 0xe7, 0x04,
0x2b, 0x00, 0xf1, 0x17, 0xea, 0x20, 0x2d, 0x0b, 0x05, 0xdc, 0x27, 0x04, 0x08, 0xd4, 0xc0, 0x2c,
0xc9, 0x07, 0xd1, 0xfe, 0x8a, 0xf1, 0xd3, 0xd5, 0xf5, 0xcb, 0xfa, 0xda, 0xf0, 0x13, 0xf9, 0xe8,
0x21, 0xaa, 0x31, 0x17, 0x54, 0xb4, 0xb7, 0x7f, 0xee, 0x0a, 0x08, 0x08, 0x93, 0x1b, 0x23, 0x0b,
0xee, 0xe2, 0xf1, 0xee, 0xf4, 0xf2, 0x02, 0x8a, 0x3a, 0x29, 0x52, 0x2b, 0x0e, 0x38, 0x42, 0xd2,
0x37, 0x3c, 0x56, 0xdf, 0xe2, 0x31, 0x19, 0xcd, 0x67, 0x60, 0x20, 0x21, 0x7f, 0xce, 0x4b, 0x09,
0x99, 0x11, 0xbb, 0x60, 0xa5, 0x4a, 0x0e, 0x10, 0xc3, 0xfc, 0x1c, 0xee, 0xe9, 0xea, 0xd6, 0xdf,
0xe0, 0xf8, 0xe8, 0xcc, 0xed, 0x25, 0x14, 0xc7, 0x24, 0xc1, 0xdc, 0xbb, 0x12, 0xe9, 0x09, 0x2e,
0x8d, 0xe0, 0x0b, 0xf2, 0xdf, 0xe0, 0x1a, 0x08, 0x0e, 0x38, 0xef, 0xee, 0xec, 0x10, 0x2b, 0x03,
0xa9, 0x0d, 0xdc, 0x4f, 0xd7, 0xe4, 0x15, 0x61, 0xa2, 0xf5, 0x37, 0x36, 0xe9, 0xed, 0x08, 0xad,
0x06, 0x07, 0x03, 0xcf, 0xdd, 0xf3, 0xc5, 0xc7, 0x0d, 0xfa, 0x9d, 0xf3, 0xf2, 0x07, 0x7f, 0x02,
0xbc, 0xf7, 0xe3, 0x23, 0xb6, 0xf4, 0x28, 0xf3, 0xc9, 0xc4, 0xef, 0xed, 0xaf, 0x14, 0xaa, 0x28,
0xf9, 0xff, 0x21, 0xfa, 0x1d, 0xf7, 0x0d, 0x10, 0xee, 0xff, 0x14, 0xec, 0x00, 0xfe, 0x05, 0xff,
0x34, 0x15, 0xf1, 0xca, 0xf7, 0xf2, 0xec, 0xea, 0x53, 0x43, 0xe3, 0xfe, 0x49, 0x0d, 0x7f, 0xed,
0x14, 0x64, 0xfa, 0x0f, 0x81, 0x69, 0xe6, 0x5b, 0x54, 0x1e, 0x3e, 0xc8, 0x1f, 0x37, 0xfb, 0xfc,
0xcf, 0xdd, 0x03, 0x2c, 0x94, 0x26, 0x09, 0xd4, 0xe7, 0xe7, 0x4a, 0xaa, 0xe0, 0xec, 0xce, 0x08,
0xf6, 0x21, 0x0c, 0x9f, 0xd2, 0xe3, 0x22, 0xb7, 0x35, 0xe5, 0x14, 0x8c, 0x14, 0x10, 0x20, 0x09,
0xf7, 0xf6, 0x0c, 0x16, 0x2e, 0xf7, 0xec, 0xe3, 0xcf, 0xec, 0x0b, 0x33, 0xba, 0x22, 0x01, 0x0b,
0x01, 0xdd, 0x35, 0x29, 0x7f, 0x00, 0xeb, 0x63, 0xd2, 0xe7, 0xf2, 0x26, 0xcf, 0xf2, 0x08, 0x1a,
0x2d, 0xf1, 0x2c, 0x24, 0x57, 0xc9, 0xd4, 0x5c, 0xf9, 0xf7, 0x94, 0x18, 0xd7, 0xdd, 0x46, 0xfe,
0xd3, 0x3e, 0x15, 0x55, 0xb7, 0x43, 0x0c, 0x65, 0xfc, 0x43, 0x3a, 0x2c, 0x47, 0x29, 0xfc, 0x30,
0x94, 0x08, 0xe3, 0xfe, 0x81, 0xee, 0x26, 0x12, 0xf0, 0xee, 0xf8, 0xd8, 0x10, 0xde, 0xe3, 0x12,
0x03, 0x06, 0x27, 0xe3, 0x00, 0xff, 0xfc, 0xcd, 0x31, 0xe7, 0xd4, 0xd5, 0x3a, 0xfe, 0x3a, 0x08,
0x07, 0x01, 0xc5, 0xe1, 0x81, 0x17, 0xc2, 0xd6, 0x10, 0x03, 0xf8, 0xd8, 0x24, 0xfe, 0x3c, 0x15,
0xeb, 0xec, 0x11, 0x40, 0xf7, 0xd8, 0xf7, 0x1a, 0xde, 0xdc, 0x12, 0xe7, 0xd5, 0xe9, 0xeb, 0xf6,
0xf4, 0xf9, 0x05, 0xe3, 0xe4, 0xeb, 0x2b, 0x0d, 0x26, 0x2c, 0x2f, 0x0f, 0x15, 0x15, 0x06, 0xf1,
0x81, 0xda, 0x42, 0x59, 0x2c, 0xc6, 0x43, 0x7b, 0xa7, 0xc4, 0x14, 0x42, 0x8d, 0x03, 0x8e, 0x0c,
0x0e, 0xce, 0xfe, 0xc0, 0x12, 0xd7, 0x0a, 0xe6, 0x00, 0x2c, 0xe5, 0xf5, 0xe5, 0xd3, 0x53, 0xe3,
0x39, 0x09, 0xe1, 0xe9, 0x06, 0x00, 0xd4, 0x02, 0x14, 0x29, 0xca, 0xfd, 0x2b, 0xd1, 0x6b, 0xe8,
0x05, 0xf1, 0x63, 0x6a, 0x67, 0x3e, 0x23, 0x7f, 0xf9, 0xeb, 0x05, 0x5a, 0x13, 0x2c, 0x98, 0x1e,
0xdd, 0xde, 0xf5, 0xa1, 0xc5, 0x11, 0x11, 0x0e, 0x4b, 0x08, 0x03, 0xd9, 0x09, 0xf5, 0xe7, 0x36,
0x21, 0xed, 0x27, 0xc4, 0xf5, 0x44, 0x2a, 0xcf, 0xf1, 0xef, 0x10, 0xc1, 0x09, 0xe7, 0xe7, 0xcb,
0xc8, 0xf2, 0x39, 0x04, 0x36, 0xfe, 0x7f, 0x05, 0xe1, 0xfa, 0x00, 0x2a, 0xe8, 0xff, 0x05, 0x13,
0x02, 0x0e, 0xf3, 0xd3, 0xff, 0xed, 0xea, 0xcb, 0x24, 0x0e, 0xe4, 0xfd, 0x13, 0xee, 0x33, 0xff,
0xbe, 0xf1, 0xfc, 0x23, 0xea, 0xd1, 0xd2, 0x1b, 0xfd, 0x0d, 0xed, 0x07, 0x0e, 0x0f, 0x01, 0x15,
0xb2, 0xf5, 0xf6, 0x15, 0xed, 0xbb, 0x51, 0x7f, 0xe0, 0xda, 0xdb, 0x02, 0xee, 0x19, 0xc8, 0x63,
0x42, 0x10, 0xfa, 0xea, 0xf2, 0x22, 0x12, 0xba, 0x1b, 0x2b, 0x1a, 0x05, 0x4d, 0xcc, 0x37, 0x08,
0xef, 0x26, 0xe7, 0x04, 0x02, 0x0b, 0xe5, 0xcc, 0x03, 0xd7, 0xd0, 0x14, 0x10, 0x16, 0x00, 0xfc,
0x2a, 0xdf, 0x34, 0xd8, 0x52, 0xfe, 0xb2, 0xb9, 0x23, 0x02, 0xce, 0xe5, 0x0b, 0xca, 0x10, 0xfc,
0xfe, 0xea, 0x35, 0x32, 0x7f, 0x01, 0x06, 0x0c, 0xfd, 0xdc, 0x0b, 0x26, 0x11, 0xf9, 0xfd, 0xee,
0xf7, 0xee, 0x2b, 0x1e, 0x4e, 0x01, 0x26, 0x2c, 0xd6, 0xfc, 0x09, 0x17, 0xfc, 0xde, 0xda, 0x1b,
0xf5, 0x23, 0x95, 0x7f, 0x8f, 0x05, 0xed, 0x1b, 0xed, 0xeb, 0x20, 0x3d, 0xda, 0x37, 0xe4, 0xed,
0x02, 0xeb, 0xd0, 0x17, 0xbb, 0xf1, 0x06, 0xeb, 0xdc, 0xea, 0x09, 0xf3, 0xd8, 0x05, 0xe6, 0x11,
0x13, 0xf3, 0x1c, 0xf5, 0xee, 0xf8, 0x2e, 0xd2, 0x04, 0xff, 0xe4, 0x0b, 0xe5, 0x25, 0x06, 0x02,
0x36, 0xff, 0xbd, 0x08, 0xc7, 0x11, 0x81, 0xec, 0x25, 0x3a, 0x0a, 0xf7, 0x23, 0xf7, 0x45, 0xd6,
0xe0, 0xe4, 0xf4, 0x1c, 0x0a, 0xd6, 0x08, 0x30, 0xdc, 0xf3, 0x15, 0x12, 0xfe, 0xee, 0xe9, 0x0d,
0xfd, 0xcd, 0x15, 0x1e, 0x01, 0xe6, 0x30, 0x00, 0xd3, 0xe7, 0xfd, 0xec, 0xde, 0xe3, 0xe7, 0xfa,
0xd9, 0x18, 0xd1, 0x2d, 0x81, 0xf2, 0x69, 0x38, 0xc3, 0xd5, 0x1d, 0xff, 0xac, 0x2d, 0xe7, 0xea,
0xf8, 0x0e, 0xeb, 0xd8, 0xa7, 0xd8, 0xdf, 0xcd, 0xfa, 0x23, 0xd8, 0xf2, 0xd3, 0x21, 0x3b, 0xfd,
0xf5, 0x31, 0xcb, 0xc3, 0xd3, 0x09, 0xc1, 0xe4, 0x55, 0x32, 0x06, 0xe3, 0x1a, 0x69, 0x69, 0xe5,
0xdc, 0xf3, 0x42, 0x1f, 0xf2, 0xf1, 0x7f, 0x26, 0xfc, 0x0c, 0x17, 0x18, 0x03, 0x07, 0xc9, 0x1f,
0xf2, 0x10, 0xda, 0xe9, 0xb3, 0x21, 0x05, 0xe3, 0x03, 0x28, 0x12, 0xfd, 0x12, 0xd2, 0x33, 0xea,
0xfe, 0x07, 0xe4, 0xf7, 0xca, 0x02, 0xc2, 0xf8, 0x0f, 0xf7, 0xb7, 0xe8, 0x14, 0x04, 0x40, 0xfc,
0xe6, 0xf3, 0x5a, 0x7f, 0x01, 0x45, 0xbc, 0x45, 0xd9, 0xbe, 0x22, 0x4f, 0x93, 0x15, 0x99, 0x9c,
0xee, 0xf1, 0x21, 0xdc, 0x1d, 0x11, 0xff, 0xe4, 0x00, 0xfc, 0x07, 0xa4, 0xf3, 0xd6, 0xe8, 0x03,
0x2e, 0xf1, 0x5c, 0x84, 0x73, 0x58, 0x57, 0xff, 0x52, 0x49, 0x12, 0x94, 0x41, 0xa4, 0x34, 0xfb,
0x00, 0xb2, 0x63, 0x22, 0x7f, 0xaf, 0x03, 0x70, 0xe3, 0xc6, 0xd8, 0x05, 0xa1, 0x49, 0xdc, 0xe6,
0x05, 0x20, 0x0f, 0xea, 0x1b, 0x31, 0xe1, 0xdb, 0x18, 0x1c, 0x2a, 0x0f, 0x2e, 0xd1, 0x01, 0xe7,
0xf6, 0x20, 0xff, 0xed, 0x0f, 0x0e, 0x0b, 0xf0, 0x07, 0x0a, 0xec, 0xdc, 0x12, 0xb8, 0xf1, 0xf9,
0x4d, 0x04, 0x48, 0x3e, 0xea, 0x7d, 0xdc, 0xcd, 0x44, 0x05, 0x74, 0x05, 0x23, 0x8e, 0x21, 0x9e,
0xd4, 0x91, 0xd8, 0xf4, 0xa3, 0x84, 0x08, 0xd5, 0x0d, 0xf6, 0x81, 0x89, 0xb7, 0x1e, 0xed, 0x68,
0x8b, 0xec, 0x44, 0xd2, 0x10, 0xec, 0x25, 0xd9, 0x53, 0x5e, 0x79, 0x0d, 0x2c, 0x3f, 0x28, 0x94,
0x14, 0xd9, 0xd2, 0xc4, 0xeb, 0xc9, 0x7f, 0xda, 0xd0, 0xed, 0x06, 0xf3, 0xbd, 0xe6, 0xd7, 0xfb,
0x56, 0x0a, 0x14, 0xcb, 0xf4, 0x0c, 0xec, 0x9e, 0x3d, 0x06, 0x96, 0xfd, 0x20, 0x32, 0x2d, 0x2c,
0xfa, 0x10, 0x09, 0x1d, 0x0e, 0x28, 0xfc, 0x04, 0x25, 0x21, 0x59, 0x39, 0x20, 0x43, 0xd3, 0xd0,
0xfa, 0x06, 0x97, 0x49, 0x81, 0x2b, 0xcd, 0x2d, 0xea, 0xf7, 0x23, 0x0d, 0xf7, 0x1c, 0xed, 0x00,
0x0f, 0xe0, 0x02, 0x19, 0xbe, 0xfc, 0x08, 0xe7, 0x02, 0xf6, 0x12, 0xfa, 0xf0, 0x1a, 0x05, 0x08,
0x1d, 0xe1, 0x27, 0xf2, 0x0d, 0x14, 0x42, 0xf2, 0x13, 0x01, 0x05, 0x05, 0xe7, 0x15, 0x08, 0xf5,
0x37, 0xf5, 0x48, 0xd4, 0x7c, 0xd4, 0x7f, 0x10, 0xf9, 0x05, 0x0e, 0xff, 0xfd, 0xbd, 0x00, 0xe7,
0x08, 0x14, 0xe5, 0xe2, 0xe0, 0x2f, 0xc9, 0xc4, 0x38, 0x18, 0xe0, 0x2c, 0x06, 0x23, 0x27, 0xd9,
0xf1, 0x14, 0xf7, 0x37, 0xf3, 0xf2, 0xed, 0x0a, 0xd6, 0xec, 0xe7, 0x14, 0xd2, 0x23, 0xcb, 0x15,
0x23, 0x03, 0x56, 0xc3, 0x7f, 0x00, 0x5e, 0xc8, 0x26, 0x2c, 0x06, 0xfc, 0xfa, 0xca, 0x12, 0xd6,
0xf7, 0xf7, 0xe3, 0x20, 0xce, 0x02, 0xc0, 0xdb, 0xec, 0x15, 0xd5, 0xff, 0xf2, 0xfa, 0x0c, 0xdc,
0xaf, 0x1a, 0xe5, 0xea, 0xde, 0x07, 0xe5, 0x0d, 0x0f, 0x33, 0x26, 0x03, 0x1a, 0x06, 0xea, 0xef,
0x00, 0x00, 0x00, 0x00, 0x32, 0xf1, 0xff, 0xff, 0x04, 0x00, 0x00, 0x00, 0x80, 0x00, 0x00, 0x00,
0x00, 0x00, 0x00, 0x00, 0x00, 0x00, 0x00, 0x00, 0x00, 0x00, 0x00, 0x00, 0x00, 0x00, 0x00, 0x00,
0x00, 0x00, 0x00, 0x00, 0x00, 0x00, 0x00, 0x00, 0x00, 0x00, 0x00, 0x00, 0x00, 0x00, 0x00, 0x00,
0x00, 0x00, 0x00, 0x00, 0x00, 0x00, 0x00, 0x00, 0x00, 0x00, 0x00, 0x00, 0x00, 0x00, 0x00, 0x00,
0x00, 0x00, 0x00, 0x00, 0x00, 0x00, 0x00, 0x00, 0x00, 0x00, 0x00, 0x00, 0x00, 0x00, 0x00, 0x00,
0x00, 0x00, 0x00, 0x00, 0x00, 0x00, 0x00, 0x00, 0x00, 0x00, 0x00, 0x00, 0x00, 0x00, 0x00, 0x00,
0x00, 0x00, 0x00, 0x00, 0x00, 0x00, 0x00, 0x00, 0x00, 0x00, 0x00, 0x00, 0x00, 0x00, 0x00, 0x00,
0x00, 0x00, 0x00, 0x00, 0x00, 0x00, 0x00, 0x00, 0x00, 0x00, 0x00, 0x00, 0x00, 0x00, 0x00, 0x00,
0x00, 0x00, 0x00, 0x00, 0x00, 0x00, 0x00, 0x00, 0x00, 0x00, 0x00, 0x00, 0x00, 0x00, 0x00, 0x00,
0x00, 0x00, 0x00, 0x00, 0xc2, 0xf1, 0xff, 0xff, 0x04, 0x00, 0x00, 0x00, 0x00, 0x0c, 0x00, 0x00,
0x3d, 0x05, 0x18, 0xff, 0xf8, 0xb8, 0x99, 0xe4, 0x09, 0x21, 0x02, 0x0f, 0x16, 0x11, 0x5e, 0x26,
0x10, 0x0a, 0x06, 0xe9, 0x01, 0x25, 0xed, 0x19, 0x09, 0x30, 0x0b, 0x3f, 0xe0, 0x21, 0xc2, 0x0a,
0x18, 0x00, 0xfb, 0xe2, 0xf0, 0x07, 0x07, 0x1c, 0x10, 0x17, 0x1f, 0x17, 0xff, 0x07, 0x1a, 0x0a,
0x0a, 0xfc, 0xf8, 0x08, 0x08, 0x0e, 0x15, 0xea, 0x00, 0x06, 0x00, 0xec, 0xce, 0x10, 0xd9, 0xe6,
0xb2, 0xf9, 0xf5, 0xba, 0x14, 0xe1, 0x03, 0x2f, 0xc0, 0x12, 0xe6, 0x81, 0xfd, 0xf8, 0x0a, 0xd8,
0xc7, 0xff, 0x0b, 0x21, 0xfc, 0x06, 0x32, 0xcc, 0x00, 0xc1, 0xf0, 0xe0, 0xfa, 0x0d, 0x3b, 0xe6,
0xe1, 0x05, 0xde, 0x1d, 0xb0, 0x09, 0xe3, 0xf0, 0x1d, 0xf3, 0x24, 0x23, 0x02, 0x47, 0x05, 0x11,
0x5a, 0x24, 0xe5, 0xf4, 0x0a, 0x2b, 0x1f, 0xfc, 0x01, 0x42, 0x3c, 0xec, 0xb0, 0x13, 0xc9, 0xb5,
0xf5, 0xf2, 0x03, 0x0f, 0xc7, 0xec, 0x90, 0xf0, 0xe2, 0xe3, 0xe4, 0x26, 0x0c, 0xe3, 0x1c, 0xcc,
0x7f, 0x2d, 0x2e, 0x35, 0xe5, 0xea, 0xdf, 0x31, 0x25, 0x35, 0x23, 0x07, 0x33, 0x0c, 0x19, 0xfd,
0x1c, 0x0c, 0x15, 0xee, 0x31, 0xe6, 0x2c, 0xf7, 0xe6, 0x5d, 0x23, 0xfa, 0x22, 0xee, 0x2d, 0x1b,
0xce, 0x10, 0x05, 0x01, 0xfb, 0xaa, 0xe7, 0x19, 0x24, 0xeb, 0xd5, 0x1b, 0xf1, 0xac, 0x0c, 0x4e,
0x02, 0x05, 0x18, 0xf9, 0xdc, 0x39, 0x2b, 0x0f, 0x21, 0xd0, 0xca, 0xf6, 0xe6, 0xe2, 0xcc, 0x08,
0xf7, 0x13, 0xd2, 0x08, 0x0e, 0xc7, 0x14, 0xe5, 0xec, 0x04, 0xfd, 0x0f, 0x14, 0xc6, 0xd1, 0xfd,
0xe0, 0x04, 0x01, 0xe2, 0x6f, 0xe9, 0x00, 0x21, 0xcd, 0x36, 0xec, 0x89, 0x0a, 0xdd, 0x08, 0xf4,
0x81, 0x1d, 0xf8, 0xcf, 0x16, 0xd6, 0x27, 0xb7, 0xd1, 0xe1, 0x04, 0x24, 0x17, 0xfa, 0x3a, 0x0e,
0xfb, 0xf4, 0xe6, 0x0a, 0x3e, 0xd2, 0xea, 0xff, 0xfd, 0x13, 0xf2, 0xd6, 0x0a, 0x0c, 0xff, 0xe7,
0xcb, 0x10, 0xf0, 0xd0, 0x18, 0x0c, 0x2c, 0xb3, 0xd3, 0x1d, 0xf6, 0x04, 0xe1, 0x1f, 0x12, 0xf0,
0x2f, 0xe5, 0x2e, 0xdf, 0x23, 0x81, 0x9f, 0xbd, 0xdb, 0x44, 0x19, 0xf7, 0x04, 0x1c, 0x66, 0xfc,
0x32, 0x04, 0x43, 0xf9, 0xd1, 0x49, 0x01, 0x41, 0x1e, 0x15, 0xb6, 0x4c, 0xdb, 0x16, 0xdc, 0x31,
0xf0, 0x19, 0x23, 0xf1, 0x18, 0x10, 0x27, 0x23, 0x07, 0xcf, 0x0d, 0x09, 0xbb, 0x2d, 0xce, 0x2c,
0xcf, 0xc5, 0xf0, 0xf0, 0x28, 0x00, 0x2d, 0xd7, 0xdb, 0x9c, 0xcd, 0xde, 0x00, 0x00, 0x05, 0xe7,
0xc5, 0xf5, 0xe3, 0xee, 0xd3, 0x08, 0x19, 0x17, 0xf6, 0x14, 0x2d, 0xaa, 0xc9, 0x3a, 0xfe, 0xd2,
0x01, 0xca, 0x12, 0x32, 0x19, 0x18, 0x29, 0xd7, 0x03, 0x83, 0xfb, 0xa7, 0xd9, 0xfc, 0x1c, 0xf1,
0x10, 0xf5, 0x0c, 0xd8, 0x56, 0x30, 0x29, 0xc3, 0x08, 0xd2, 0x29, 0xd6, 0xb7, 0x7f, 0xb6, 0xc6,
0x03, 0xfe, 0x12, 0xbf, 0x44, 0xa6, 0x30, 0xd4, 0xc8, 0xd9, 0x18, 0xfe, 0xc2, 0x9f, 0x36, 0x0f,
0xd7, 0x0d, 0x37, 0x14, 0x0b, 0x30, 0xe1, 0x09, 0xd8, 0xe4, 0xf0, 0xeb, 0xf3, 0xf8, 0xc3, 0xf3,
0x12, 0x03, 0xfc, 0x1d, 0x17, 0xe7, 0x0a, 0xf2, 0xe3, 0x19, 0x5a, 0xd9, 0x10, 0xe5, 0x33, 0x0d,
0x2a, 0x22, 0x35, 0x08, 0x2d, 0xf7, 0x1a, 0x0c, 0xe2, 0x00, 0xde, 0xee, 0xdc, 0x14, 0xe0, 0x17,
0xba, 0xfa, 0xdc, 0xe8, 0x55, 0xc9, 0x17, 0xb7, 0xdc, 0x20, 0xd2, 0xf8, 0xfb, 0x04, 0xdf, 0xf4,
0x3a, 0xec, 0x3c, 0xd6, 0x64, 0x81, 0xbc, 0xce, 0xdf, 0x2e, 0x02, 0xda, 0x16, 0x05, 0x45, 0x2a,
0xe8, 0x04, 0xff, 0xc4, 0x00, 0x40, 0x15, 0x1b, 0x0b, 0x26, 0xb3, 0x54, 0x17, 0x15, 0x29, 0x0a,
0x23, 0x03, 0x04, 0xed, 0xdc, 0x5d, 0x41, 0x06, 0x33, 0xb3, 0x05, 0x25, 0xc0, 0x20, 0xc3, 0x13,
0xed, 0xe9, 0xdf, 0xda, 0x5d, 0x02, 0x10, 0xa9, 0xb6, 0xba, 0xe2, 0xb7, 0xd4, 0xdd, 0xc6, 0xf4,
0xc4, 0xec, 0xe0, 0xfb, 0xf6, 0x22, 0x19, 0xf3, 0xc2, 0xdd, 0x01, 0xb0, 0xdb, 0x0c, 0xeb, 0x88,
0x19, 0x02, 0x52, 0x47, 0xf6, 0x0b, 0xf2, 0xdf, 0x39, 0xac, 0x2b, 0xb3, 0xec, 0xfc, 0x70, 0x05,
0x43, 0xf5, 0x11, 0x1b, 0xf5, 0xb2, 0xac, 0xdb, 0x44, 0x03, 0x30, 0x2b, 0x1f, 0x11, 0x41, 0x47,
0x50, 0xfe, 0x21, 0xe6, 0xc3, 0x50, 0x09, 0x47, 0x12, 0x39, 0x03, 0x4e, 0xeb, 0x3e, 0xc1, 0x34,
0xf9, 0x0a, 0xf1, 0x06, 0xe7, 0x19, 0xff, 0x1f, 0x26, 0xfd, 0x30, 0x1d, 0x02, 0xfc, 0xf8, 0x34,
0xf1, 0xeb, 0xf2, 0x07, 0x22, 0xf6, 0x24, 0xe6, 0xf7, 0xfe, 0x22, 0xf0, 0xc5, 0x1f, 0xf5, 0x02,
0xa8, 0xdb, 0xd2, 0xd7, 0xf3, 0xe5, 0x02, 0x41, 0xb9, 0x30, 0xd8, 0x81, 0xec, 0xe5, 0x19, 0xc1,
0xef, 0x02, 0x1b, 0x23, 0xf3, 0x1a, 0x31, 0xd0, 0x10, 0xac, 0xd8, 0xf3, 0xf6, 0x1e, 0x31, 0xe5,
0x00, 0xf9, 0xcc, 0xd4, 0x19, 0x07, 0x13, 0xd7, 0x1c, 0x28, 0x1b, 0xdd, 0x19, 0x0b, 0x0f, 0x19,
0x24, 0x19, 0x2d, 0xd5, 0xca, 0x2a, 0x1b, 0x0f, 0x23, 0xdf, 0xcb, 0x22, 0xbe, 0x0c, 0x27, 0x30,
0x00, 0x00, 0x06, 0x03, 0x17, 0x09, 0xf6, 0x41, 0xfe, 0xef, 0xed, 0xe4, 0xe1, 0xea, 0xd1, 0x2f,
0xd3, 0xd3, 0xcd, 0xed, 0x14, 0x39, 0x28, 0xfa, 0xc6, 0xf0, 0x09, 0xfa, 0x3d, 0x1e, 0x23, 0x20,
0x05, 0xfb, 0xd8, 0x21, 0x81, 0x19, 0x27, 0x0d, 0x04, 0xf0, 0x1b, 0x10, 0xed, 0x1d, 0xe9, 0xff,
0xf5, 0xd9, 0xf3, 0x16, 0x25, 0x19, 0xf6, 0xf1, 0x13, 0xde, 0x08, 0xc6, 0xe1, 0xfd, 0xfe, 0xe4,
0x12, 0x28, 0xf8, 0x12, 0xee, 0x75, 0x22, 0x0b, 0x31, 0xa7, 0x14, 0x31, 0xc4, 0x40, 0x85, 0xf5,
0x32, 0xe2, 0x1a, 0x0b, 0x30, 0x9b, 0xc2, 0xeb, 0xea, 0xf8, 0x2e, 0xc6, 0x35, 0xd2, 0xf3, 0xed,
0xfa, 0x04, 0x1d, 0xfa, 0x24, 0x20, 0xfe, 0x09, 0x29, 0xf4, 0xcc, 0xed, 0xd6, 0x1a, 0xfb, 0x03,
0xc2, 0xfe, 0xd6, 0x02, 0x42, 0xce, 0x1a, 0xd9, 0xdc, 0x1e, 0x22, 0x36, 0x27, 0xed, 0xff, 0x18,
0xb8, 0xc9, 0xd5, 0x20, 0x29, 0xb2, 0xce, 0x34, 0xb5, 0x10, 0xcf, 0xda, 0x08, 0x37, 0x4b, 0xdd,
0xda, 0x2d, 0xd8, 0x0b, 0x45, 0x11, 0x34, 0xa4, 0xd8, 0x32, 0x4c, 0xf1, 0x81, 0x1e, 0xfa, 0xad,
0x4f, 0x19, 0xf7, 0xda, 0x67, 0x0f, 0x6d, 0xb5, 0x09, 0xf5, 0x04, 0xcc, 0xbe, 0x64, 0x81, 0x05,
0xe4, 0xce, 0x17, 0xb7, 0x60, 0xa2, 0x08, 0xc1, 0xdb, 0xc0, 0xc8, 0xfa, 0x28, 0xb1, 0x48, 0x1a,
0xd8, 0x07, 0xfd, 0x2c, 0xe4, 0xf5, 0x9f, 0x01, 0xe6, 0xbb, 0xde, 0xdb, 0xd9, 0xf1, 0xf1, 0xcf,
0x36, 0x16, 0x17, 0x07, 0x0a, 0xee, 0x19, 0xe1, 0x05, 0x1a, 0x69, 0x0e, 0x04, 0x12, 0x27, 0x05,
0xfd, 0xed, 0xe9, 0x00, 0x09, 0x03, 0xf9, 0x14, 0x05, 0x35, 0xea, 0xcd, 0x0d, 0x0f, 0xfc, 0x2d,
0xe8, 0xf5, 0xe1, 0xdb, 0x2c, 0x0c, 0x6d, 0x9e, 0xe1, 0x1e, 0xe8, 0x23, 0xbb, 0x06, 0xf0, 0xff,
0xc8, 0xb3, 0xda, 0x39, 0xeb, 0x5a, 0x07, 0xa7, 0x1d, 0xe5, 0x41, 0x04, 0x13, 0xd5, 0xd7, 0xc8,
0x4d, 0x21, 0x06, 0xf0, 0xcf, 0x19, 0x00, 0x69, 0x2c, 0x25, 0x62, 0x0d, 0xd4, 0x01, 0x26, 0x34,
0x39, 0x38, 0x01, 0x27, 0x0a, 0xf9, 0xfb, 0x30, 0x09, 0xf5, 0x06, 0x2a, 0x0a, 0xed, 0xad, 0x3d,
0xfb, 0xfd, 0xd7, 0xee, 0x30, 0xff, 0x11, 0x00, 0xb0, 0x4a, 0x35, 0xea, 0x27, 0x15, 0xce, 0xfd,
0x0d, 0x03, 0x30, 0x03, 0xda, 0xf0, 0xff, 0x5b, 0x18, 0x97, 0x81, 0xfc, 0xe5, 0xc8, 0xd0, 0xf1,
0xec, 0x10, 0xf9, 0xe9, 0x33, 0xf7, 0x17, 0xb4, 0xae, 0x42, 0xf8, 0x0c, 0x3d, 0xfd, 0xa4, 0xb7,
0xee, 0x2d, 0x18, 0x29, 0x0f, 0x2c, 0xfd, 0x00, 0x12, 0xc3, 0x0d, 0x14, 0xdc, 0x33, 0xcf, 0xe5,
0x1f, 0xdb, 0x1c, 0xf9, 0x42, 0xb5, 0xdf, 0xe7, 0xe3, 0xef, 0x7f, 0xd2, 0xfa, 0xa9, 0x1e, 0x20,
0xfa, 0x26, 0x18, 0xfa, 0x3c, 0xee, 0xde, 0xf1, 0x13, 0x10, 0xfc, 0xf2, 0xdd, 0x2e, 0x14, 0xe4,
0xcf, 0x25, 0xe8, 0xd8, 0x59, 0xbc, 0x1c, 0xe4, 0xda, 0x0b, 0x14, 0x30, 0xdf, 0xff, 0x08, 0x1b,
0xe3, 0xc7, 0xfc, 0x23, 0x3b, 0xcc, 0xb6, 0xe4, 0xbf, 0xd7, 0xfe, 0xcd, 0x0c, 0x4a, 0x32, 0xd4,
0x05, 0x38, 0xea, 0xfa, 0x52, 0xf0, 0x1b, 0xbc, 0xc7, 0x51, 0x36, 0xee, 0x85, 0xfe, 0xd6, 0xcf,
0x10, 0x13, 0xfe, 0xf9, 0x12, 0x24, 0x2a, 0xe9, 0x0d, 0x9f, 0x0b, 0xeb, 0x9f, 0x7f, 0xd4, 0xc7,
0x1f, 0xf3, 0x39, 0xf2, 0x4d, 0xc2, 0x06, 0xf9, 0xce, 0xd5, 0xd7, 0xe5, 0x0f, 0xb0, 0x36, 0xda,
0x0a, 0x26, 0x11, 0x14, 0xf1, 0x23, 0xd6, 0x07, 0x02, 0xdb, 0xe5, 0xd6, 0xe3, 0x10, 0xc4, 0xf7,
0x16, 0x1a, 0x01, 0x0c, 0x29, 0xd6, 0x0d, 0xf5, 0xee, 0x14, 0x42, 0xe2, 0xed, 0xfb, 0x18, 0x0c,
0xeb, 0x0f, 0xfe, 0x1c, 0x48, 0xf7, 0x11, 0x1e, 0xf1, 0x4d, 0xfd, 0x9a, 0x14, 0x0a, 0x2a, 0xfe,
0xb8, 0x23, 0xe0, 0xd9, 0x55, 0xd3, 0x34, 0xaa, 0xc4, 0x1b, 0x0d, 0x17, 0xc5, 0x0b, 0xc9, 0xf0,
0x4d, 0x11, 0xed, 0xe6, 0x59, 0x0f, 0x4c, 0xc0, 0xee, 0xea, 0x14, 0xb4, 0xd7, 0x62, 0x8a, 0xea,
0xd2, 0xc0, 0xfb, 0x9e, 0x5d, 0xa0, 0x51, 0xc8, 0xe0, 0xcd, 0xb4, 0x09, 0x25, 0xa9, 0x63, 0x30,
0xc2, 0x2b, 0xfa, 0x34, 0xdd, 0x20, 0x9c, 0xfd, 0x1a, 0xc9, 0xef, 0xd2, 0xea, 0xe3, 0xfa, 0xbb,
0x58, 0x12, 0x36, 0x06, 0x1a, 0xfb, 0x10, 0xe3, 0xfc, 0x1b, 0x7f, 0x08, 0xf3, 0x1b, 0x46, 0x23,
0x03, 0x11, 0xfd, 0x14, 0x27, 0xf9, 0xfc, 0x20, 0x08, 0x1f, 0xf5, 0xc9, 0xed, 0xfd, 0xfa, 0x43,
0xaf, 0xe2, 0xd1, 0xbb, 0x31, 0xfc, 0x48, 0x8f, 0xdf, 0x08, 0xf5, 0xf2, 0xac, 0x10, 0xcd, 0xea,
0xda, 0xfa, 0xe3, 0x36, 0xb1, 0x1e, 0x03, 0x10, 0x07, 0x1f, 0x1d, 0x20, 0xf4, 0x09, 0xec, 0x26,
0xf0, 0xe6, 0xb9, 0x00, 0x1b, 0x38, 0x14, 0xdb, 0x0f, 0x00, 0x18, 0xed, 0xcf, 0x0e, 0xdf, 0xf8,
0xf7, 0xfd, 0xf0, 0x1b, 0xea, 0xe0, 0xd5, 0xcd, 0xdf, 0x16, 0xee, 0xf5, 0x14, 0x36, 0x11, 0xec,
0x2a, 0xff, 0xf3, 0xff, 0x08, 0x4e, 0xfc, 0xdf, 0x1f, 0x3c, 0xfd, 0xff, 0xce, 0x45, 0x0d, 0x06,
0x11, 0x20, 0x08, 0x56, 0xff, 0x0f, 0xf9, 0x30, 0x1c, 0xcd, 0xb0, 0xf2, 0xdf, 0x2e, 0xb8, 0x29,
0xed, 0x0c, 0xaa, 0xb8, 0x5b, 0x1a, 0x7f, 0x9c, 0xb3, 0x50, 0x03, 0x35, 0x19, 0x17, 0xc2, 0xca,
0x09, 0x4f, 0x30, 0x21, 0xea, 0x66, 0xb8, 0xf3, 0x05, 0x81, 0x17, 0x1c, 0x8c, 0x5e, 0x9a, 0xd5,
0x4c, 0xad, 0x3a, 0x21, 0x2f, 0x8b, 0xce, 0x0f, 0xcf, 0x07, 0x78, 0xb4, 0x5a, 0xad, 0x20, 0x1d,
0x04, 0xd2, 0xee, 0xd8, 0x2c, 0xe9, 0xf4, 0x2f, 0x0e, 0x1e, 0xf1, 0xba, 0xdf, 0x3a, 0x0a, 0xf1,
0xb3, 0xf4, 0xf2, 0xda, 0x5b, 0xc3, 0x39, 0xb0, 0xc0, 0xf5, 0xd6, 0x13, 0x99, 0xff, 0xe9, 0x03,
0xd0, 0xed, 0xe9, 0x26, 0x66, 0xa7, 0xb2, 0x18, 0xc8, 0xf9, 0xe1, 0x8d, 0xed, 0x5f, 0x1a, 0xe5,
0xd1, 0x15, 0xc4, 0xf7, 0x59, 0xe3, 0x33, 0x9f, 0xe5, 0x35, 0x16, 0xbe, 0xbe, 0x07, 0xe0, 0xb2,
0xf6, 0xe5, 0xe4, 0xfb, 0x9c, 0x3a, 0xf3, 0x16, 0x42, 0xda, 0x25, 0x24, 0x0a, 0x21, 0x07, 0xe6,
0x64, 0xf9, 0xfd, 0xf8, 0xd6, 0x22, 0x18, 0x0f, 0xfc, 0xfa, 0x09, 0xd0, 0xd6, 0xff, 0xe7, 0xcf,
0xf2, 0xfd, 0x10, 0xff, 0xe1, 0xe9, 0x81, 0xfd, 0xf8, 0xdd, 0x02, 0x29, 0x03, 0xda, 0x1f, 0xfd,
0x52, 0x0c, 0xfd, 0x1b, 0xc1, 0xf1, 0xcc, 0x4b, 0x36, 0x33, 0x33, 0x2a, 0x33, 0x2f, 0x13, 0x0b,
0x26, 0xf4, 0x03, 0xed, 0xff, 0xd4, 0x0a, 0x02, 0x02, 0x47, 0x34, 0x09, 0x02, 0xfe, 0x2c, 0x28,
0xdb, 0xcc, 0x0d, 0xf6, 0x05, 0xa7, 0xfd, 0x0b, 0x26, 0xe4, 0xd5, 0x22, 0xeb, 0xcb, 0xf2, 0x16,
0x2b, 0xfc, 0x22, 0xe4, 0x3e, 0xdd, 0xe0, 0xac, 0xe8, 0x26, 0xfe, 0xf1, 0xfe, 0x21, 0x29, 0xf3,
0x4b, 0x27, 0x23, 0xcb, 0xee, 0x26, 0x25, 0x35, 0xec, 0x37, 0xf3, 0x4e, 0x02, 0x1a, 0x00, 0x12,
0x0f, 0x24, 0x0c, 0x27, 0x03, 0x6a, 0x2e, 0x0a, 0x34, 0xb0, 0x10, 0x29, 0xc3, 0x29, 0x92, 0x11,
0x04, 0xf0, 0xf7, 0x05, 0x38, 0xdf, 0xe4, 0xd8, 0xc3, 0xd4, 0x46, 0xb8, 0x2c, 0xd2, 0xe2, 0xea,
0x81, 0x11, 0xf1, 0xe7, 0x0b, 0x0d, 0xfa, 0x1b, 0xd6, 0xdd, 0xf9, 0xab, 0xa3, 0x00, 0xe2, 0x94,
0x12, 0xe6, 0x55, 0x1d, 0xf2, 0xf2, 0xfc, 0xe3, 0x38, 0x83, 0x21, 0xb3, 0xf6, 0xe2, 0x7f, 0xff,
0xf2, 0xfd, 0xdd, 0x54, 0xc5, 0x01, 0x07, 0xf6, 0xe6, 0xf3, 0xfb, 0x39, 0x0f, 0x2e, 0x04, 0xfc,
0x21, 0x29, 0xd8, 0xfb, 0x14, 0x22, 0x1d, 0xd6, 0xe1, 0x59, 0x47, 0xf9, 0xb3, 0x18, 0xa7, 0xbb,
0x06, 0xf6, 0x12, 0x07, 0xc9, 0xfa, 0xb9, 0xdc, 0x0d, 0xf1, 0xd3, 0x28, 0x07, 0xde, 0x14, 0xd6,
0x7f, 0x3d, 0x05, 0x03, 0xe2, 0x09, 0xda, 0x1b, 0x1a, 0x36, 0xf9, 0x1b, 0x2a, 0xfd, 0xfd, 0x08,
0x03, 0x1b, 0x24, 0xf5, 0x16, 0xff, 0x2f, 0x01, 0xfb, 0x20, 0x0f, 0xf1, 0x19, 0xe4, 0xf4, 0x2a,
0xee, 0xed, 0x15, 0xfc, 0x04, 0xb2, 0xec, 0x10, 0x07, 0xe5, 0xfd, 0x05, 0x0e, 0xd3, 0x12, 0x35,
0xe8, 0x09, 0xe2, 0x2d, 0xc3, 0x03, 0xa7, 0xfb, 0x0e, 0x1b, 0xea, 0x16, 0x14, 0x01, 0x0c, 0xd8,
0x54, 0x2a, 0xeb, 0x1e, 0x04, 0x52, 0xe8, 0x0f, 0x2e, 0x42, 0x48, 0x07, 0xd8, 0x1b, 0x0b, 0x01,
0xea, 0xee, 0xe8, 0x16, 0xfc, 0xf3, 0xda, 0xe7, 0xf5, 0x29, 0xf8, 0x08, 0x18, 0x20, 0x1a, 0xd2,
0x09, 0x08, 0x19, 0x0b, 0x21, 0x2d, 0xf8, 0xef, 0x0a, 0x48, 0xf6, 0xff, 0xf2, 0x37, 0x04, 0xf3,
0x30, 0xfc, 0xee, 0x1e, 0x09, 0xfa, 0x07, 0x2c, 0x07, 0xca, 0xbc, 0xd5, 0xe5, 0x77, 0xce, 0x13,
0xdc, 0x0c, 0xb5, 0xb8, 0x6d, 0x15, 0x7f, 0xa6, 0x96, 0x62, 0xdb, 0x15, 0xee, 0x42, 0xd4, 0xab,
0x24, 0x1a, 0x33, 0x17, 0xee, 0x2b, 0xb4, 0xf4, 0x15, 0xac, 0x0a, 0x38, 0xb0, 0x38, 0xbb, 0xd5,
0x56, 0xee, 0x4a, 0x4a, 0x17, 0xd1, 0xac, 0x13, 0xf3, 0xfb, 0x7f, 0xba, 0x4b, 0xde, 0x16, 0xf0,
0x15, 0xfb, 0x00, 0xe0, 0x55, 0xf4, 0xf9, 0x0c, 0x0f, 0x19, 0x0c, 0xed, 0x05, 0x08, 0x19, 0x13,
0xcf, 0xf6, 0xed, 0xc8, 0x24, 0xbf, 0x1d, 0xf7, 0xcf, 0xef, 0xed, 0x1c, 0xd1, 0xe4, 0xee, 0xe5,
0xd6, 0xda, 0x0e, 0x0b, 0x40, 0xc9, 0xe8, 0x0e, 0xd9, 0xff, 0xf8, 0xc6, 0xe6, 0x3a, 0x02, 0xf2,
0xd9, 0x00, 0x09, 0x03, 0x3a, 0xf1, 0x1a, 0xd3, 0xf1, 0x1c, 0x06, 0xe3, 0xe2, 0x19, 0xef, 0xdf,
0xe1, 0xf9, 0xd4, 0x1d, 0xbc, 0x2a, 0x0f, 0xe8, 0x19, 0xd2, 0x36, 0x39, 0xf3, 0x3a, 0x0a, 0xd2,
0x7f, 0xfb, 0xe8, 0xea, 0xf1, 0x1c, 0x00, 0x0b, 0x04, 0x33, 0x18, 0xfc, 0xb1, 0x22, 0xc8, 0xc8,
0x07, 0x0e, 0x03, 0x0b, 0xd6, 0xda, 0x93, 0xf8, 0x11, 0xf0, 0xed, 0x1e, 0xff, 0xee, 0x1e, 0xed,
0x64, 0x05, 0x2b, 0x1b, 0xc4, 0x00, 0x9f, 0x55, 0x33, 0x50, 0x36, 0x16, 0x4e, 0x08, 0x08, 0x05,
0xf6, 0xf0, 0x27, 0xf1, 0xfc, 0xde, 0x23, 0xf0, 0xf5, 0x54, 0x1e, 0x02, 0x0b, 0xe2, 0x1e, 0x25,
0xe6, 0xf4, 0x14, 0x02, 0x19, 0x8f, 0x0b, 0x1c, 0x2b, 0xda, 0xd8, 0x05, 0xd1, 0xc2, 0xf3, 0x44,
0xf5, 0x05, 0xe4, 0xe5, 0x0a, 0x09, 0x0e, 0x05, 0xfe, 0x0d, 0x06, 0xe6, 0x18, 0xef, 0xfb, 0x15,
0xf0, 0xeb, 0x08, 0x05, 0xf9, 0x23, 0x10, 0xf5, 0xff, 0xc6, 0xf7, 0xf4, 0x07, 0x1d, 0x37, 0x01,
0x1b, 0xf5, 0xef, 0xfc, 0x0e, 0xe2, 0xe6, 0x17, 0x0d, 0x0e, 0xf3, 0xe6, 0x19, 0xf2, 0xf6, 0x2e,
0xec, 0xf5, 0xc6, 0xc6, 0xf9, 0x6d, 0x26, 0x0a, 0xe1, 0xfe, 0xef, 0x28, 0x06, 0x4d, 0xfa, 0xf9,
0x0c, 0xf3, 0xf2, 0x17, 0x81, 0x1a, 0x19, 0x1f, 0x06, 0xd8, 0xf8, 0x18, 0x0a, 0x0d, 0xf4, 0xfb,
0x08, 0xf3, 0xec, 0x06, 0xfb, 0x0a, 0xff, 0x0e, 0x10, 0xe7, 0x08, 0xfc, 0xe1, 0x06, 0xe1, 0xd5,
0xe8, 0xf7, 0xf7, 0x5d, 0xa0, 0xeb, 0xa7, 0xd7, 0x05, 0xe5, 0x19, 0x24, 0x00, 0x18, 0x1c, 0xc1,
0x63, 0x1b, 0x21, 0x2e, 0x0e, 0x0a, 0xca, 0x26, 0x50, 0x66, 0x6d, 0x03, 0xdd, 0xf8, 0x20, 0x16,
0x02, 0x0a, 0xf7, 0x0c, 0x26, 0xe3, 0xee, 0xee, 0xef, 0x2f, 0x21, 0x12, 0x15, 0x2a, 0x21, 0xda,
0xff, 0x0f, 0xfa, 0xdf, 0x23, 0x12, 0x04, 0xf7, 0x06, 0x71, 0x0f, 0xf8, 0xed, 0x00, 0x0f, 0xf6,
0x24, 0x17, 0x21, 0x30, 0x1d, 0x04, 0xdc, 0x1e, 0x16, 0xcc, 0xb8, 0xf1, 0x08, 0x11, 0xc3, 0x30,
0xdc, 0x38, 0xb7, 0xb5, 0x66, 0x07, 0x53, 0x81, 0x9e, 0x6f, 0x12, 0x22, 0x08, 0x0c, 0xae, 0xc3,
0xfb, 0xf7, 0xfd, 0x0d, 0xe2, 0x0c, 0xce, 0xee, 0x08, 0x06, 0x16, 0x22, 0xeb, 0x17, 0x19, 0xf4,
0x3c, 0x0a, 0x1a, 0x1c, 0xef, 0x1b, 0xe1, 0x18, 0x27, 0x2a, 0x3c, 0xf2, 0xf3, 0x03, 0xff, 0x19,
0xf0, 0xe4, 0xf6, 0xfc, 0x03, 0xe2, 0xf8, 0x0f, 0xdf, 0x18, 0x11, 0x03, 0x31, 0x05, 0x16, 0xf3,
0x00, 0xeb, 0xeb, 0x0c, 0x21, 0xfe, 0x0c, 0x05, 0xfd, 0x21, 0x0f, 0xeb, 0xef, 0x0c, 0xeb, 0xec,
0x14, 0x10, 0x13, 0x18, 0x01, 0xf8, 0xe7, 0x36, 0x32, 0xb8, 0xad, 0x0e, 0xfb, 0x0e, 0xe2, 0x2b,
0xe3, 0x23, 0xc7, 0xdf, 0x41, 0xf1, 0x17, 0xdb, 0x81, 0x4a, 0xf1, 0x1c, 0x17, 0x1a, 0xb1, 0xd3,
0x0d, 0xf0, 0x0c, 0xe6, 0x06, 0x23, 0x21, 0x08, 0x1d, 0xd5, 0xde, 0xf5, 0x1b, 0xf9, 0xe2, 0x19,
0x06, 0x38, 0x03, 0x03, 0x18, 0xb4, 0x00, 0x16, 0xe6, 0xfa, 0xd2, 0x0f, 0xfd, 0xdf, 0xbe, 0xf7,
0x03, 0xfb, 0x09, 0xed, 0x7f, 0xff, 0x0e, 0x21, 0xf3, 0x30, 0xeb, 0x92, 0x0c, 0xcc, 0xf5, 0x10,
0x9c, 0xe9, 0xf2, 0x01, 0x0d, 0xcb, 0x23, 0xef, 0xe2, 0xcc, 0xd6, 0x00, 0x34, 0xd3, 0x3d, 0x18,
0x13, 0xed, 0x0a, 0x05, 0x4c, 0xa6, 0xd1, 0x06, 0x0d, 0x02, 0x16, 0xf9, 0x16, 0xf4, 0x13, 0x2a,
0xc8, 0x06, 0xec, 0xff, 0x1a, 0x02, 0x27, 0xce, 0xda, 0x18, 0x0a, 0x0f, 0xf2, 0x14, 0xfe, 0xed,
0x7f, 0x15, 0x36, 0xd4, 0x3e, 0x15, 0x4b, 0x0c, 0x5d, 0xd8, 0x09, 0x12, 0xdf, 0x10, 0xba, 0x3a,
0xb7, 0xbc, 0xff, 0xc4, 0x1e, 0xce, 0xff, 0x03, 0xaf, 0xc0, 0xae, 0x02, 0x4b, 0xdd, 0x06, 0x0d,
0xc0, 0x0c, 0xf8, 0xed, 0x02, 0x01, 0xd4, 0x0f, 0xef, 0xfc, 0xe5, 0xc2, 0x0d, 0xc2, 0x00, 0xe5,
0x00, 0x13, 0x0b, 0x2c, 0xf7, 0x00, 0x0e, 0xf6, 0x02, 0xed, 0x4a, 0xdc, 0x08, 0x07, 0x20, 0xeb,
0x0e, 0x09, 0xfc, 0xd9, 0x3c, 0xe7, 0x30, 0xff, 0xf8, 0x32, 0x14, 0xd6, 0x25, 0x04, 0x1a, 0x04,
0xbc, 0xfc, 0x0d, 0xf4, 0x1f, 0x0a, 0x32, 0xd3, 0x03, 0xe3, 0xd1, 0xea, 0xdc, 0x0e, 0x09, 0xfa,
0xdc, 0xfc, 0xca, 0x7f, 0x92, 0x20, 0xf9, 0x1a, 0x27, 0xdd, 0xdb, 0x32, 0x0b, 0x1e, 0x06, 0x1a,
0x69, 0x12, 0xdc, 0xfa, 0x12, 0x09, 0x24, 0xde, 0xfc, 0x2b, 0x66, 0xdc, 0xbf, 0x14, 0xab, 0xd4,
0xd2, 0xeb, 0xe3, 0x13, 0xbf, 0x05, 0x90, 0xe5, 0xc5, 0xe1, 0xcd, 0x01, 0xd9, 0xf1, 0x0f, 0xca,
0x67, 0x0c, 0xf5, 0x15, 0xd1, 0xdd, 0xcf, 0x0c, 0x1b, 0x48, 0x17, 0x2d, 0x35, 0x1b, 0x33, 0xf2,
0xef, 0xde, 0xf6, 0xe7, 0x1c, 0xb6, 0x2c, 0x1b, 0xd4, 0x6f, 0x31, 0x0c, 0x0b, 0xf4, 0x35, 0x30,
0xd9, 0xba, 0xfc, 0xe5, 0xf2, 0xb2, 0x0d, 0xfb, 0x2c, 0xc3, 0xcd, 0x02, 0xeb, 0xbb, 0xfa, 0x4d,
0x0e, 0xcf, 0xf1, 0xfe, 0x8b, 0x47, 0xed, 0xed, 0x2a, 0xd0, 0x47, 0x2a, 0xe3, 0x35, 0x16, 0xe4,
0x7f, 0xed, 0x09, 0x05, 0xf1, 0x23, 0x0d, 0x15, 0x12, 0x0a, 0xe9, 0xf1, 0xcc, 0x13, 0xc6, 0xed,
0xe7, 0x19, 0xee, 0x2e, 0xc1, 0xdb, 0x90, 0x06, 0xf3, 0xe0, 0xee, 0x51, 0x09, 0xe9, 0x1c, 0xf3,
0x4f, 0x1a, 0x06, 0x37, 0xb8, 0xf4, 0xaa, 0x62, 0x3e, 0x39, 0x49, 0x20, 0x55, 0x0a, 0x2f, 0x00,
0x11, 0xe3, 0x18, 0xdf, 0xfe, 0xd7, 0x13, 0x20, 0x04, 0x51, 0x25, 0x20, 0xfa, 0xec, 0x40, 0x2a,
0xec, 0xdd, 0x09, 0xf5, 0xff, 0x8f, 0xfc, 0xe7, 0x31, 0xde, 0xd9, 0xf8, 0xc4, 0xa2, 0xde, 0x18,
0x21, 0x14, 0xfc, 0x28, 0xe1, 0x69, 0x55, 0x34, 0x33, 0xb4, 0xd5, 0x03, 0xe3, 0xe9, 0x81, 0x46,
0xff, 0xdd, 0xe2, 0xe9, 0x3a, 0xa7, 0x18, 0x05, 0xdf, 0xe3, 0x01, 0xe0, 0x16, 0xe0, 0xce, 0xf5,
0xe5, 0xd2, 0xf5, 0xee, 0x15, 0xf7, 0xf9, 0x2a, 0xd8, 0x21, 0xf0, 0x9d, 0xe6, 0xf9, 0xf4, 0x12,
0x83, 0xed, 0xf8, 0x09, 0x27, 0xc8, 0x48, 0xa2, 0xcf, 0xd8, 0xea, 0x0c, 0x18, 0xf1, 0x26, 0x06,
0xdf, 0xf3, 0xe2, 0xfd, 0x13, 0x98, 0xc7, 0x38, 0xdb, 0x20, 0xfd, 0x9f, 0xec, 0x38, 0x1c, 0xcd,
0xba, 0xf6, 0xf2, 0x20, 0x2d, 0xff, 0x4c, 0xb9, 0xcf, 0x08, 0xe4, 0xe6, 0xd0, 0x38, 0x1c, 0xd1,
0xdc, 0xf9, 0x20, 0x28, 0xea, 0x55, 0x41, 0x1c, 0x04, 0xd7, 0xb7, 0x0a, 0xeb, 0xc1, 0xb2, 0xe7,
0xdc, 0x08, 0xf3, 0x1c, 0x37, 0x9f, 0xf2, 0xc7, 0xdd, 0xee, 0x08, 0xe8, 0xf7, 0xb1, 0xe6, 0xf7,
0xdd, 0xee, 0xf0, 0xf4, 0x6e, 0xc8, 0xf9, 0xe0, 0xb5, 0x3f, 0xe3, 0x9f, 0x13, 0xb6, 0x23, 0xfa,
0xac, 0x1b, 0xdd, 0xea, 0x24, 0xcc, 0x3a, 0x9f, 0xf1, 0x0c, 0x0f, 0x13, 0xf6, 0x07, 0x3a, 0x3a,
0xe4, 0xf6, 0x0b, 0x26, 0x17, 0xca, 0xf4, 0x03, 0xf7, 0xf3, 0xda, 0xea, 0xea, 0x12, 0x03, 0xc2,
0x15, 0x11, 0x09, 0xfb, 0x24, 0x11, 0x1b, 0x81, 0xdb, 0x46, 0xec, 0x1e, 0xf9, 0x0f, 0x08, 0xed,
0xe9, 0xe5, 0xd2, 0x52, 0x9d, 0x08, 0xa8, 0xd9, 0xfc, 0x0a, 0x2c, 0x46, 0xf4, 0x0e, 0x0e, 0xc5,
0x73, 0x07, 0x0b, 0x26, 0x08, 0x30, 0xeb, 0x11, 0x2f, 0x32, 0x78, 0x12, 0xe4, 0x0e, 0x26, 0x05,
0xf1, 0xf7, 0x06, 0x14, 0x14, 0xfc, 0xe4, 0xcf, 0xf1, 0x1f, 0xf2, 0xe1, 0x1c, 0x38, 0x27, 0xec,
0x2f, 0x04, 0x10, 0xd9, 0x3a, 0x32, 0xfe, 0xf4, 0x08, 0x65, 0x1a, 0x1d, 0xc8, 0x2a, 0x1f, 0x0e,
0x26, 0x01, 0x15, 0x41, 0x1d, 0x1a, 0xef, 0x1b, 0x38, 0xc0, 0xb0, 0xcf, 0xed, 0x23, 0xc8, 0x2a,
0xec, 0x40, 0x91, 0xbe, 0x65, 0xfc, 0x79, 0x9b, 0x81, 0x79, 0x12, 0x2f, 0x1d, 0x26, 0x9b, 0xa9,
0x00, 0x00, 0x00, 0x00, 0xd2, 0xfd, 0xff, 0xff, 0x04, 0x00, 0x00, 0x00, 0x80, 0x00, 0x00, 0x00,
0x68, 0xb7, 0xff, 0xff, 0x09, 0xf2, 0xff, 0xff, 0x88, 0xd5, 0xff, 0xff, 0x67, 0xdd, 0xff, 0xff,
0xb9, 0xe0, 0xff, 0xff, 0x24, 0x05, 0x00, 0x00, 0xbb, 0xdb, 0xff, 0xff, 0x16, 0x1c, 0x00, 0x00,
0xdd, 0xd6, 0xff, 0xff, 0xf7, 0xe5, 0xff, 0xff, 0x1d, 0x19, 0x00, 0x00, 0x76, 0xbc, 0xff, 0xff,
0x13, 0xde, 0xff, 0xff, 0x91, 0xde, 0xff, 0xff, 0xb1, 0xe4, 0xff, 0xff, 0xc5, 0x99, 0xff, 0xff,
0x67, 0xf5, 0xff, 0xff, 0xfd, 0x33, 0x00, 0x00, 0x1f, 0x00, 0x00, 0x00, 0x7a, 0xc7, 0xff, 0xff,
0x52, 0xc9, 0xff, 0xff, 0x0c, 0xff, 0xff, 0xff, 0x85, 0x11, 0x00, 0x00, 0x3a, 0xc6, 0xff, 0xff,
0x73, 0xd5, 0xff, 0xff, 0xd4, 0xd9, 0xff, 0xff, 0xb9, 0xfe, 0xff, 0xff, 0xf7, 0xda, 0xff, 0xff,
0x49, 0xf5, 0xff, 0xff, 0x98, 0xc8, 0xff, 0xff, 0x37, 0xe1, 0xff, 0xff, 0xae, 0xdf, 0xff, 0xff,
0x00, 0x00, 0x00, 0x00, 0x62, 0xfe, 0xff, 0xff, 0x04, 0x00, 0x00, 0x00, 0x40, 0x00, 0x00, 0x00,
0xd4, 0x65, 0x18, 0xaf, 0x65, 0xd8, 0xed, 0xe7, 0x5b, 0x59, 0xc3, 0x53, 0x4b, 0x36, 0xc4, 0x65,
0x34, 0xb0, 0x56, 0xdd, 0x31, 0x6e, 0xc5, 0xcf, 0x97, 0x38, 0x36, 0x53, 0x77, 0x4a, 0x03, 0xf8,
0x3d, 0x92, 0xdc, 0x07, 0xac, 0x34, 0x54, 0x37, 0xaf, 0xae, 0x60, 0xc3, 0xc7, 0xb5, 0x47, 0xe1,
0xa2, 0x32, 0x98, 0x45, 0x9f, 0x99, 0x19, 0x3c, 0x59, 0xd7, 0xe8, 0xce, 0x81, 0xc0, 0xba, 0x57,
0x00, 0x00, 0x00, 0x00, 0x00, 0x00, 0x00, 0x00, 0x00, 0x00, 0x00, 0x00, 0xba, 0xfe, 0xff, 0xff,
0x04, 0x00, 0x00, 0x00, 0x08, 0x00, 0x00, 0x00, 0x83, 0xfd, 0xff, 0xff, 0x7d, 0x02, 0x00, 0x00,
0xce, 0xfe, 0xff, 0xff, 0x04, 0x00, 0x00, 0x00, 0x04, 0x00, 0x00, 0x00, 0x01, 0x00, 0x00, 0x00,
0x00, 0x00, 0x00, 0x00, 0x00, 0x00, 0x00, 0x00, 0xe6, 0xfe, 0xff, 0xff, 0x04, 0x00, 0x00, 0x00,
0x0c, 0x00, 0x00, 0x00, 0x01, 0x00, 0x00, 0x00, 0x06, 0x00, 0x00, 0x00, 0x20, 0x00, 0x00, 0x00,
0x00, 0x00, 0x00, 0x00, 0x02, 0xff, 0xff, 0xff, 0x04, 0x00, 0x00, 0x00, 0x10, 0x00, 0x00, 0x00,
0x01, 0x00, 0x00, 0x00, 0x0c, 0x00, 0x00, 0x00, 0x01, 0x00, 0x00, 0x00, 0x20, 0x00, 0x00, 0x00,
0x00, 0x00, 0x00, 0x00, 0x22, 0xff, 0xff, 0xff, 0x04, 0x00, 0x00, 0x00, 0x10, 0x00, 0x00, 0x00,
0x01, 0x00, 0x00, 0x00, 0x01, 0x00, 0x00, 0x00, 0x18, 0x00, 0x00, 0x00, 0x03, 0x00, 0x00, 0x00,
0x00, 0x00, 0x00, 0x00, 0x00, 0x00, 0x00, 0x00, 0x00, 0x00, 0x00, 0x00, 0x88, 0xe7, 0xff, 0xff,
0x00, 0x00, 0x00, 0x00, 0x00, 0x00, 0x00, 0x00, 0x00, 0x00, 0x00, 0x00, 0x98, 0xe7, 0xff, 0xff,
0x00, 0x00, 0x00, 0x00, 0x00, 0x00, 0x00, 0x00, 0x00, 0x00, 0x00, 0x00, 0x0f, 0x00, 0x00, 0x00,
0x4d, 0x4c, 0x49, 0x52, 0x20, 0x43, 0x6f, 0x6e, 0x76, 0x65, 0x72, 0x74, 0x65, 0x64, 0x2e, 0x00,
0x01, 0x00, 0x00, 0x00, 0x14, 0x00, 0x00, 0x00, 0x00, 0x00, 0x0e, 0x00, 0x18, 0x00, 0x14, 0x00,
0x10, 0x00, 0x0c, 0x00, 0x08, 0x00, 0x04, 0x00, 0x0e, 0x00, 0x00, 0x00, 0x14, 0x00, 0x00, 0x00,
0x1c, 0x00, 0x00, 0x00, 0x74, 0x02, 0x00, 0x00, 0x78, 0x02, 0x00, 0x00, 0x7c, 0x02, 0x00, 0x00,
0x04, 0x00, 0x00, 0x00, 0x6d, 0x61, 0x69, 0x6e, 0x00, 0x00, 0x00, 0x00, 0x0a, 0x00, 0x00, 0x00,
0x38, 0x02, 0x00, 0x00, 0xdc, 0x01, 0x00, 0x00, 0x8c, 0x01, 0x00, 0x00, 0x48, 0x01, 0x00, 0x00,
0x24, 0x01, 0x00, 0x00, 0xd0, 0x00, 0x00, 0x00, 0xac, 0x00, 0x00, 0x00, 0x78, 0x00, 0x00, 0x00,
0x40, 0x00, 0x00, 0x00, 0x04, 0x00, 0x00, 0x00, 0x56, 0xfe, 0xff, 0xff, 0x1c, 0x00, 0x00, 0x00,
0x00, 0x00, 0x00, 0x09, 0x1c, 0x00, 0x00, 0x00, 0x20, 0x00, 0x00, 0x00, 0x05, 0x00, 0x00, 0x00,
0x00, 0x00, 0x06, 0x00, 0x08, 0x00, 0x04, 0x00, 0x06, 0x00, 0x00, 0x00, 0x00, 0x00, 0x80, 0x3f,
0x01, 0x00, 0x00, 0x00, 0x16, 0x00, 0x00, 0x00, 0x01, 0x00, 0x00, 0x00, 0x15, 0x00, 0x00, 0x00,
0x8e, 0xfe, 0xff, 0xff, 0x14, 0x00, 0x00, 0x00, 0x00, 0x00, 0x00, 0x08, 0x10, 0x00, 0x00, 0x00,
0x14, 0x00, 0x00, 0x00, 0x04, 0x00, 0x00, 0x00, 0x74, 0xe8, 0xff, 0xff, 0x01, 0x00, 0x00, 0x00,
0x15, 0x00, 0x00, 0x00, 0x03, 0x00, 0x00, 0x00, 0x14, 0x00, 0x00, 0x00, 0x06, 0x00, 0x00, 0x00,
0x05, 0x00, 0x00, 0x00, 0xc2, 0xfe, 0xff, 0xff, 0x14, 0x00, 0x00, 0x00, 0x00, 0x00, 0x00, 0x1b,
0x10, 0x00, 0x00, 0x00, 0x14, 0x00, 0x00, 0x00, 0x03, 0x00, 0x00, 0x00, 0xa8, 0xe8, 0xff, 0xff,
0x01, 0x00, 0x00, 0x00, 0x14, 0x00, 0x00, 0x00, 0x02, 0x00, 0x00, 0x00, 0x13, 0x00, 0x00, 0x00,
0x04, 0x00, 0x00, 0x00, 0x96, 0xfe, 0xff, 0xff, 0x08, 0x00, 0x00, 0x00, 0x0c, 0x00, 0x00, 0x00,
0x01, 0x00, 0x00, 0x00, 0x13, 0x00, 0x00, 0x00, 0x02, 0x00, 0x00, 0x00, 0x12, 0x00, 0x00, 0x00,
0x03, 0x00, 0x00, 0x00, 0x12, 0xff, 0xff, 0xff, 0x24, 0x00, 0x00, 0x00, 0x00, 0x00, 0x00, 0x05,
0x34, 0x00, 0x00, 0x00, 0x38, 0x00, 0x00, 0x00, 0x02, 0x00, 0x00, 0x00, 0x00, 0x00, 0x0e, 0x00,
0x18, 0x00, 0x17, 0x00, 0x10, 0x00, 0x0c, 0x00, 0x08, 0x00, 0x04, 0x00, 0x0e, 0x00, 0x00, 0x00,
0x02, 0x00, 0x00, 0x00, 0x01, 0x00, 0x00, 0x00, 0x02, 0x00, 0x00, 0x00, 0x01, 0x00, 0x00, 0x00,
0x00, 0x00, 0x00, 0x01, 0x01, 0x00, 0x00, 0x00, 0x12, 0x00, 0x00, 0x00, 0x01, 0x00, 0x00, 0x00,
0x11, 0x00, 0x00, 0x00, 0x06, 0xff, 0xff, 0xff, 0x08, 0x00, 0x00, 0x00, 0x0c, 0x00, 0x00, 0x00,
0x01, 0x00, 0x00, 0x00, 0x11, 0x00, 0x00, 0x00, 0x02, 0x00, 0x00, 0x00, 0x10, 0x00, 0x00, 0x00,
0x02, 0x00, 0x00, 0x00, 0x82, 0xff, 0xff, 0xff, 0x14, 0x00, 0x00, 0x00, 0x00, 0x00, 0x00, 0x01,
0x1c, 0x00, 0x00, 0x00, 0x20, 0x00, 0x00, 0x00, 0x01, 0x00, 0x00, 0x00, 0x74, 0xff, 0xff, 0xff,
0x00, 0x00, 0x00, 0x01, 0x01, 0x00, 0x00, 0x00, 0x01, 0x00, 0x00, 0x00, 0x01, 0x00, 0x00, 0x00,
0x10, 0x00, 0x00, 0x00, 0x03, 0x00, 0x00, 0x00, 0x0f, 0x00, 0x00, 0x00, 0x08, 0x00, 0x00, 0x00,
0x07, 0x00, 0x00, 0x00, 0xc2, 0xff, 0xff, 0xff, 0x14, 0x00, 0x00, 0x00, 0x00, 0x00, 0x00, 0x01,
0x18, 0x00, 0x00, 0x00, 0x1c, 0x00, 0x00, 0x00, 0x01, 0x00, 0x00, 0x00, 0x7e, 0xff, 0xff, 0xff,
0x01, 0x00, 0x00, 0x00, 0x01, 0x00, 0x00, 0x00, 0x01, 0x00, 0x00, 0x00, 0x0f, 0x00, 0x00, 0x00,
0x03, 0x00, 0x00, 0x00, 0x0e, 0x00, 0x00, 0x00, 0x0a, 0x00, 0x00, 0x00, 0x09, 0x00, 0x00, 0x00,
0x00, 0x00, 0x0e, 0x00, 0x18, 0x00, 0x14, 0x00, 0x10, 0x00, 0x0c, 0x00, 0x0b, 0x00, 0x04, 0x00,
0x0e, 0x00, 0x00, 0x00, 0x20, 0x00, 0x00, 0x00, 0x00, 0x00, 0x00, 0x01, 0x28, 0x00, 0x00, 0x00,
0x2c, 0x00, 0x00, 0x00, 0x01, 0x00, 0x00, 0x00, 0x0c, 0x00, 0x10, 0x00, 0x00, 0x00, 0x0c, 0x00,
0x08, 0x00, 0x07, 0x00, 0x0c, 0x00, 0x00, 0x00, 0x00, 0x00, 0x00, 0x01, 0x01, 0x00, 0x00, 0x00,
0x02, 0x00, 0x00, 0x00, 0x01, 0x00, 0x00, 0x00, 0x0e, 0x00, 0x00, 0x00, 0x03, 0x00, 0x00, 0x00,
0x0d, 0x00, 0x00, 0x00, 0x0c, 0x00, 0x00, 0x00, 0x0b, 0x00, 0x00, 0x00, 0x00, 0x00, 0x0a, 0x00,
0x0c, 0x00, 0x00, 0x00, 0x08, 0x00, 0x04, 0x00, 0x0a, 0x00, 0x00, 0x00, 0x08, 0x00, 0x00, 0x00,
0x0c, 0x00, 0x00, 0x00, 0x01, 0x00, 0x00, 0x00, 0x0d, 0x00, 0x00, 0x00, 0x02, 0x00, 0x00, 0x00,
0x00, 0x00, 0x00, 0x00, 0x01, 0x00, 0x00, 0x00, 0x01, 0x00, 0x00, 0x00, 0x16, 0x00, 0x00, 0x00,
0x01, 0x00, 0x00, 0x00, 0x00, 0x00, 0x00, 0x00, 0x17, 0x00, 0x00, 0x00, 0xf8, 0x15, 0x00, 0x00,
0x7c, 0x15, 0x00, 0x00, 0x1c, 0x15, 0x00, 0x00, 0xc0, 0x14, 0x00, 0x00, 0x58, 0x14, 0x00, 0x00,
0xd0, 0x13, 0x00, 0x00, 0x54, 0x13, 0x00, 0x00, 0x60, 0x11, 0x00, 0x00, 0xc4, 0x0e, 0x00, 0x00,
0xd8, 0x0c, 0x00, 0x00, 0xdc, 0x0a, 0x00, 0x00, 0xa8, 0x09, 0x00, 0x00, 0xcc, 0x07, 0x00, 0x00,
0x38, 0x07, 0x00, 0x00, 0x74, 0x05, 0x00, 0x00, 0xf0, 0x04, 0x00, 0x00, 0x2c, 0x03, 0x00, 0x00,
0xa0, 0x02, 0x00, 0x00, 0x1c, 0x02, 0x00, 0x00, 0x98, 0x01, 0x00, 0x00, 0x1c, 0x01, 0x00, 0x00,
0x70, 0x00, 0x00, 0x00, 0x04, 0x00, 0x00, 0x00, 0x72, 0xea, 0xff, 0xff, 0x14, 0x00, 0x00, 0x00,
0x34, 0x00, 0x00, 0x00, 0x17, 0x00, 0x00, 0x00, 0x00, 0x00, 0x00, 0x09, 0x48, 0x00, 0x00, 0x00,
0x64, 0xea, 0xff, 0xff, 0x08, 0x00, 0x00, 0x00, 0x14, 0x00, 0x00, 0x00, 0x01, 0x00, 0x00, 0x00,
0x80, 0xff, 0xff, 0xff, 0xff, 0xff, 0xff, 0xff, 0x00, 0x00, 0x00, 0x00, 0x01, 0x00, 0x00, 0x00,
0x00, 0x00, 0x80, 0x3b, 0x19, 0x00, 0x00, 0x00, 0x53, 0x74, 0x61, 0x74, 0x65, 0x66, 0x75, 0x6c,
0x50, 0x61, 0x72, 0x74, 0x69, 0x74, 0x69, 0x6f, 0x6e, 0x65, 0x64, 0x43, 0x61, 0x6c, 0x6c, 0x3a,
0x30, 0x00, 0x00, 0x00, 0x02, 0x00, 0x00, 0x00, 0x01, 0x00, 0x00, 0x00, 0x02, 0x00, 0x00, 0x00,
0xda, 0xea, 0xff, 0xff, 0x14, 0x00, 0x00, 0x00, 0x30, 0x00, 0x00, 0x00, 0x16, 0x00, 0x00, 0x00,
0x00, 0x00, 0x00, 0x09, 0x88, 0x00, 0x00, 0x00, 0xcc, 0xea, 0xff, 0xff, 0x08, 0x00, 0x00, 0x00,
0x10, 0x00, 0x00, 0x00, 0x01, 0x00, 0x00, 0x00, 0xf1, 0xff, 0xff, 0xff, 0xff, 0xff, 0xff, 0xff,
0x01, 0x00, 0x00, 0x00, 0xc3, 0xde, 0xa3, 0x3d, 0x5e, 0x00, 0x00, 0x00, 0x6d, 0x6f, 0x64, 0x65,
0x6c, 0x5f, 0x31, 0x2f, 0x63, 0x6f, 0x6e, 0x76, 0x31, 0x64, 0x2d, 0x73, 0x6d, 0x61, 0x6c, 0x6c,
0x2d, 0x62, 0x61, 0x6c, 0x61, 0x6e, 0x63, 0x65, 0x64, 0x2d, 0x32, 0x2f, 0x6c, 0x61, 0x79, 0x65,
0x72, 0x5f, 0x39, 0x2f, 0x4d, 0x61, 0x74, 0x4d, 0x75, 0x6c, 0x3b, 0x6d, 0x6f, 0x64, 0x65, 0x6c,
0x5f, 0x31, 0x2f, 0x63, 0x6f, 0x6e, 0x76, 0x31, 0x64, 0x2d, 0x73, 0x6d, 0x61, 0x6c, 0x6c, 0x2d,
0x62, 0x61, 0x6c, 0x61, 0x6e, 0x63, 0x65, 0x64, 0x2d, 0x32, 0x2f, 0x6c, 0x61, 0x79, 0x65, 0x72,
0x5f, 0x39, 0x2f, 0x42, 0x69, 0x61, 0x73, 0x41, 0x64, 0x64, 0x00, 0x00, 0x02, 0x00, 0x00, 0x00,
0x01, 0x00, 0x00, 0x00, 0x02, 0x00, 0x00, 0x00, 0x82, 0xeb, 0xff, 0xff, 0x14, 0x00, 0x00, 0x00,
0x30, 0x00, 0x00, 0x00, 0x15, 0x00, 0x00, 0x00, 0x00, 0x00, 0x00, 0x09, 0x58, 0x00, 0x00, 0x00,
0x74, 0xeb, 0xff, 0xff, 0x08, 0x00, 0x00, 0x00, 0x10, 0x00, 0x00, 0x00, 0x01, 0x00, 0x00, 0x00,
0x80, 0xff, 0xff, 0xff, 0xff, 0xff, 0xff, 0xff, 0x01, 0x00, 0x00, 0x00, 0xb1, 0xab, 0x3b, 0x3c,
0x2c, 0x00, 0x00, 0x00, 0x6d, 0x6f, 0x64, 0x65, 0x6c, 0x5f, 0x31, 0x2f, 0x63, 0x6f, 0x6e, 0x76,
0x31, 0x64, 0x2d, 0x73, 0x6d, 0x61, 0x6c, 0x6c, 0x2d, 0x62, 0x61, 0x6c, 0x61, 0x6e, 0x63, 0x65,
0x64, 0x2d, 0x32, 0x2f, 0x6c, 0x61, 0x79, 0x65, 0x72, 0x5f, 0x38, 0x2f, 0x4d, 0x65, 0x61, 0x6e,
0x00, 0x00, 0x00, 0x00, 0x02, 0x00, 0x00, 0x00, 0x01, 0x00, 0x00, 0x00, 0x20, 0x00, 0x00, 0x00,
0xfa, 0xeb, 0xff, 0xff, 0x14, 0x00, 0x00, 0x00, 0x30, 0x00, 0x00, 0x00, 0x14, 0x00, 0x00, 0x00,
0x00, 0x00, 0x00, 0x09, 0x5c, 0x00, 0x00, 0x00, 0xec, 0xeb, 0xff, 0xff, 0x08, 0x00, 0x00, 0x00,
0x10, 0x00, 0x00, 0x00, 0x01, 0x00, 0x00, 0x00, 0x80, 0xff, 0xff, 0xff, 0xff, 0xff, 0xff, 0xff,
0x01, 0x00, 0x00, 0x00, 0x7b, 0x85, 0x09, 0x3d, 0x30, 0x00, 0x00, 0x00, 0x6d, 0x6f, 0x64, 0x65,
0x6c, 0x5f, 0x31, 0x2f, 0x63, 0x6f, 0x6e, 0x76, 0x31, 0x64, 0x2d, 0x73, 0x6d, 0x61, 0x6c, 0x6c,
0x2d, 0x62, 0x61, 0x6c, 0x61, 0x6e, 0x63, 0x65, 0x64, 0x2d, 0x32, 0x2f, 0x6c, 0x61, 0x79, 0x65,
0x72, 0x5f, 0x37, 0x2f, 0x53, 0x71, 0x75, 0x65, 0x65, 0x7a, 0x65, 0x31, 0x00, 0x00, 0x00, 0x00,
0x03, 0x00, 0x00, 0x00, 0x01, 0x00, 0x00, 0x00, 0x06, 0x00, 0x00, 0x00, 0x20, 0x00, 0x00, 0x00,
0x7a, 0xec, 0xff, 0xff, 0x14, 0x00, 0x00, 0x00, 0x30, 0x00, 0x00, 0x00, 0x13, 0x00, 0x00, 0x00,
0x00, 0x00, 0x00, 0x09, 0x58, 0x00, 0x00, 0x00, 0x6c, 0xec, 0xff, 0xff, 0x08, 0x00, 0x00, 0x00,
0x10, 0x00, 0x00, 0x00, 0x01, 0x00, 0x00, 0x00, 0x80, 0xff, 0xff, 0xff, 0xff, 0xff, 0xff, 0xff,
0x01, 0x00, 0x00, 0x00, 0x7b, 0x85, 0x09, 0x3d, 0x2f, 0x00, 0x00, 0x00, 0x6d, 0x6f, 0x64, 0x65,
0x6c, 0x5f, 0x31, 0x2f, 0x63, 0x6f, 0x6e, 0x76, 0x31, 0x64, 0x2d, 0x73, 0x6d, 0x61, 0x6c, 0x6c,
0x2d, 0x62, 0x61, 0x6c, 0x61, 0x6e, 0x63, 0x65, 0x64, 0x2d, 0x32, 0x2f, 0x6c, 0x61, 0x79, 0x65,
0x72, 0x5f, 0x37, 0x2f, 0x4d, 0x61, 0x78, 0x50, 0x6f, 0x6f, 0x6c, 0x00, 0x04, 0x00, 0x00, 0x00,
0x01, 0x00, 0x00, 0x00, 0x06, 0x00, 0x00, 0x00, 0x01, 0x00, 0x00, 0x00, 0x20, 0x00, 0x00, 0x00,
0xfa, 0xec, 0xff, 0xff, 0x14, 0x00, 0x00, 0x00, 0x34, 0x00, 0x00, 0x00, 0x12, 0x00, 0x00, 0x00,
0x00, 0x00, 0x00, 0x09, 0x60, 0x00, 0x00, 0x00, 0xec, 0xec, 0xff, 0xff, 0x08, 0x00, 0x00, 0x00,
0x14, 0x00, 0x00, 0x00, 0x01, 0x00, 0x00, 0x00, 0x80, 0xff, 0xff, 0xff, 0xff, 0xff, 0xff, 0xff,
0x00, 0x00, 0x00, 0x00, 0x01, 0x00, 0x00, 0x00, 0x7b, 0x85, 0x09, 0x3d, 0x33, 0x00, 0x00, 0x00,
0x6d, 0x6f, 0x64, 0x65, 0x6c, 0x5f, 0x31, 0x2f, 0x63, 0x6f, 0x6e, 0x76, 0x31, 0x64, 0x2d, 0x73,
0x6d, 0x61, 0x6c, 0x6c, 0x2d, 0x62, 0x61, 0x6c, 0x61, 0x6e, 0x63, 0x65, 0x64, 0x2d, 0x32, 0x2f,
0x6c, 0x61, 0x79, 0x65, 0x72, 0x5f, 0x37, 0x2f, 0x45, 0x78, 0x70, 0x61, 0x6e, 0x64, 0x44, 0x69,
0x6d, 0x73, 0x31, 0x00, 0x04, 0x00, 0x00, 0x00, 0x01, 0x00, 0x00, 0x00, 0x0c, 0x00, 0x00, 0x00,
0x01, 0x00, 0x00, 0x00, 0x20, 0x00, 0x00, 0x00, 0x82, 0xed, 0xff, 0xff, 0x14, 0x00, 0x00, 0x00,
0x30, 0x00, 0x00, 0x00, 0x11, 0x00, 0x00, 0x00, 0x00, 0x00, 0x00, 0x09, 0x98, 0x01, 0x00, 0x00,
0x74, 0xed, 0xff, 0xff, 0x08, 0x00, 0x00, 0x00, 0x10, 0x00, 0x00, 0x00, 0x01, 0x00, 0x00, 0x00,
0x80, 0xff, 0xff, 0xff, 0xff, 0xff, 0xff, 0xff, 0x01, 0x00, 0x00, 0x00, 0x7b, 0x85, 0x09, 0x3d,
0x6e, 0x01, 0x00, 0x00, 0x6d, 0x6f, 0x64, 0x65, 0x6c, 0x5f, 0x31, 0x2f, 0x63, 0x6f, 0x6e, 0x76,
0x31, 0x64, 0x2d, 0x73, 0x6d, 0x61, 0x6c, 0x6c, 0x2d, 0x62, 0x61, 0x6c, 0x61, 0x6e, 0x63, 0x65,
0x64, 0x2d, 0x32, 0x2f, 0x6c, 0x61, 0x79, 0x65, 0x72, 0x5f, 0x36, 0x2f, 0x52, 0x65, 0x6c, 0x75,
0x3b, 0x6d, 0x6f, 0x64, 0x65, 0x6c, 0x5f, 0x31, 0x2f, 0x63, 0x6f, 0x6e, 0x76, 0x31, 0x64, 0x2d,
0x73, 0x6d, 0x61, 0x6c, 0x6c, 0x2d, 0x62, 0x61, 0x6c, 0x61, 0x6e, 0x63, 0x65, 0x64, 0x2d, 0x32,
0x2f, 0x6c, 0x61, 0x79, 0x65, 0x72, 0x5f, 0x35, 0x2f, 0x62, 0x61, 0x74, 0x63, 0x68, 0x6e, 0x6f,
0x72, 0x6d, 0x2f, 0x61, 0x64, 0x64, 0x5f, 0x31, 0x3b, 0x6d, 0x6f, 0x64, 0x65, 0x6c, 0x5f, 0x31,
0x2f, 0x63, 0x6f, 0x6e, 0x76, 0x31, 0x64, 0x2d, 0x73, 0x6d, 0x61, 0x6c, 0x6c, 0x2d, 0x62, 0x61,
0x6c, 0x61, 0x6e, 0x63, 0x65, 0x64, 0x2d, 0x32, 0x2f, 0x6c, 0x61, 0x79, 0x65, 0x72, 0x5f, 0x34,
0x2f, 0x43, 0x6f, 0x6e, 0x76, 0x31, 0x44, 0x2f, 0x53, 0x71, 0x75, 0x65, 0x65, 0x7a, 0x65, 0x3b,
0x6d, 0x6f, 0x64, 0x65, 0x6c, 0x5f, 0x31, 0x2f, 0x63, 0x6f, 0x6e, 0x76, 0x31, 0x64, 0x2d, 0x73,
0x6d, 0x61, 0x6c, 0x6c, 0x2d, 0x62, 0x61, 0x6c, 0x61, 0x6e, 0x63, 0x65, 0x64, 0x2d, 0x32, 0x2f,
0x6c, 0x61, 0x79, 0x65, 0x72, 0x5f, 0x35, 0x2f, 0x62, 0x61, 0x74, 0x63, 0x68, 0x6e, 0x6f, 0x72,
0x6d, 0x2f, 0x6d, 0x75, 0x6c, 0x5f, 0x31, 0x3b, 0x6d, 0x6f, 0x64, 0x65, 0x6c, 0x5f, 0x31, 0x2f,
0x63, 0x6f, 0x6e, 0x76, 0x31, 0x64, 0x2d, 0x73, 0x6d, 0x61, 0x6c, 0x6c, 0x2d, 0x62, 0x61, 0x6c,
0x61, 0x6e, 0x63, 0x65, 0x64, 0x2d, 0x32, 0x2f, 0x6c, 0x61, 0x79, 0x65, 0x72, 0x5f, 0x35, 0x2f,
0x62, 0x61, 0x74, 0x63, 0x68, 0x6e, 0x6f, 0x72, 0x6d, 0x2f, 0x6d, 0x75, 0x6c, 0x3b, 0x6d, 0x6f,
0x64, 0x65, 0x6c, 0x5f, 0x31, 0x2f, 0x63, 0x6f, 0x6e, 0x76, 0x31, 0x64, 0x2d, 0x73, 0x6d, 0x61,
0x6c, 0x6c, 0x2d, 0x62, 0x61, 0x6c, 0x61, 0x6e, 0x63, 0x65, 0x64, 0x2d, 0x32, 0x2f, 0x6c, 0x61,
0x79, 0x65, 0x72, 0x5f, 0x35, 0x2f, 0x62, 0x61, 0x74, 0x63, 0x68, 0x6e, 0x6f, 0x72, 0x6d, 0x2f,
0x73, 0x75, 0x62, 0x3b, 0x6d, 0x6f, 0x64, 0x65, 0x6c, 0x5f, 0x31, 0x2f, 0x63, 0x6f, 0x6e, 0x76,
0x31, 0x64, 0x2d, 0x73, 0x6d, 0x61, 0x6c, 0x6c, 0x2d, 0x62, 0x61, 0x6c, 0x61, 0x6e, 0x63, 0x65,
0x64, 0x2d, 0x32, 0x2f, 0x6c, 0x61, 0x79, 0x65, 0x72, 0x5f, 0x34, 0x2f, 0x43, 0x6f, 0x6e, 0x76,
0x31, 0x44, 0x00, 0x00, 0x04, 0x00, 0x00, 0x00, 0x01, 0x00, 0x00, 0x00, 0x01, 0x00, 0x00, 0x00,
0x0c, 0x00, 0x00, 0x00, 0x20, 0x00, 0x00, 0x00, 0x42, 0xef, 0xff, 0xff, 0x14, 0x00, 0x00, 0x00,
0x30, 0x00, 0x00, 0x00, 0x10, 0x00, 0x00, 0x00, 0x00, 0x00, 0x00, 0x09, 0x58, 0x00, 0x00, 0x00,
0x34, 0xef, 0xff, 0xff, 0x08, 0x00, 0x00, 0x00, 0x10, 0x00, 0x00, 0x00, 0x01, 0x00, 0x00, 0x00,
0xf7, 0xff, 0xff, 0xff, 0xff, 0xff, 0xff, 0xff, 0x01, 0x00, 0x00, 0x00, 0x36, 0x80, 0x29, 0x3d,
0x2f, 0x00, 0x00, 0x00, 0x6d, 0x6f, 0x64, 0x65, 0x6c, 0x5f, 0x31, 0x2f, 0x63, 0x6f, 0x6e, 0x76,
0x31, 0x64, 0x2d, 0x73, 0x6d, 0x61, 0x6c, 0x6c, 0x2d, 0x62, 0x61, 0x6c, 0x61, 0x6e, 0x63, 0x65,
0x64, 0x2d, 0x32, 0x2f, 0x6c, 0x61, 0x79, 0x65, 0x72, 0x5f, 0x33, 0x2f, 0x43, 0x6f, 0x6e, 0x76,
0x31, 0x44, 0x31, 0x00, 0x04, 0x00, 0x00, 0x00, 0x01, 0x00, 0x00, 0x00, 0x01, 0x00, 0x00, 0x00,
0x0c, 0x00, 0x00, 0x00, 0x20, 0x00, 0x00, 0x00, 0xc2, 0xef, 0xff, 0xff, 0x14, 0x00, 0x00, 0x00,
0x30, 0x00, 0x00, 0x00, 0x0f, 0x00, 0x00, 0x00, 0x00, 0x00, 0x00, 0x09, 0x98, 0x01, 0x00, 0x00,
0xb4, 0xef, 0xff, 0xff, 0x08, 0x00, 0x00, 0x00, 0x10, 0x00, 0x00, 0x00, 0x01, 0x00, 0x00, 0x00,
0x80, 0xff, 0xff, 0xff, 0xff, 0xff, 0xff, 0xff, 0x01, 0x00, 0x00, 0x00, 0xa1, 0xfa, 0x4a, 0x3c,
0x6e, 0x01, 0x00, 0x00, 0x6d, 0x6f, 0x64, 0x65, 0x6c, 0x5f, 0x31, 0x2f, 0x63, 0x6f, 0x6e, 0x76,
0x31, 0x64, 0x2d, 0x73, 0x6d, 0x61, 0x6c, 0x6c, 0x2d, 0x62, 0x61, 0x6c, 0x61, 0x6e, 0x63, 0x65,
0x64, 0x2d, 0x32, 0x2f, 0x6c, 0x61, 0x79, 0x65, 0x72, 0x5f, 0x32, 0x2f, 0x52, 0x65, 0x6c, 0x75,
0x3b, 0x6d, 0x6f, 0x64, 0x65, 0x6c, 0x5f, 0x31, 0x2f, 0x63, 0x6f, 0x6e, 0x76, 0x31, 0x64, 0x2d,
0x73, 0x6d, 0x61, 0x6c, 0x6c, 0x2d, 0x62, 0x61, 0x6c, 0x61, 0x6e, 0x63, 0x65, 0x64, 0x2d, 0x32,
0x2f, 0x6c, 0x61, 0x79, 0x65, 0x72, 0x5f, 0x31, 0x2f, 0x62, 0x61, 0x74, 0x63, 0x68, 0x6e, 0x6f,
0x72, 0x6d, 0x2f, 0x61, 0x64, 0x64, 0x5f, 0x31, 0x3b, 0x6d, 0x6f, 0x64, 0x65, 0x6c, 0x5f, 0x31,
0x2f, 0x63, 0x6f, 0x6e, 0x76, 0x31, 0x64, 0x2d, 0x73, 0x6d, 0x61, 0x6c, 0x6c, 0x2d, 0x62, 0x61,
0x6c, 0x61, 0x6e, 0x63, 0x65, 0x64, 0x2d, 0x32, 0x2f, 0x6c, 0x61, 0x79, 0x65, 0x72, 0x5f, 0x30,
0x2f, 0x43, 0x6f, 0x6e, 0x76, 0x31, 0x44, 0x2f, 0x53, 0x71, 0x75, 0x65, 0x65, 0x7a, 0x65, 0x3b,
0x6d, 0x6f, 0x64, 0x65, 0x6c, 0x5f, 0x31, 0x2f, 0x63, 0x6f, 0x6e, 0x76, 0x31, 0x64, 0x2d, 0x73,
0x6d, 0x61, 0x6c, 0x6c, 0x2d, 0x62, 0x61, 0x6c, 0x61, 0x6e, 0x63, 0x65, 0x64, 0x2d, 0x32, 0x2f,
0x6c, 0x61, 0x79, 0x65, 0x72, 0x5f, 0x31, 0x2f, 0x62, 0x61, 0x74, 0x63, 0x68, 0x6e, 0x6f, 0x72,
0x6d, 0x2f, 0x6d, 0x75, 0x6c, 0x5f, 0x31, 0x3b, 0x6d, 0x6f, 0x64, 0x65, 0x6c, 0x5f, 0x31, 0x2f,
0x63, 0x6f, 0x6e, 0x76, 0x31, 0x64, 0x2d, 0x73, 0x6d, 0x61, 0x6c, 0x6c, 0x2d, 0x62, 0x61, 0x6c,
0x61, 0x6e, 0x63, 0x65, 0x64, 0x2d, 0x32, 0x2f, 0x6c, 0x61, 0x79, 0x65, 0x72, 0x5f, 0x31, 0x2f,
0x62, 0x61, 0x74, 0x63, 0x68, 0x6e, 0x6f, 0x72, 0x6d, 0x2f, 0x6d, 0x75, 0x6c, 0x3b, 0x6d, 0x6f,
0x64, 0x65, 0x6c, 0x5f, 0x31, 0x2f, 0x63, 0x6f, 0x6e, 0x76, 0x31, 0x64, 0x2d, 0x73, 0x6d, 0x61,
0x6c, 0x6c, 0x2d, 0x62, 0x61, 0x6c, 0x61, 0x6e, 0x63, 0x65, 0x64, 0x2d, 0x32, 0x2f, 0x6c, 0x61,
0x79, 0x65, 0x72, 0x5f, 0x31, 0x2f, 0x62, 0x61, 0x74, 0x63, 0x68, 0x6e, 0x6f, 0x72, 0x6d, 0x2f,
0x73, 0x75, 0x62, 0x3b, 0x6d, 0x6f, 0x64, 0x65, 0x6c, 0x5f, 0x31, 0x2f, 0x63, 0x6f, 0x6e, 0x76,
0x31, 0x64, 0x2d, 0x73, 0x6d, 0x61, 0x6c, 0x6c, 0x2d, 0x62, 0x61, 0x6c, 0x61, 0x6e, 0x63, 0x65,
0x64, 0x2d, 0x32, 0x2f, 0x6c, 0x61, 0x79, 0x65, 0x72, 0x5f, 0x30, 0x2f, 0x43, 0x6f, 0x6e, 0x76,
0x31, 0x44, 0x00, 0x00, 0x04, 0x00, 0x00, 0x00, 0x01, 0x00, 0x00, 0x00, 0x01, 0x00, 0x00, 0x00,
0x0c, 0x00, 0x00, 0x00, 0x10, 0x00, 0x00, 0x00, 0x82, 0xf1, 0xff, 0xff, 0x14, 0x00, 0x00, 0x00,
0x34, 0x00, 0x00, 0x00, 0x0e, 0x00, 0x00, 0x00, 0x00, 0x00, 0x00, 0x09, 0x68, 0x00, 0x00, 0x00,
0x74, 0xf1, 0xff, 0xff, 0x08, 0x00, 0x00, 0x00, 0x14, 0x00, 0x00, 0x00, 0x01, 0x00, 0x00, 0x00,
0x80, 0xff, 0xff, 0xff, 0xff, 0xff, 0xff, 0xff, 0x00, 0x00, 0x00, 0x00, 0x01, 0x00, 0x00, 0x00,
0x1c, 0x1c, 0xbc, 0x40, 0x3a, 0x00, 0x00, 0x00, 0x6d, 0x6f, 0x64, 0x65, 0x6c, 0x5f, 0x31, 0x2f,
0x63, 0x6f, 0x6e, 0x76, 0x31, 0x64, 0x2d, 0x73, 0x6d, 0x61, 0x6c, 0x6c, 0x2d, 0x62, 0x61, 0x6c,
0x61, 0x6e, 0x63, 0x65, 0x64, 0x2d, 0x32, 0x2f, 0x6c, 0x61, 0x79, 0x65, 0x72, 0x5f, 0x30, 0x2f,
0x43, 0x6f, 0x6e, 0x76, 0x31, 0x44, 0x2f, 0x45, 0x78, 0x70, 0x61, 0x6e, 0x64, 0x44, 0x69, 0x6d,
0x73, 0x31, 0x00, 0x00, 0x04, 0x00, 0x00, 0x00, 0x01, 0x00, 0x00, 0x00, 0x01, 0x00, 0x00, 0x00,
0x18, 0x00, 0x00, 0x00, 0x03, 0x00, 0x00, 0x00, 0x12, 0xf2, 0xff, 0xff, 0x14, 0x00, 0x00, 0x00,
0xe4, 0x00, 0x00, 0x00, 0x0d, 0x00, 0x00, 0x00, 0x00, 0x00, 0x00, 0x09, 0xb0, 0x01, 0x00, 0x00,
0x04, 0xf2, 0xff, 0xff, 0x08, 0x00, 0x00, 0x00, 0x88, 0x00, 0x00, 0x00, 0x10, 0x00, 0x00, 0x00,
0x00, 0x00, 0x00, 0x00, 0x00, 0x00, 0x00, 0x00, 0x00, 0x00, 0x00, 0x00, 0x00, 0x00, 0x00, 0x00,
0x00, 0x00, 0x00, 0x00, 0x00, 0x00, 0x00, 0x00, 0x00, 0x00, 0x00, 0x00, 0x00, 0x00, 0x00, 0x00,
0x00, 0x00, 0x00, 0x00, 0x00, 0x00, 0x00, 0x00, 0x00, 0x00, 0x00, 0x00, 0x00, 0x00, 0x00, 0x00,
0x00, 0x00, 0x00, 0x00, 0x00, 0x00, 0x00, 0x00, 0x00, 0x00, 0x00, 0x00, 0x00, 0x00, 0x00, 0x00,
0x00, 0x00, 0x00, 0x00, 0x00, 0x00, 0x00, 0x00, 0x00, 0x00, 0x00, 0x00, 0x00, 0x00, 0x00, 0x00,
0x00, 0x00, 0x00, 0x00, 0x00, 0x00, 0x00, 0x00, 0x00, 0x00, 0x00, 0x00, 0x00, 0x00, 0x00, 0x00,
0x00, 0x00, 0x00, 0x00, 0x00, 0x00, 0x00, 0x00, 0x00, 0x00, 0x00, 0x00, 0x00, 0x00, 0x00, 0x00,
0x00, 0x00, 0x00, 0x00, 0x00, 0x00, 0x00, 0x00, 0x00, 0x00, 0x00, 0x00, 0x00, 0x00, 0x00, 0x00,
0x10, 0x00, 0x00, 0x00, 0xe3, 0x40, 0x7e, 0x38, 0x0f, 0xd7, 0x56, 0x37, 0xb2, 0x38, 0xfc, 0x37,
0xbc, 0xd4, 0x75, 0x38, 0xaa, 0x4d, 0x42, 0x38, 0x25, 0x13, 0x08, 0x37, 0x02, 0x76, 0xea, 0x38,
0x32, 0x82, 0xad, 0x38, 0xe4, 0x67, 0xae, 0x37, 0x45, 0x88, 0x95, 0x37, 0x29, 0x72, 0xfc, 0x38,
0xe6, 0xf5, 0xb5, 0x37, 0x04, 0x5b, 0x75, 0x37, 0x3d, 0x0f, 0x3b, 0x39, 0x3b, 0x34, 0x33, 0x38,
0xa8, 0x04, 0x95, 0x37, 0xd3, 0x00, 0x00, 0x00, 0x6d, 0x6f, 0x64, 0x65, 0x6c, 0x5f, 0x31, 0x2f,
0x63, 0x6f, 0x6e, 0x76, 0x31, 0x64, 0x2d, 0x73, 0x6d, 0x61, 0x6c, 0x6c, 0x2d, 0x62, 0x61, 0x6c,
0x61, 0x6e, 0x63, 0x65, 0x64, 0x2d, 0x32, 0x2f, 0x6c, 0x61, 0x79, 0x65, 0x72, 0x5f, 0x31, 0x2f,
0x62, 0x61, 0x74, 0x63, 0x68, 0x6e, 0x6f, 0x72, 0x6d, 0x2f, 0x6d, 0x75, 0x6c, 0x5f, 0x31, 0x3b,
0x6d, 0x6f, 0x64, 0x65, 0x6c, 0x5f, 0x31, 0x2f, 0x63, 0x6f, 0x6e, 0x76, 0x31, 0x64, 0x2d, 0x73,
0x6d, 0x61, 0x6c, 0x6c, 0x2d, 0x62, 0x61, 0x6c, 0x61, 0x6e, 0x63, 0x65, 0x64, 0x2d, 0x32, 0x2f,
0x6c, 0x61, 0x79, 0x65, 0x72, 0x5f, 0x30, 0x2f, 0x43, 0x6f, 0x6e, 0x76, 0x31, 0x44, 0x2f, 0x53,
0x71, 0x75, 0x65, 0x65, 0x7a, 0x65, 0x3b, 0x6d, 0x6f, 0x64, 0x65, 0x6c, 0x5f, 0x31, 0x2f, 0x63,
0x6f, 0x6e, 0x76, 0x31, 0x64, 0x2d, 0x73, 0x6d, 0x61, 0x6c, 0x6c, 0x2d, 0x62, 0x61, 0x6c, 0x61,
0x6e, 0x63, 0x65, 0x64, 0x2d, 0x32, 0x2f, 0x6c, 0x61, 0x79, 0x65, 0x72, 0x5f, 0x31, 0x2f, 0x62,
0x61, 0x74, 0x63, 0x68, 0x6e, 0x6f, 0x72, 0x6d, 0x2f, 0x6d, 0x75, 0x6c, 0x3b, 0x6d, 0x6f, 0x64,
0x65, 0x6c, 0x5f, 0x31, 0x2f, 0x63, 0x6f, 0x6e, 0x76, 0x31, 0x64, 0x2d, 0x73, 0x6d, 0x61, 0x6c,
0x6c, 0x2d, 0x62, 0x61, 0x6c, 0x61, 0x6e, 0x63, 0x65, 0x64, 0x2d, 0x32, 0x2f, 0x6c, 0x61, 0x79,
0x65, 0x72, 0x5f, 0x30, 0x2f, 0x43, 0x6f, 0x6e, 0x76, 0x31, 0x44, 0x00, 0x04, 0x00, 0x00, 0x00,
0x10, 0x00, 0x00, 0x00, 0x01, 0x00, 0x00, 0x00, 0x03, 0x00, 0x00, 0x00, 0x03, 0x00, 0x00, 0x00,
0xea, 0xf3, 0xff, 0xff, 0x14, 0x00, 0x00, 0x00, 0xe4, 0x00, 0x00, 0x00, 0x0c, 0x00, 0x00, 0x00,
0x00, 0x00, 0x00, 0x02, 0x14, 0x01, 0x00, 0x00, 0xdc, 0xf3, 0xff, 0xff, 0x08, 0x00, 0x00, 0x00,
0x88, 0x00, 0x00, 0x00, 0x10, 0x00, 0x00, 0x00, 0x00, 0x00, 0x00, 0x00, 0x00, 0x00, 0x00, 0x00,
0x00, 0x00, 0x00, 0x00, 0x00, 0x00, 0x00, 0x00, 0x00, 0x00, 0x00, 0x00, 0x00, 0x00, 0x00, 0x00,
0x00, 0x00, 0x00, 0x00, 0x00, 0x00, 0x00, 0x00, 0x00, 0x00, 0x00, 0x00, 0x00, 0x00, 0x00, 0x00,
0x00, 0x00, 0x00, 0x00, 0x00, 0x00, 0x00, 0x00, 0x00, 0x00, 0x00, 0x00, 0x00, 0x00, 0x00, 0x00,
0x00, 0x00, 0x00, 0x00, 0x00, 0x00, 0x00, 0x00, 0x00, 0x00, 0x00, 0x00, 0x00, 0x00, 0x00, 0x00,
0x00, 0x00, 0x00, 0x00, 0x00, 0x00, 0x00, 0x00, 0x00, 0x00, 0x00, 0x00, 0x00, 0x00, 0x00, 0x00,
0x00, 0x00, 0x00, 0x00, 0x00, 0x00, 0x00, 0x00, 0x00, 0x00, 0x00, 0x00, 0x00, 0x00, 0x00, 0x00,
0x00, 0x00, 0x00, 0x00, 0x00, 0x00, 0x00, 0x00, 0x00, 0x00, 0x00, 0x00, 0x00, 0x00, 0x00, 0x00,
0x00, 0x00, 0x00, 0x00, 0x00, 0x00, 0x00, 0x00, 0x10, 0x00, 0x00, 0x00, 0x92, 0xd3, 0xba, 0x39,
0x86, 0xdd, 0x9d, 0x38, 0x55, 0x55, 0x39, 0x39, 0x38, 0xa3, 0xb4, 0x39, 0x5f, 0xc6, 0x8e, 0x39,
0x00, 0xfa, 0x47, 0x38, 0x68, 0x48, 0x2c, 0x3a, 0x54, 0xfd, 0xfe, 0x39, 0x72, 0x27, 0x00, 0x39,
0xfc, 0xc0, 0xdb, 0x38, 0x8e, 0x7f, 0x39, 0x3a, 0x90, 0xb4, 0x05, 0x39, 0xc8, 0x49, 0xb4, 0x38,
0xbb, 0x73, 0x89, 0x3a, 0x09, 0xae, 0x83, 0x39, 0x90, 0xff, 0xda, 0x38, 0x35, 0x00, 0x00, 0x00,
0x6d, 0x6f, 0x64, 0x65, 0x6c, 0x5f, 0x31, 0x2f, 0x63, 0x6f, 0x6e, 0x76, 0x31, 0x64, 0x2d, 0x73,
0x6d, 0x61, 0x6c, 0x6c, 0x2d, 0x62, 0x61, 0x6c, 0x61, 0x6e, 0x63, 0x65, 0x64, 0x2d, 0x32, 0x2f,
0x6c, 0x61, 0x79, 0x65, 0x72, 0x5f, 0x31, 0x2f, 0x62, 0x61, 0x74, 0x63, 0x68, 0x6e, 0x6f, 0x72,
0x6d, 0x2f, 0x73, 0x75, 0x62, 0x00, 0x00, 0x00, 0x01, 0x00, 0x00, 0x00, 0x10, 0x00, 0x00, 0x00,
0x1a, 0xf5, 0xff, 0xff, 0x14, 0x00, 0x00, 0x00, 0xa8, 0x01, 0x00, 0x00, 0x0b, 0x00, 0x00, 0x00,
0x00, 0x00, 0x00, 0x09, 0xd0, 0x01, 0x00, 0x00, 0x0c, 0xf5, 0xff, 0xff, 0x08, 0x00, 0x00, 0x00,
0x0c, 0x01, 0x00, 0x00, 0x20, 0x00, 0x00, 0x00, 0x00, 0x00, 0x00, 0x00, 0x00, 0x00, 0x00, 0x00,
0x00, 0x00, 0x00, 0x00, 0x00, 0x00, 0x00, 0x00, 0x00, 0x00, 0x00, 0x00, 0x00, 0x00, 0x00, 0x00,
0x00, 0x00, 0x00, 0x00, 0x00, 0x00, 0x00, 0x00, 0x00, 0x00, 0x00, 0x00, 0x00, 0x00, 0x00, 0x00,
0x00, 0x00, 0x00, 0x00, 0x00, 0x00, 0x00, 0x00, 0x00, 0x00, 0x00, 0x00, 0x00, 0x00, 0x00, 0x00,
0x00, 0x00, 0x00, 0x00, 0x00, 0x00, 0x00, 0x00, 0x00, 0x00, 0x00, 0x00, 0x00, 0x00, 0x00, 0x00,
0x00, 0x00, 0x00, 0x00, 0x00, 0x00, 0x00, 0x00, 0x00, 0x00, 0x00, 0x00, 0x00, 0x00, 0x00, 0x00,
0x00, 0x00, 0x00, 0x00, 0x00, 0x00, 0x00, 0x00, 0x00, 0x00, 0x00, 0x00, 0x00, 0x00, 0x00, 0x00,
0x00, 0x00, 0x00, 0x00, 0x00, 0x00, 0x00, 0x00, 0x00, 0x00, 0x00, 0x00, 0x00, 0x00, 0x00, 0x00,
0x00, 0x00, 0x00, 0x00, 0x00, 0x00, 0x00, 0x00, 0x00, 0x00, 0x00, 0x00, 0x00, 0x00, 0x00, 0x00,
0x00, 0x00, 0x00, 0x00, 0x00, 0x00, 0x00, 0x00, 0x00, 0x00, 0x00, 0x00, 0x00, 0x00, 0x00, 0x00,
0x00, 0x00, 0x00, 0x00, 0x00, 0x00, 0x00, 0x00, 0x00, 0x00, 0x00, 0x00, 0x00, 0x00, 0x00, 0x00,
0x00, 0x00, 0x00, 0x00, 0x00, 0x00, 0x00, 0x00, 0x00, 0x00, 0x00, 0x00, 0x00, 0x00, 0x00, 0x00,
0x00, 0x00, 0x00, 0x00, 0x00, 0x00, 0x00, 0x00, 0x00, 0x00, 0x00, 0x00, 0x00, 0x00, 0x00, 0x00,
0x00, 0x00, 0x00, 0x00, 0x00, 0x00, 0x00, 0x00, 0x00, 0x00, 0x00, 0x00, 0x00, 0x00, 0x00, 0x00,
0x00, 0x00, 0x00, 0x00, 0x00, 0x00, 0x00, 0x00, 0x00, 0x00, 0x00, 0x00, 0x00, 0x00, 0x00, 0x00,
0x00, 0x00, 0x00, 0x00, 0x00, 0x00, 0x00, 0x00, 0x00, 0x00, 0x00, 0x00, 0x00, 0x00, 0x00, 0x00,
0x00, 0x00, 0x00, 0x00, 0x00, 0x00, 0x00, 0x00, 0x00, 0x00, 0x00, 0x00, 0x20, 0x00, 0x00, 0x00,
0x7e, 0xc3, 0x08, 0x3c, 0xa8, 0x89, 0x85, 0x3b, 0x3d, 0x3d, 0xe6, 0x3b, 0x3f, 0x16, 0xbb, 0x3b,
0x7c, 0x05, 0xea, 0x3b, 0x82, 0xc3, 0xfe, 0x3b, 0x39, 0x1a, 0x43, 0x3c, 0x20, 0xf8, 0x0d, 0x3c,
0x04, 0x08, 0xbe, 0x3b, 0x50, 0xe8, 0xca, 0x3b, 0xee, 0x82, 0xc9, 0x3b, 0x89, 0x23, 0x05, 0x3c,
0x65, 0x77, 0xa7, 0x3b, 0x0d, 0xd8, 0xcd, 0x3b, 0x01, 0x0d, 0xef, 0x3b, 0xac, 0x52, 0x20, 0x3c,
0x6d, 0x76, 0x04, 0x3c, 0x53, 0x87, 0x93, 0x3b, 0xd2, 0x0d, 0x0b, 0x3c, 0xa4, 0xf1, 0xf2, 0x3b,
0x00, 0x60, 0x19, 0x3c, 0x18, 0x19, 0x29, 0x3c, 0x05, 0x6b, 0x19, 0x3c, 0x58, 0xe4, 0xed, 0x3b,
0x06, 0x3c, 0x19, 0x3c, 0x0e, 0x5f, 0xca, 0x3b, 0xe7, 0x77, 0x1e, 0x3c, 0xa5, 0x85, 0x7e, 0x3b,
0x5f, 0xd4, 0x13, 0x3c, 0x68, 0x20, 0x1f, 0x3c, 0x3b, 0x8b, 0x19, 0x3c, 0x78, 0x9e, 0x01, 0x3c,
0x2e, 0x00, 0x00, 0x00, 0x6d, 0x6f, 0x64, 0x65, 0x6c, 0x5f, 0x31, 0x2f, 0x63, 0x6f, 0x6e, 0x76,
0x31, 0x64, 0x2d, 0x73, 0x6d, 0x61, 0x6c, 0x6c, 0x2d, 0x62, 0x61, 0x6c, 0x61, 0x6e, 0x63, 0x65,
0x64, 0x2d, 0x32, 0x2f, 0x6c, 0x61, 0x79, 0x65, 0x72, 0x5f, 0x33, 0x2f, 0x43, 0x6f, 0x6e, 0x76,
0x31, 0x44, 0x00, 0x00, 0x04, 0x00, 0x00, 0x00, 0x20, 0x00, 0x00, 0x00, 0x01, 0x00, 0x00, 0x00,
0x03, 0x00, 0x00, 0x00, 0x10, 0x00, 0x00, 0x00, 0x12, 0xf7, 0xff, 0xff, 0x14, 0x00, 0x00, 0x00,
0xa4, 0x01, 0x00, 0x00, 0x0a, 0x00, 0x00, 0x00, 0x00, 0x00, 0x00, 0x02, 0xcc, 0x01, 0x00, 0x00,
0x04, 0xf7, 0xff, 0xff, 0x08, 0x00, 0x00, 0x00, 0x08, 0x01, 0x00, 0x00, 0x20, 0x00, 0x00, 0x00,
0x00, 0x00, 0x00, 0x00, 0x00, 0x00, 0x00, 0x00, 0x00, 0x00, 0x00, 0x00, 0x00, 0x00, 0x00, 0x00,
0x00, 0x00, 0x00, 0x00, 0x00, 0x00, 0x00, 0x00, 0x00, 0x00, 0x00, 0x00, 0x00, 0x00, 0x00, 0x00,
0x00, 0x00, 0x00, 0x00, 0x00, 0x00, 0x00, 0x00, 0x00, 0x00, 0x00, 0x00, 0x00, 0x00, 0x00, 0x00,
0x00, 0x00, 0x00, 0x00, 0x00, 0x00, 0x00, 0x00, 0x00, 0x00, 0x00, 0x00, 0x00, 0x00, 0x00, 0x00,
0x00, 0x00, 0x00, 0x00, 0x00, 0x00, 0x00, 0x00, 0x00, 0x00, 0x00, 0x00, 0x00, 0x00, 0x00, 0x00,
0x00, 0x00, 0x00, 0x00, 0x00, 0x00, 0x00, 0x00, 0x00, 0x00, 0x00, 0x00, 0x00, 0x00, 0x00, 0x00,
0x00, 0x00, 0x00, 0x00, 0x00, 0x00, 0x00, 0x00, 0x00, 0x00, 0x00, 0x00, 0x00, 0x00, 0x00, 0x00,
0x00, 0x00, 0x00, 0x00, 0x00, 0x00, 0x00, 0x00, 0x00, 0x00, 0x00, 0x00, 0x00, 0x00, 0x00, 0x00,
0x00, 0x00, 0x00, 0x00, 0x00, 0x00, 0x00, 0x00, 0x00, 0x00, 0x00, 0x00, 0x00, 0x00, 0x00, 0x00,
0x00, 0x00, 0x00, 0x00, 0x00, 0x00, 0x00, 0x00, 0x00, 0x00, 0x00, 0x00, 0x00, 0x00, 0x00, 0x00,
0x00, 0x00, 0x00, 0x00, 0x00, 0x00, 0x00, 0x00, 0x00, 0x00, 0x00, 0x00, 0x00, 0x00, 0x00, 0x00,
0x00, 0x00, 0x00, 0x00, 0x00, 0x00, 0x00, 0x00, 0x00, 0x00, 0x00, 0x00, 0x00, 0x00, 0x00, 0x00,
0x00, 0x00, 0x00, 0x00, 0x00, 0x00, 0x00, 0x00, 0x00, 0x00, 0x00, 0x00, 0x00, 0x00, 0x00, 0x00,
0x00, 0x00, 0x00, 0x00, 0x00, 0x00, 0x00, 0x00, 0x00, 0x00, 0x00, 0x00, 0x00, 0x00, 0x00, 0x00,
0x00, 0x00, 0x00, 0x00, 0x00, 0x00, 0x00, 0x00, 0x00, 0x00, 0x00, 0x00, 0x00, 0x00, 0x00, 0x00,
0x00, 0x00, 0x00, 0x00, 0x00, 0x00, 0x00, 0x00, 0x00, 0x00, 0x00, 0x00, 0x00, 0x00, 0x00, 0x00,
0x20, 0x00, 0x00, 0x00, 0x4d, 0xe0, 0xd8, 0x38, 0xb6, 0xc2, 0x53, 0x38, 0xbb, 0x8d, 0xb6, 0x38,
0xb7, 0x56, 0x94, 0x38, 0x70, 0x8d, 0xb9, 0x38, 0xb0, 0xff, 0xc9, 0x38, 0xb3, 0xb1, 0x1a, 0x39,
0x8e, 0x21, 0xe1, 0x38, 0x5e, 0xac, 0x96, 0x38, 0xf6, 0xe1, 0xa0, 0x38, 0x98, 0xc6, 0x9f, 0x38,
0xc5, 0x20, 0xd3, 0x38, 0x2a, 0xc8, 0x84, 0x38, 0x01, 0x36, 0xa3, 0x38, 0x4c, 0x8a, 0xbd, 0x38,
0x63, 0x3c, 0xfe, 0x38, 0x42, 0x0e, 0xd2, 0x38, 0x6d, 0xf2, 0x69, 0x38, 0x15, 0x82, 0xdc, 0x38,
0x84, 0xa0, 0xc0, 0x38, 0xd0, 0x37, 0xf3, 0x38, 0x5a, 0x13, 0x06, 0x39, 0x4a, 0x49, 0xf3, 0x38,
0x14, 0x9f, 0xbc, 0x38, 0xc3, 0xfe, 0xf2, 0x38, 0x21, 0x75, 0xa0, 0x38, 0x82, 0x4b, 0xfb, 0x38,
0xa3, 0xce, 0x49, 0x38, 0x9b, 0x6c, 0xea, 0x38, 0xb8, 0x56, 0xfc, 0x38, 0x5e, 0x7c, 0xf3, 0x38,
0xe2, 0x8b, 0xcd, 0x38, 0x2e, 0x00, 0x00, 0x00, 0x6d, 0x6f, 0x64, 0x65, 0x6c, 0x5f, 0x31, 0x2f,
0x63, 0x6f, 0x6e, 0x76, 0x31, 0x64, 0x2d, 0x73, 0x6d, 0x61, 0x6c, 0x6c, 0x2d, 0x62, 0x61, 0x6c,
0x61, 0x6e, 0x63, 0x65, 0x64, 0x2d, 0x32, 0x2f, 0x6c, 0x61, 0x79, 0x65, 0x72, 0x5f, 0x34, 0x2f,
0x43, 0x6f, 0x6e, 0x76, 0x31, 0x44, 0x00, 0x00, 0x01, 0x00, 0x00, 0x00, 0x20, 0x00, 0x00, 0x00,
0xfa, 0xf8, 0xff, 0xff, 0x14, 0x00, 0x00, 0x00, 0xa4, 0x01, 0x00, 0x00, 0x09, 0x00, 0x00, 0x00,
0x00, 0x00, 0x00, 0x09, 0x70, 0x02, 0x00, 0x00, 0xec, 0xf8, 0xff, 0xff, 0x08, 0x00, 0x00, 0x00,
0x08, 0x01, 0x00, 0x00, 0x20, 0x00, 0x00, 0x00, 0x00, 0x00, 0x00, 0x00, 0x00, 0x00, 0x00, 0x00,
0x00, 0x00, 0x00, 0x00, 0x00, 0x00, 0x00, 0x00, 0x00, 0x00, 0x00, 0x00, 0x00, 0x00, 0x00, 0x00,
0x00, 0x00, 0x00, 0x00, 0x00, 0x00, 0x00, 0x00, 0x00, 0x00, 0x00, 0x00, 0x00, 0x00, 0x00, 0x00,
0x00, 0x00, 0x00, 0x00, 0x00, 0x00, 0x00, 0x00, 0x00, 0x00, 0x00, 0x00, 0x00, 0x00, 0x00, 0x00,
0x00, 0x00, 0x00, 0x00, 0x00, 0x00, 0x00, 0x00, 0x00, 0x00, 0x00, 0x00, 0x00, 0x00, 0x00, 0x00,
0x00, 0x00, 0x00, 0x00, 0x00, 0x00, 0x00, 0x00, 0x00, 0x00, 0x00, 0x00, 0x00, 0x00, 0x00, 0x00,
0x00, 0x00, 0x00, 0x00, 0x00, 0x00, 0x00, 0x00, 0x00, 0x00, 0x00, 0x00, 0x00, 0x00, 0x00, 0x00,
0x00, 0x00, 0x00, 0x00, 0x00, 0x00, 0x00, 0x00, 0x00, 0x00, 0x00, 0x00, 0x00, 0x00, 0x00, 0x00,
0x00, 0x00, 0x00, 0x00, 0x00, 0x00, 0x00, 0x00, 0x00, 0x00, 0x00, 0x00, 0x00, 0x00, 0x00, 0x00,
0x00, 0x00, 0x00, 0x00, 0x00, 0x00, 0x00, 0x00, 0x00, 0x00, 0x00, 0x00, 0x00, 0x00, 0x00, 0x00,
0x00, 0x00, 0x00, 0x00, 0x00, 0x00, 0x00, 0x00, 0x00, 0x00, 0x00, 0x00, 0x00, 0x00, 0x00, 0x00,
0x00, 0x00, 0x00, 0x00, 0x00, 0x00, 0x00, 0x00, 0x00, 0x00, 0x00, 0x00, 0x00, 0x00, 0x00, 0x00,
0x00, 0x00, 0x00, 0x00, 0x00, 0x00, 0x00, 0x00, 0x00, 0x00, 0x00, 0x00, 0x00, 0x00, 0x00, 0x00,
0x00, 0x00, 0x00, 0x00, 0x00, 0x00, 0x00, 0x00, 0x00, 0x00, 0x00, 0x00, 0x00, 0x00, 0x00, 0x00,
0x00, 0x00, 0x00, 0x00, 0x00, 0x00, 0x00, 0x00, 0x00, 0x00, 0x00, 0x00, 0x00, 0x00, 0x00, 0x00,
0x00, 0x00, 0x00, 0x00, 0x00, 0x00, 0x00, 0x00, 0x00, 0x00, 0x00, 0x00, 0x00, 0x00, 0x00, 0x00,
0x00, 0x00, 0x00, 0x00, 0x00, 0x00, 0x00, 0x00, 0x20, 0x00, 0x00, 0x00, 0x12, 0x3a, 0x6b, 0x3b,
0x84, 0x66, 0x2c, 0x3b, 0xb9, 0x16, 0xc0, 0x3a, 0x9c, 0x67, 0x28, 0x3b, 0x23, 0xe7, 0x04, 0x3b,
0x0e, 0xca, 0xd7, 0x3a, 0xe4, 0x27, 0x58, 0x3b, 0x17, 0x01, 0x28, 0x3b, 0x15, 0x0a, 0xe1, 0x3a,
0xbe, 0x8c, 0x15, 0x3b, 0x50, 0x03, 0x2e, 0x3b, 0xe3, 0xca, 0xf7, 0x3a, 0xee, 0xc3, 0x17, 0x3b,
0x6e, 0x45, 0x0b, 0x3b, 0x3e, 0xbb, 0xcb, 0x3a, 0xbf, 0x1a, 0xb5, 0x3a, 0x30, 0x3b, 0x17, 0x3b,
0x33, 0xa0, 0x1c, 0x3b, 0x9b, 0x4b, 0x55, 0x3b, 0x30, 0x3d, 0xc9, 0x3a, 0x45, 0x31, 0x06, 0x3b,
0x6f, 0x4b, 0xfa, 0x3a, 0x2c, 0x2c, 0xfa, 0x3a, 0xbd, 0xd2, 0xd2, 0x3a, 0x1a, 0x0c, 0x37, 0x3b,
0xf6, 0x5d, 0x04, 0x3b, 0x44, 0x03, 0x44, 0x3b, 0x08, 0xb6, 0x15, 0x3b, 0xe2, 0x2b, 0xe6, 0x3a,
0x66, 0xd9, 0xd3, 0x3a, 0xa3, 0xc9, 0xbf, 0x3a, 0xb6, 0xdc, 0xc3, 0x3a, 0xd3, 0x00, 0x00, 0x00,
0x6d, 0x6f, 0x64, 0x65, 0x6c, 0x5f, 0x31, 0x2f, 0x63, 0x6f, 0x6e, 0x76, 0x31, 0x64, 0x2d, 0x73,
0x6d, 0x61, 0x6c, 0x6c, 0x2d, 0x62, 0x61, 0x6c, 0x61, 0x6e, 0x63, 0x65, 0x64, 0x2d, 0x32, 0x2f,
0x6c, 0x61, 0x79, 0x65, 0x72, 0x5f, 0x35, 0x2f, 0x62, 0x61, 0x74, 0x63, 0x68, 0x6e, 0x6f, 0x72,
0x6d, 0x2f, 0x6d, 0x75, 0x6c, 0x5f, 0x31, 0x3b, 0x6d, 0x6f, 0x64, 0x65, 0x6c, 0x5f, 0x31, 0x2f,
0x63, 0x6f, 0x6e, 0x76, 0x31, 0x64, 0x2d, 0x73, 0x6d, 0x61, 0x6c, 0x6c, 0x2d, 0x62, 0x61, 0x6c,
0x61, 0x6e, 0x63, 0x65, 0x64, 0x2d, 0x32, 0x2f, 0x6c, 0x61, 0x79, 0x65, 0x72, 0x5f, 0x34, 0x2f,
0x43, 0x6f, 0x6e, 0x76, 0x31, 0x44, 0x2f, 0x53, 0x71, 0x75, 0x65, 0x65, 0x7a, 0x65, 0x3b, 0x6d,
0x6f, 0x64, 0x65, 0x6c, 0x5f, 0x31, 0x2f, 0x63, 0x6f, 0x6e, 0x76, 0x31, 0x64, 0x2d, 0x73, 0x6d,
0x61, 0x6c, 0x6c, 0x2d, 0x62, 0x61, 0x6c, 0x61, 0x6e, 0x63, 0x65, 0x64, 0x2d, 0x32, 0x2f, 0x6c,
0x61, 0x79, 0x65, 0x72, 0x5f, 0x35, 0x2f, 0x62, 0x61, 0x74, 0x63, 0x68, 0x6e, 0x6f, 0x72, 0x6d,
0x2f, 0x6d, 0x75, 0x6c, 0x3b, 0x6d, 0x6f, 0x64, 0x65, 0x6c, 0x5f, 0x31, 0x2f, 0x63, 0x6f, 0x6e,
0x76, 0x31, 0x64, 0x2d, 0x73, 0x6d, 0x61, 0x6c, 0x6c, 0x2d, 0x62, 0x61, 0x6c, 0x61, 0x6e, 0x63,
0x65, 0x64, 0x2d, 0x32, 0x2f, 0x6c, 0x61, 0x79, 0x65, 0x72, 0x5f, 0x34, 0x2f, 0x43, 0x6f, 0x6e,
0x76, 0x31, 0x44, 0x00, 0x04, 0x00, 0x00, 0x00, 0x20, 0x00, 0x00, 0x00, 0x01, 0x00, 0x00, 0x00,
0x03, 0x00, 0x00, 0x00, 0x20, 0x00, 0x00, 0x00, 0x92, 0xfb, 0xff, 0xff, 0x14, 0x00, 0x00, 0x00,
0xa4, 0x01, 0x00, 0x00, 0x08, 0x00, 0x00, 0x00, 0x00, 0x00, 0x00, 0x02, 0xd4, 0x01, 0x00, 0x00,
0x84, 0xfb, 0xff, 0xff, 0x08, 0x00, 0x00, 0x00, 0x08, 0x01, 0x00, 0x00, 0x20, 0x00, 0x00, 0x00,
0x00, 0x00, 0x00, 0x00, 0x00, 0x00, 0x00, 0x00, 0x00, 0x00, 0x00, 0x00, 0x00, 0x00, 0x00, 0x00,
0x00, 0x00, 0x00, 0x00, 0x00, 0x00, 0x00, 0x00, 0x00, 0x00, 0x00, 0x00, 0x00, 0x00, 0x00, 0x00,
0x00, 0x00, 0x00, 0x00, 0x00, 0x00, 0x00, 0x00, 0x00, 0x00, 0x00, 0x00, 0x00, 0x00, 0x00, 0x00,
0x00, 0x00, 0x00, 0x00, 0x00, 0x00, 0x00, 0x00, 0x00, 0x00, 0x00, 0x00, 0x00, 0x00, 0x00, 0x00,
0x00, 0x00, 0x00, 0x00, 0x00, 0x00, 0x00, 0x00, 0x00, 0x00, 0x00, 0x00, 0x00, 0x00, 0x00, 0x00,
0x00, 0x00, 0x00, 0x00, 0x00, 0x00, 0x00, 0x00, 0x00, 0x00, 0x00, 0x00, 0x00, 0x00, 0x00, 0x00,
0x00, 0x00, 0x00, 0x00, 0x00, 0x00, 0x00, 0x00, 0x00, 0x00, 0x00, 0x00, 0x00, 0x00, 0x00, 0x00,
0x00, 0x00, 0x00, 0x00, 0x00, 0x00, 0x00, 0x00, 0x00, 0x00, 0x00, 0x00, 0x00, 0x00, 0x00, 0x00,
0x00, 0x00, 0x00, 0x00, 0x00, 0x00, 0x00, 0x00, 0x00, 0x00, 0x00, 0x00, 0x00, 0x00, 0x00, 0x00,
0x00, 0x00, 0x00, 0x00, 0x00, 0x00, 0x00, 0x00, 0x00, 0x00, 0x00, 0x00, 0x00, 0x00, 0x00, 0x00,
0x00, 0x00, 0x00, 0x00, 0x00, 0x00, 0x00, 0x00, 0x00, 0x00, 0x00, 0x00, 0x00, 0x00, 0x00, 0x00,
0x00, 0x00, 0x00, 0x00, 0x00, 0x00, 0x00, 0x00, 0x00, 0x00, 0x00, 0x00, 0x00, 0x00, 0x00, 0x00,
0x00, 0x00, 0x00, 0x00, 0x00, 0x00, 0x00, 0x00, 0x00, 0x00, 0x00, 0x00, 0x00, 0x00, 0x00, 0x00,
0x00, 0x00, 0x00, 0x00, 0x00, 0x00, 0x00, 0x00, 0x00, 0x00, 0x00, 0x00, 0x00, 0x00, 0x00, 0x00,
0x00, 0x00, 0x00, 0x00, 0x00, 0x00, 0x00, 0x00, 0x00, 0x00, 0x00, 0x00, 0x00, 0x00, 0x00, 0x00,
0x00, 0x00, 0x00, 0x00, 0x00, 0x00, 0x00, 0x00, 0x00, 0x00, 0x00, 0x00, 0x00, 0x00, 0x00, 0x00,
0x20, 0x00, 0x00, 0x00, 0x25, 0xbf, 0x1b, 0x39, 0x0a, 0x4c, 0xe4, 0x38, 0x68, 0x5e, 0x7e, 0x38,
0x7b, 0x01, 0xdf, 0x38, 0x4b, 0xfe, 0xaf, 0x38, 0x76, 0xe0, 0x8e, 0x38, 0x97, 0x1e, 0x0f, 0x39,
0xb8, 0x79, 0xde, 0x38, 0x5c, 0x00, 0x95, 0x38, 0x9f, 0x09, 0xc6, 0x38, 0xac, 0x6e, 0xe6, 0x38,
0x0a, 0x11, 0xa4, 0x38, 0xb4, 0xf8, 0xc8, 0x38, 0x2b, 0x6d, 0xb8, 0x38, 0xa5, 0xe4, 0x86, 0x38,
0xb7, 0xd2, 0x6f, 0x38, 0xa0, 0x43, 0xc8, 0x38, 0x66, 0x68, 0xcf, 0x38, 0xbc, 0x39, 0x0d, 0x39,
0x2e, 0x3e, 0x85, 0x38, 0x77, 0xb3, 0xb1, 0x38, 0x27, 0xb9, 0xa5, 0x38, 0x74, 0xa4, 0xa5, 0x38,
0xb5, 0x96, 0x8b, 0x38, 0x54, 0x65, 0xf2, 0x38, 0xa5, 0x48, 0xaf, 0x38, 0x53, 0xc8, 0x01, 0x39,
0x4c, 0x40, 0xc6, 0x38, 0x3f, 0x66, 0x98, 0x38, 0x9e, 0x44, 0x8c, 0x38, 0x54, 0xf8, 0x7d, 0x38,
0xcc, 0xae, 0x81, 0x38, 0x35, 0x00, 0x00, 0x00, 0x6d, 0x6f, 0x64, 0x65, 0x6c, 0x5f, 0x31, 0x2f,
0x63, 0x6f, 0x6e, 0x76, 0x31, 0x64, 0x2d, 0x73, 0x6d, 0x61, 0x6c, 0x6c, 0x2d, 0x62, 0x61, 0x6c,
0x61, 0x6e, 0x63, 0x65, 0x64, 0x2d, 0x32, 0x2f, 0x6c, 0x61, 0x79, 0x65, 0x72, 0x5f, 0x35, 0x2f,
0x62, 0x61, 0x74, 0x63, 0x68, 0x6e, 0x6f, 0x72, 0x6d, 0x2f, 0x73, 0x75, 0x62, 0x00, 0x00, 0x00,
0x01, 0x00, 0x00, 0x00, 0x20, 0x00, 0x00, 0x00, 0x82, 0xfd, 0xff, 0xff, 0x14, 0x00, 0x00, 0x00,
0x30, 0x00, 0x00, 0x00, 0x07, 0x00, 0x00, 0x00, 0x00, 0x00, 0x00, 0x09, 0x58, 0x00, 0x00, 0x00,
0x74, 0xfd, 0xff, 0xff, 0x08, 0x00, 0x00, 0x00, 0x10, 0x00, 0x00, 0x00, 0x01, 0x00, 0x00, 0x00,
0x00, 0x00, 0x00, 0x00, 0x00, 0x00, 0x00, 0x00, 0x01, 0x00, 0x00, 0x00, 0x09, 0x36, 0x1e, 0x3c,
0x2e, 0x00, 0x00, 0x00, 0x6d, 0x6f, 0x64, 0x65, 0x6c, 0x5f, 0x31, 0x2f, 0x63, 0x6f, 0x6e, 0x76,
0x31, 0x64, 0x2d, 0x73, 0x6d, 0x61, 0x6c, 0x6c, 0x2d, 0x62, 0x61, 0x6c, 0x61, 0x6e, 0x63, 0x65,
0x64, 0x2d, 0x32, 0x2f, 0x6c, 0x61, 0x79, 0x65, 0x72, 0x5f, 0x39, 0x2f, 0x4d, 0x61, 0x74, 0x4d,
0x75, 0x6c, 0x00, 0x00, 0x02, 0x00, 0x00, 0x00, 0x02, 0x00, 0x00, 0x00, 0x20, 0x00, 0x00, 0x00,
0xfa, 0xfd, 0xff, 0xff, 0x14, 0x00, 0x00, 0x00, 0x30, 0x00, 0x00, 0x00, 0x06, 0x00, 0x00, 0x00,
0x00, 0x00, 0x00, 0x02, 0x68, 0x00, 0x00, 0x00, 0xec, 0xfd, 0xff, 0xff, 0x08, 0x00, 0x00, 0x00,
0x10, 0x00, 0x00, 0x00, 0x01, 0x00, 0x00, 0x00, 0x00, 0x00, 0x00, 0x00, 0x00, 0x00, 0x00, 0x00,
0x01, 0x00, 0x00, 0x00, 0x28, 0xf7, 0xe7, 0x38, 0x3e, 0x00, 0x00, 0x00, 0x6d, 0x6f, 0x64, 0x65,
0x6c, 0x5f, 0x31, 0x2f, 0x63, 0x6f, 0x6e, 0x76, 0x31, 0x64, 0x2d, 0x73, 0x6d, 0x61, 0x6c, 0x6c,
0x2d, 0x62, 0x61, 0x6c, 0x61, 0x6e, 0x63, 0x65, 0x64, 0x2d, 0x32, 0x2f, 0x6c, 0x61, 0x79, 0x65,
0x72, 0x5f, 0x39, 0x2f, 0x42, 0x69, 0x61, 0x73, 0x41, 0x64, 0x64, 0x2f, 0x52, 0x65, 0x61, 0x64,
0x56, 0x61, 0x72, 0x69, 0x61, 0x62, 0x6c, 0x65, 0x4f, 0x70, 0x00, 0x00, 0x01, 0x00, 0x00, 0x00,
0x02, 0x00, 0x00, 0x00, 0x7e, 0xfe, 0xff, 0xff, 0x14, 0x00, 0x00, 0x00, 0x14, 0x00, 0x00, 0x00,
0x05, 0x00, 0x00, 0x00, 0x00, 0x00, 0x00, 0x02, 0x4c, 0x00, 0x00, 0x00, 0xe8, 0xfe, 0xff, 0xff,
0x3e, 0x00, 0x00, 0x00, 0x6d, 0x6f, 0x64, 0x65, 0x6c, 0x5f, 0x31, 0x2f, 0x63, 0x6f, 0x6e, 0x76,
0x31, 0x64, 0x2d, 0x73, 0x6d, 0x61, 0x6c, 0x6c, 0x2d, 0x62, 0x61, 0x6c, 0x61, 0x6e, 0x63, 0x65,
0x64, 0x2d, 0x32, 0x2f, 0x6c, 0x61, 0x79, 0x65, 0x72, 0x5f, 0x38, 0x2f, 0x4d, 0x65, 0x61, 0x6e,
0x2f, 0x72, 0x65, 0x64, 0x75, 0x63, 0x74, 0x69, 0x6f, 0x6e, 0x5f, 0x69, 0x6e, 0x64, 0x69, 0x63,
0x65, 0x73, 0x00, 0x00, 0x00, 0x00, 0x00, 0x00, 0xe2, 0xfe, 0xff, 0xff, 0x14, 0x00, 0x00, 0x00,
0x14, 0x00, 0x00, 0x00, 0x04, 0x00, 0x00, 0x00, 0x00, 0x00, 0x00, 0x02, 0x3c, 0x00, 0x00, 0x00,
0x4c, 0xff, 0xff, 0xff, 0x2f, 0x00, 0x00, 0x00, 0x6d, 0x6f, 0x64, 0x65, 0x6c, 0x5f, 0x31, 0x2f,
0x63, 0x6f, 0x6e, 0x76, 0x31, 0x64, 0x2d, 0x73, 0x6d, 0x61, 0x6c, 0x6c, 0x2d, 0x62, 0x61, 0x6c,
0x61, 0x6e, 0x63, 0x65, 0x64, 0x2d, 0x32, 0x2f, 0x6c, 0x61, 0x79, 0x65, 0x72, 0x5f, 0x37, 0x2f,
0x53, 0x71, 0x75, 0x65, 0x65, 0x7a, 0x65, 0x00, 0x01, 0x00, 0x00, 0x00, 0x03, 0x00, 0x00, 0x00,
0x3a, 0xff, 0xff, 0xff, 0x14, 0x00, 0x00, 0x00, 0x14, 0x00, 0x00, 0x00, 0x03, 0x00, 0x00, 0x00,
0x00, 0x00, 0x00, 0x02, 0x40, 0x00, 0x00, 0x00, 0xa4, 0xff, 0xff, 0xff, 0x32, 0x00, 0x00, 0x00,
0x6d, 0x6f, 0x64, 0x65, 0x6c, 0x5f, 0x31, 0x2f, 0x63, 0x6f, 0x6e, 0x76, 0x31, 0x64, 0x2d, 0x73,
0x6d, 0x61, 0x6c, 0x6c, 0x2d, 0x62, 0x61, 0x6c, 0x61, 0x6e, 0x63, 0x65, 0x64, 0x2d, 0x32, 0x2f,
0x6c, 0x61, 0x79, 0x65, 0x72, 0x5f, 0x37, 0x2f, 0x45, 0x78, 0x70, 0x61, 0x6e, 0x64, 0x44, 0x69,
0x6d, 0x73, 0x00, 0x00, 0x01, 0x00, 0x00, 0x00, 0x04, 0x00, 0x00, 0x00, 0x96, 0xff, 0xff, 0xff,
0x18, 0x00, 0x00, 0x00, 0x18, 0x00, 0x00, 0x00, 0x02, 0x00, 0x00, 0x00, 0x00, 0x00, 0x00, 0x02,
0x4c, 0x00, 0x00, 0x00, 0x04, 0x00, 0x04, 0x00, 0x04, 0x00, 0x00, 0x00, 0x39, 0x00, 0x00, 0x00,
0x6d, 0x6f, 0x64, 0x65, 0x6c, 0x5f, 0x31, 0x2f, 0x63, 0x6f, 0x6e, 0x76, 0x31, 0x64, 0x2d, 0x73,
0x6d, 0x61, 0x6c, 0x6c, 0x2d, 0x62, 0x61, 0x6c, 0x61, 0x6e, 0x63, 0x65, 0x64, 0x2d, 0x32, 0x2f,
0x6c, 0x61, 0x79, 0x65, 0x72, 0x5f, 0x30, 0x2f, 0x43, 0x6f, 0x6e, 0x76, 0x31, 0x44, 0x2f, 0x45,
0x78, 0x70, 0x61, 0x6e, 0x64, 0x44, 0x69, 0x6d, 0x73, 0x00, 0x00, 0x00, 0x01, 0x00, 0x00, 0x00,
0x04, 0x00, 0x00, 0x00, 0x00, 0x00, 0x0e, 0x00, 0x18, 0x00, 0x14, 0x00, 0x13, 0x00, 0x0c, 0x00,
0x08, 0x00, 0x04, 0x00, 0x0e, 0x00, 0x00, 0x00, 0x20, 0x00, 0x00, 0x00, 0x40, 0x00, 0x00, 0x00,
0x01, 0x00, 0x00, 0x00, 0x00, 0x00, 0x00, 0x09, 0x54, 0x00, 0x00, 0x00, 0x0c, 0x00, 0x0c, 0x00,
0x00, 0x00, 0x00, 0x00, 0x08, 0x00, 0x04, 0x00, 0x0c, 0x00, 0x00, 0x00, 0x08, 0x00, 0x00, 0x00,
0x14, 0x00, 0x00, 0x00, 0x01, 0x00, 0x00, 0x00, 0x80, 0xff, 0xff, 0xff, 0xff, 0xff, 0xff, 0xff,
0x00, 0x00, 0x00, 0x00, 0x01, 0x00, 0x00, 0x00, 0x1c, 0x1c, 0xbc, 0x40, 0x19, 0x00, 0x00, 0x00,
0x73, 0x65, 0x72, 0x76, 0x69, 0x6e, 0x67, 0x5f, 0x64, 0x65, 0x66, 0x61, 0x75, 0x6c, 0x74, 0x5f,
0x69, 0x6e, 0x70, 0x75, 0x74, 0x5f, 0x32, 0x3a, 0x30, 0x00, 0x00, 0x00, 0x03, 0x00, 0x00, 0x00,
0x01, 0x00, 0x00, 0x00, 0x18, 0x00, 0x00, 0x00, 0x03, 0x00, 0x00, 0x00, 0x06, 0x00, 0x00, 0x00,
0x68, 0x00, 0x00, 0x00, 0x54, 0x00, 0x00, 0x00, 0x3c, 0x00, 0x00, 0x00, 0x2c, 0x00, 0x00, 0x00,
0x14, 0x00, 0x00, 0x00, 0x04, 0x00, 0x00, 0x00, 0xea, 0xff, 0xff, 0xff, 0x02, 0x00, 0x00, 0x00,
0x00, 0x00, 0x00, 0x19, 0xd6, 0xff, 0xff, 0xff, 0x04, 0x00, 0x00, 0x00, 0x00, 0x09, 0x0a, 0x00,
0x0c, 0x00, 0x0b, 0x00, 0x00, 0x00, 0x04, 0x00, 0x0a, 0x00, 0x00, 0x00, 0x02, 0x00, 0x00, 0x00,
0x00, 0x00, 0x00, 0x28, 0xf6, 0xff, 0xff, 0xff, 0x02, 0x00, 0x00, 0x00, 0x00, 0x11, 0x0a, 0x00,
0x0a, 0x00, 0x09, 0x00, 0x00, 0x00, 0x04, 0x00, 0x0a, 0x00, 0x00, 0x00, 0x03, 0x00, 0x00, 0x00,
0x00, 0x03, 0x06, 0x00, 0x08, 0x00, 0x07, 0x00, 0x06, 0x00, 0x00, 0x00, 0x00, 0x00, 0x00, 0x16
};

