/***************************************************************************//**
* \file CAP_MODEL_tflm_model_int8x8.c
*
* \brief
* Autogenerated with ml-coretools, this file contains CAP_MODEL model data.
* Date: 2024-10-02 06:56:31.256714
*******************************************************************************
* \copyright
* Copyright 2024, Cypress Semiconductor Corporation (an Infineon company).
* All rights reserved.
* You may use this file only in accordance with the license, terms, conditions,
* disclaimers, and limitations in the end user license agreement accompanying
* the software package with which this file was provided.
******************************************************************************/


#include "CAP_MODEL_tflm_model_int8x8.h"


#ifdef CY_ML_MODEL_MEM
#include "cy_utils.h"
#define Q(x) #x
#define QUOTE(x) Q(x)
CY_SECTION(QUOTE(CY_ML_MODEL_MEM))
const
#endif

uint8_t CAP_MODEL_model_bin[CAP_MODEL_MODEL_BIN_LEN] __attribute__((aligned(4))) = {
0x28, 0x00, 0x00, 0x00, 0x54, 0x46, 0x4c, 0x33, 0x00, 0x00, 0x00, 0x00, 0x00, 0x00, 0x00, 0x00,
0x00, 0x00, 0x00, 0x00, 0x00, 0x00, 0x12, 0x00, 0x1c, 0x00, 0x18, 0x00, 0x14, 0x00, 0x10, 0x00,
0x0c, 0x00, 0x08, 0x00, 0x00, 0x00, 0x04, 0x00, 0x12, 0x00, 0x00, 0x00, 0x18, 0x00, 0x00, 0x00,
0x70, 0x00, 0x00, 0x00, 0x38, 0x17, 0x00, 0x00, 0x48, 0x17, 0x00, 0x00, 0x60, 0x30, 0x00, 0x00,
0x03, 0x00, 0x00, 0x00, 0x02, 0x00, 0x00, 0x00, 0x34, 0x00, 0x00, 0x00, 0x04, 0x00, 0x00, 0x00,
0xdc, 0xff, 0xff, 0xff, 0x19, 0x00, 0x00, 0x00, 0x04, 0x00, 0x00, 0x00, 0x13, 0x00, 0x00, 0x00,
0x43, 0x4f, 0x4e, 0x56, 0x45, 0x52, 0x53, 0x49, 0x4f, 0x4e, 0x5f, 0x4d, 0x45, 0x54, 0x41, 0x44,
0x41, 0x54, 0x41, 0x00, 0x08, 0x00, 0x0c, 0x00, 0x08, 0x00, 0x04, 0x00, 0x08, 0x00, 0x00, 0x00,
0x18, 0x00, 0x00, 0x00, 0x04, 0x00, 0x00, 0x00, 0x13, 0x00, 0x00, 0x00, 0x6d, 0x69, 0x6e, 0x5f,
0x72, 0x75, 0x6e, 0x74, 0x69, 0x6d, 0x65, 0x5f, 0x76, 0x65, 0x72, 0x73, 0x69, 0x6f, 0x6e, 0x00,
0x1a, 0x00, 0x00, 0x00, 0xb8, 0x16, 0x00, 0x00, 0xa4, 0x16, 0x00, 0x00, 0x78, 0x16, 0x00, 0x00,
0x54, 0x16, 0x00, 0x00, 0x34, 0x16, 0x00, 0x00, 0x18, 0x16, 0x00, 0x00, 0x00, 0x16, 0x00, 0x00,
0xa4, 0x15, 0x00, 0x00, 0x10, 0x15, 0x00, 0x00, 0xfc, 0x08, 0x00, 0x00, 0x68, 0x08, 0x00, 0x00,
0x54, 0x02, 0x00, 0x00, 0x00, 0x02, 0x00, 0x00, 0x5c, 0x01, 0x00, 0x00, 0x50, 0x01, 0x00, 0x00,
0x3c, 0x01, 0x00, 0x00, 0x28, 0x01, 0x00, 0x00, 0x14, 0x01, 0x00, 0x00, 0x00, 0x01, 0x00, 0x00,
0xec, 0x00, 0x00, 0x00, 0xd8, 0x00, 0x00, 0x00, 0xc4, 0x00, 0x00, 0x00, 0xb0, 0x00, 0x00, 0x00,
0x9c, 0x00, 0x00, 0x00, 0x70, 0x00, 0x00, 0x00, 0x04, 0x00, 0x00, 0x00, 0x0a, 0xe9, 0xff, 0xff,
0x04, 0x00, 0x00, 0x00, 0x58, 0x00, 0x00, 0x00, 0x0c, 0x00, 0x00, 0x00, 0x08, 0x00, 0x0e, 0x00,
0x08, 0x00, 0x04, 0x00, 0x08, 0x00, 0x00, 0x00, 0x10, 0x00, 0x00, 0x00, 0x28, 0x00, 0x00, 0x00,
0x00, 0x00, 0x06, 0x00, 0x08, 0x00, 0x04, 0x00, 0x06, 0x00, 0x00, 0x00, 0x04, 0x00, 0x00, 0x00,
0x01, 0x00, 0x00, 0x00, 0xeb, 0x03, 0x00, 0x00, 0x00, 0x00, 0x0a, 0x00, 0x10, 0x00, 0x0c, 0x00,
0x08, 0x00, 0x04, 0x00, 0x0a, 0x00, 0x00, 0x00, 0x02, 0x00, 0x00, 0x00, 0x02, 0x00, 0x00, 0x00,
0x04, 0x00, 0x00, 0x00, 0x06, 0x00, 0x00, 0x00, 0x32, 0x2e, 0x31, 0x34, 0x2e, 0x31, 0x00, 0x00,
0x00, 0x00, 0x00, 0x00, 0x72, 0xe9, 0xff, 0xff, 0x04, 0x00, 0x00, 0x00, 0x10, 0x00, 0x00, 0x00,
0x31, 0x2e, 0x31, 0x34, 0x2e, 0x30, 0x00, 0x00, 0x00, 0x00, 0x00, 0x00, 0x00, 0x00, 0x00, 0x00,
0x00, 0x00, 0x00, 0x00, 0x00, 0x00, 0x00, 0x00, 0x00, 0x00, 0x00, 0x00, 0xd8, 0xd1, 0xff, 0xff,
0x00, 0x00, 0x00, 0x00, 0x00, 0x00, 0x00, 0x00, 0x00, 0x00, 0x00, 0x00, 0xe8, 0xd1, 0xff, 0xff,
0x00, 0x00, 0x00, 0x00, 0x00, 0x00, 0x00, 0x00, 0x00, 0x00, 0x00, 0x00, 0xf8, 0xd1, 0xff, 0xff,
0x00, 0x00, 0x00, 0x00, 0x00, 0x00, 0x00, 0x00, 0x00, 0x00, 0x00, 0x00, 0x08, 0xd2, 0xff, 0xff,
0x00, 0x00, 0x00, 0x00, 0x00, 0x00, 0x00, 0x00, 0x00, 0x00, 0x00, 0x00, 0x18, 0xd2, 0xff, 0xff,
0x00, 0x00, 0x00, 0x00, 0x00, 0x00, 0x00, 0x00, 0x00, 0x00, 0x00, 0x00, 0x28, 0xd2, 0xff, 0xff,
0x00, 0x00, 0x00, 0x00, 0x00, 0x00, 0x00, 0x00, 0x00, 0x00, 0x00, 0x00, 0x38, 0xd2, 0xff, 0xff,
0x00, 0x00, 0x00, 0x00, 0x00, 0x00, 0x00, 0x00, 0x00, 0x00, 0x00, 0x00, 0x48, 0xd2, 0xff, 0xff,
0x00, 0x00, 0x00, 0x00, 0x00, 0x00, 0x00, 0x00, 0x00, 0x00, 0x00, 0x00, 0x58, 0xd2, 0xff, 0xff,
0x00, 0x00, 0x00, 0x00, 0x00, 0x00, 0x00, 0x00, 0x00, 0x00, 0x00, 0x00, 0x68, 0xd2, 0xff, 0xff,
0x00, 0x00, 0x00, 0x00, 0x32, 0xea, 0xff, 0xff, 0x04, 0x00, 0x00, 0x00, 0x90, 0x00, 0x00, 0x00,
0xe0, 0x81, 0xfa, 0xee, 0xad, 0x30, 0x24, 0xda, 0x48, 0xc3, 0x25, 0xbb, 0xf3, 0x00, 0x81, 0x30,
0x01, 0xce, 0x2d, 0xfb, 0x42, 0x40, 0x7f, 0x1f, 0x33, 0x64, 0xd5, 0xe0, 0x03, 0x19, 0x3d, 0x1a,
0x15, 0x30, 0x7f, 0x0b, 0x0a, 0xa6, 0x0c, 0x06, 0x81, 0x3c, 0x11, 0xf9, 0x10, 0x52, 0xc5, 0x7f,
0x23, 0xb1, 0x48, 0xfe, 0x01, 0x15, 0xa8, 0x7f, 0xa6, 0x1c, 0x90, 0x60, 0xb0, 0xb8, 0xda, 0xf0,
0x43, 0xec, 0xd3, 0x7f, 0xff, 0xab, 0xe3, 0xbb, 0x2b, 0x2b, 0x3c, 0x09, 0x81, 0x0f, 0xe6, 0x47,
0xb3, 0xe6, 0x01, 0xef, 0xb6, 0x7f, 0xc8, 0xf1, 0xf1, 0x32, 0xd3, 0x3f, 0xc7, 0x21, 0x81, 0x4f,
0xec, 0xec, 0xf0, 0xda, 0x5e, 0x81, 0xf2, 0x93, 0xd0, 0x2e, 0x34, 0xfe, 0x0c, 0x7f, 0x25, 0x43,
0xaa, 0x63, 0x18, 0xf3, 0x13, 0x17, 0x1f, 0x3b, 0x54, 0x81, 0x4a, 0x02, 0xfa, 0x14, 0x35, 0x1e,
0x4a, 0x4c, 0x89, 0x7f, 0x09, 0xdd, 0xfd, 0x19, 0x30, 0x2c, 0x0a, 0x81, 0x2a, 0xec, 0x0b, 0xe2,
0x00, 0x00, 0x00, 0x00, 0xd2, 0xea, 0xff, 0xff, 0x04, 0x00, 0x00, 0x00, 0x40, 0x00, 0x00, 0x00,
0xf6, 0xc8, 0x00, 0x00, 0xde, 0x01, 0x00, 0x00, 0x26, 0xf1, 0xfe, 0xff, 0x30, 0x67, 0xff, 0xff,
0x0c, 0x94, 0x00, 0x00, 0xc9, 0x02, 0x00, 0x00, 0xc5, 0x99, 0x00, 0x00, 0xef, 0xde, 0xff, 0xff,
0xfd, 0xfc, 0xff, 0xff, 0xfc, 0xfd, 0xff, 0xff, 0x75, 0x55, 0x00, 0x00, 0x7d, 0xf8, 0xff, 0xff,
0x4e, 0x91, 0xff, 0xff, 0xdc, 0xe6, 0xff, 0xff, 0x0f, 0xe3, 0xff, 0xff, 0x74, 0x28, 0x00, 0x00,
0x00, 0x00, 0x00, 0x00, 0x22, 0xeb, 0xff, 0xff, 0x04, 0x00, 0x00, 0x00, 0x00, 0x06, 0x00, 0x00,
0xef, 0xf9, 0x05, 0xf4, 0x15, 0x09, 0x0a, 0x1b, 0x01, 0x81, 0xf4, 0x07, 0xe4, 0x44, 0x65, 0xf0,
0x14, 0xee, 0x0f, 0x15, 0x0e, 0xec, 0xea, 0xfe, 0xf5, 0xe6, 0xdc, 0x0b, 0xe6, 0xf5, 0x00, 0xf5,
0xff, 0x33, 0x11, 0xfe, 0xde, 0x0e, 0xee, 0xf0, 0xf9, 0xbb, 0xf9, 0x0d, 0x19, 0x15, 0x0b, 0x14,
0xfc, 0xc9, 0x4b, 0x3b, 0x0d, 0x20, 0x2f, 0x01, 0x31, 0x7f, 0x28, 0xba, 0x2a, 0xbe, 0xba, 0x4c,
0xeb, 0x22, 0x04, 0xe3, 0xf5, 0x02, 0xd0, 0xd3, 0xf7, 0xf1, 0xe1, 0xc8, 0x05, 0xf5, 0xe7, 0xf0,
0xe3, 0x64, 0x09, 0xf9, 0xe5, 0xff, 0xe1, 0xfa, 0xaa, 0xe9, 0xd4, 0x04, 0xfe, 0x10, 0x13, 0xe5,
0xec, 0xea, 0xdf, 0xd7, 0x28, 0x05, 0xea, 0xf9, 0x08, 0x81, 0xde, 0xfe, 0x05, 0x13, 0x32, 0xd1,
0x3b, 0xef, 0x09, 0x1b, 0x0b, 0xab, 0x0e, 0x03, 0x01, 0xfd, 0x01, 0x0a, 0x02, 0xf3, 0xfb, 0xed,
0xf5, 0x0c, 0x18, 0x10, 0xda, 0x29, 0x00, 0x02, 0x3f, 0x10, 0x00, 0x0a, 0xf0, 0x1c, 0x17, 0x08,
0x9a, 0x81, 0x66, 0x6a, 0xb2, 0xd0, 0x17, 0xe6, 0x41, 0x83, 0x14, 0xd7, 0xf6, 0xa6, 0x8b, 0x2a,
0x01, 0x07, 0xcf, 0xf0, 0xe5, 0xb6, 0x26, 0x15, 0x03, 0x35, 0x07, 0x1f, 0x81, 0x07, 0xe5, 0xc8,
0x35, 0xd6, 0x09, 0xe3, 0x69, 0x3a, 0x07, 0x0f, 0xd1, 0x05, 0x3a, 0x07, 0x53, 0xf9, 0xff, 0x0b,
0x18, 0x7f, 0xdc, 0xd0, 0x27, 0x0d, 0xf1, 0x11, 0xd7, 0x02, 0xe6, 0x6e, 0xeb, 0x4c, 0x6a, 0xed,
0xf2, 0x9b, 0x32, 0x31, 0xf8, 0xe9, 0xea, 0x00, 0x04, 0xc4, 0x06, 0xe9, 0x1e, 0xea, 0xe5, 0x0f,
0xf4, 0xd7, 0x23, 0x05, 0xfa, 0xf3, 0x04, 0x16, 0x46, 0x11, 0x05, 0xcf, 0xc2, 0xfa, 0xfa, 0xed,
0x44, 0x30, 0xc5, 0xbf, 0x4f, 0x23, 0xf6, 0x13, 0xe2, 0xb8, 0xe7, 0xfa, 0xfa, 0x5f, 0x7f, 0xe0,
0xe4, 0xf9, 0x23, 0x09, 0x0a, 0x0e, 0xf8, 0xe8, 0x18, 0xe4, 0x03, 0xfa, 0x1d, 0x04, 0x0c, 0x11,
0xe3, 0x15, 0xef, 0x02, 0xc2, 0xd6, 0xff, 0x05, 0x07, 0x13, 0xfb, 0x1d, 0xd5, 0x02, 0xf8, 0xef,
0x2b, 0xb2, 0x06, 0x26, 0xf5, 0xe7, 0x26, 0x06, 0xf9, 0x10, 0xfa, 0xcb, 0x38, 0xb0, 0xca, 0xfd,
0xe0, 0xed, 0x07, 0xf8, 0xf0, 0x2f, 0xd3, 0xe6, 0x2e, 0xe7, 0x09, 0xc9, 0x10, 0x38, 0x0b, 0xe2,
0x2c, 0x33, 0xc6, 0x24, 0x0e, 0xc6, 0x38, 0x28, 0xfd, 0x7f, 0x1d, 0x30, 0xac, 0x5a, 0x73, 0xfa,
0x0a, 0xb7, 0xf1, 0xe8, 0x2e, 0x2b, 0x0c, 0xf1, 0x25, 0xb4, 0x03, 0x81, 0x27, 0xe8, 0xe8, 0x1c,
0xec, 0x43, 0xfc, 0xd9, 0x3d, 0x23, 0xfe, 0xf8, 0xd8, 0x27, 0xfb, 0x01, 0x0d, 0x00, 0x22, 0xf0,
0xdb, 0x53, 0x03, 0x06, 0xd6, 0xd3, 0xc8, 0xd3, 0xc2, 0xb5, 0xbd, 0x41, 0x14, 0xf4, 0xd1, 0xd9,
0xc5, 0xf4, 0xaa, 0xa0, 0xfd, 0xe3, 0xe5, 0x09, 0x23, 0x81, 0xe9, 0x05, 0xb3, 0xfd, 0xfa, 0xb8,
0xe4, 0x38, 0xfa, 0x21, 0x0b, 0xaa, 0xf9, 0x27, 0xe9, 0xee, 0xe7, 0x53, 0xbd, 0x08, 0xf8, 0xeb,
0x07, 0x15, 0x08, 0xfb, 0xdb, 0x07, 0x05, 0x17, 0xdc, 0x93, 0xe3, 0x32, 0xf5, 0x05, 0xfa, 0x21,
0x18, 0x36, 0xe0, 0xfe, 0x25, 0x12, 0x27, 0x14, 0xf0, 0x7f, 0x1e, 0x27, 0x08, 0x41, 0x30, 0xf1,
0xf7, 0xea, 0x27, 0x33, 0x09, 0xf7, 0xf1, 0xea, 0x01, 0xfc, 0x13, 0x06, 0xf3, 0x17, 0x23, 0x05,
0xd4, 0xcb, 0x23, 0x16, 0xe6, 0xf3, 0x12, 0x0e, 0x2c, 0xed, 0xfa, 0xcd, 0xab, 0xf2, 0xe2, 0x04,
0x41, 0x7c, 0x09, 0x15, 0x16, 0xfd, 0xe7, 0x28, 0xd2, 0x7f, 0xf4, 0x76, 0xf2, 0x0f, 0x1d, 0xba,
0xfd, 0x8f, 0x39, 0xfd, 0xe0, 0x29, 0xe6, 0xe1, 0x2d, 0xb6, 0xff, 0xea, 0x4f, 0x00, 0x0e, 0x36,
0xec, 0x0e, 0x0e, 0x0c, 0xb6, 0xeb, 0x10, 0x0d, 0x2d, 0xd6, 0xfb, 0xf0, 0xce, 0x15, 0x1e, 0xe8,
0x31, 0xf6, 0x0b, 0x12, 0xf3, 0x10, 0x17, 0xf7, 0xe9, 0x7f, 0x16, 0xfe, 0x2a, 0xf3, 0x03, 0x13,
0x0b, 0xe3, 0xee, 0xe3, 0xea, 0x3b, 0x05, 0xfe, 0x0d, 0x13, 0x11, 0xd0, 0x21, 0xfb, 0xfd, 0x11,
0xe8, 0xdd, 0x03, 0xe0, 0x0f, 0x15, 0x1f, 0x03, 0x06, 0x41, 0x20, 0xbb, 0xef, 0x01, 0x1c, 0x06,
0x07, 0xff, 0xc2, 0xb6, 0xe2, 0xf9, 0xf1, 0xf7, 0xbd, 0xd8, 0xdf, 0x04, 0xd1, 0x3f, 0x7f, 0xde,
0x36, 0x20, 0xf5, 0x08, 0xf1, 0xfd, 0xf5, 0x28, 0x0a, 0x0f, 0xf4, 0x19, 0x1a, 0xf5, 0x24, 0x18,
0xca, 0xeb, 0xfa, 0xef, 0xc1, 0x3d, 0xd8, 0xf9, 0x67, 0xee, 0xf7, 0xd8, 0x34, 0xb2, 0xc8, 0x35,
0x20, 0xf4, 0x2b, 0x3b, 0xe3, 0x00, 0x0c, 0xe1, 0xf9, 0x7f, 0x0c, 0xfe, 0x38, 0x96, 0x9e, 0x06,
0x07, 0x11, 0xd3, 0xd6, 0xf1, 0x39, 0xea, 0xe8, 0xf4, 0xfe, 0xf0, 0xdd, 0x1c, 0x04, 0x05, 0x15,
0xe2, 0x40, 0xeb, 0xf7, 0x04, 0x02, 0x0c, 0xfd, 0xfb, 0x30, 0x28, 0x04, 0x21, 0x21, 0x15, 0xea,
0x05, 0x42, 0xf8, 0xe6, 0xed, 0xe0, 0xd0, 0xdb, 0xfb, 0x27, 0x06, 0x1f, 0xf8, 0x14, 0xd6, 0x2a,
0xf2, 0xdb, 0xdd, 0xe7, 0xf7, 0x30, 0x02, 0x18, 0xd1, 0xb6, 0x33, 0x38, 0x30, 0xe5, 0xe2, 0x30,
0xff, 0x81, 0xdb, 0x0e, 0x45, 0x0d, 0x07, 0x06, 0xfc, 0x38, 0x12, 0x25, 0xeb, 0xce, 0xef, 0xe9,
0xfd, 0xde, 0xea, 0xe1, 0x0e, 0x16, 0xfa, 0xf8, 0xf1, 0x81, 0xef, 0xe6, 0x0a, 0xfb, 0x0a, 0xeb,
0xf2, 0xfa, 0x0d, 0x0c, 0x17, 0xea, 0xff, 0xef, 0x2a, 0x16, 0xfe, 0x10, 0x0c, 0xf9, 0xf4, 0xef,
0x04, 0x15, 0x02, 0x0a, 0x09, 0xec, 0x11, 0x0a, 0x1d, 0x30, 0xfa, 0x23, 0xea, 0x17, 0x07, 0xf7,
0xcb, 0x0b, 0xd4, 0xda, 0xe5, 0xbd, 0x02, 0xe6, 0xf8, 0x81, 0xea, 0x11, 0xd1, 0x0e, 0x10, 0xc5,
0x20, 0xfc, 0xf7, 0xf7, 0x23, 0xf3, 0x30, 0x2a, 0x0a, 0x19, 0x18, 0x22, 0xf8, 0xec, 0xf1, 0xe0,
0x1e, 0xf5, 0xf6, 0x05, 0x2e, 0x2e, 0x07, 0xee, 0x49, 0xe4, 0x25, 0x0c, 0x3c, 0x01, 0xfb, 0x19,
0x0b, 0x2a, 0xb0, 0x81, 0x18, 0xea, 0xc5, 0xf7, 0xd4, 0x87, 0xd5, 0x1d, 0xd2, 0x14, 0x51, 0xca,
0x17, 0x1e, 0xfd, 0x11, 0x0f, 0xf1, 0x10, 0x3f, 0x0a, 0xf2, 0x19, 0x38, 0x20, 0x1e, 0x20, 0x10,
0x11, 0xf9, 0x12, 0x08, 0xf6, 0x1e, 0x17, 0x0a, 0x2e, 0xfd, 0x14, 0x2a, 0x23, 0xf1, 0xe8, 0x0e,
0x04, 0xd2, 0xa0, 0x81, 0xe3, 0xd5, 0xd2, 0xee, 0x32, 0x7a, 0x03, 0xd8, 0xfb, 0xa6, 0xb7, 0x00,
0xbe, 0xf3, 0x1c, 0xfc, 0x1a, 0xce, 0x0b, 0xd1, 0x33, 0x25, 0x30, 0xde, 0x1f, 0xd2, 0xbb, 0x1b,
0xe0, 0xb2, 0xe2, 0xd0, 0xc5, 0xed, 0x52, 0x60, 0xae, 0x72, 0x10, 0xec, 0x8d, 0xfc, 0xdb, 0xf6,
0x29, 0x00, 0xfe, 0xfe, 0x13, 0x2b, 0x16, 0x16, 0xd7, 0x7f, 0x0e, 0xdf, 0x18, 0xfb, 0xdb, 0xfc,
0xe8, 0x0a, 0x02, 0x0b, 0xf9, 0x03, 0xeb, 0xf7, 0x23, 0xf1, 0x0a, 0x0c, 0x1f, 0x2b, 0x3a, 0x2b,
0x05, 0xf3, 0xec, 0x04, 0xf7, 0xd8, 0x13, 0xff, 0xef, 0x30, 0xfb, 0x23, 0xc4, 0xe9, 0xde, 0xe1,
0x14, 0xc9, 0x4a, 0x33, 0xdc, 0x04, 0xf9, 0xde, 0xc6, 0x48, 0x1c, 0xfe, 0x33, 0x9e, 0x81, 0xd3,
0xfd, 0x2e, 0xe3, 0xef, 0x0a, 0xf8, 0xed, 0xeb, 0x37, 0x15, 0xff, 0x1f, 0x2e, 0x33, 0x2d, 0x08,
0x18, 0xfc, 0xef, 0xe6, 0x35, 0xf0, 0x00, 0xf6, 0x19, 0x1d, 0x03, 0x08, 0xd9, 0xf7, 0xf3, 0xe7,
0xeb, 0x11, 0x7e, 0x7f, 0xb6, 0xbb, 0xf3, 0x00, 0x20, 0x12, 0x13, 0x3b, 0xe7, 0xce, 0x8b, 0xcb,
0x08, 0xcd, 0x00, 0xdc, 0xc2, 0xce, 0x0d, 0x1c, 0x06, 0xf9, 0x1b, 0xe4, 0xd4, 0xee, 0x0c, 0xee,
0x46, 0x11, 0xf7, 0xe2, 0x72, 0x1f, 0x21, 0xfe, 0x11, 0x2f, 0x5b, 0xe3, 0x14, 0x45, 0x65, 0x20,
0xf0, 0x81, 0x11, 0x2d, 0xd6, 0x0a, 0x03, 0xe6, 0x10, 0xe5, 0x10, 0xd1, 0x20, 0xb1, 0xbf, 0x0b,
0x07, 0x40, 0xda, 0xe4, 0x20, 0x0d, 0x03, 0xf0, 0xfc, 0x28, 0x0d, 0x1b, 0xf5, 0xfa, 0xf4, 0xd8,
0x05, 0x2f, 0xe6, 0xfe, 0x24, 0xf7, 0xe5, 0xec, 0xf2, 0xf4, 0xfa, 0x0c, 0x1d, 0x05, 0x05, 0x00,
0xd5, 0x1a, 0xcf, 0x81, 0xe1, 0xbf, 0xcb, 0xe2, 0x15, 0xc9, 0xf3, 0xf1, 0xb2, 0x5b, 0x45, 0x0a,
0x56, 0x0b, 0xfe, 0x39, 0x25, 0xe9, 0x46, 0x52, 0xd2, 0x13, 0x17, 0x14, 0xf8, 0xdb, 0xff, 0x0a,
0xee, 0xc5, 0xf4, 0x13, 0xfb, 0x43, 0x0d, 0x13, 0x05, 0xf2, 0xdd, 0x26, 0x25, 0xcf, 0xf6, 0x29,
0x2a, 0xdb, 0x4e, 0x2f, 0x08, 0x3d, 0x11, 0xf1, 0xd8, 0x54, 0x0f, 0x81, 0x04, 0xca, 0xab, 0xf3,
0xc4, 0x49, 0xfd, 0xbb, 0xe2, 0x03, 0x04, 0xea, 0x36, 0xe8, 0xe5, 0xd1, 0x00, 0x26, 0x60, 0x22,
0x1f, 0x4d, 0xc4, 0xf4, 0x07, 0xcc, 0xe8, 0x14, 0x91, 0x02, 0xe8, 0x2f, 0x25, 0x08, 0xd5, 0xeb,
0xe8, 0xe8, 0x0a, 0xf6, 0x10, 0x15, 0x09, 0x00, 0x20, 0x81, 0x16, 0xcb, 0xff, 0x06, 0xfb, 0x10,
0xf8, 0x15, 0xfa, 0x11, 0x11, 0xdd, 0xf9, 0x09, 0x0b, 0x03, 0xfc, 0x0d, 0xe6, 0x17, 0xff, 0xf0,
0x0e, 0x19, 0xf4, 0xf1, 0xf3, 0xfe, 0x02, 0x08, 0xd4, 0xef, 0xf6, 0x2a, 0x01, 0x0d, 0xf8, 0xee,
0x10, 0xea, 0x3b, 0x15, 0x1d, 0xf1, 0x08, 0x14, 0xda, 0x81, 0x0a, 0xf6, 0xde, 0x30, 0x2d, 0xab,
0x04, 0xfb, 0x03, 0xf2, 0xdd, 0xc7, 0x05, 0x10, 0x1c, 0xf8, 0x05, 0xfa, 0xe5, 0xf2, 0x0d, 0x0c,
0x06, 0x2b, 0xeb, 0xe2, 0x23, 0x23, 0x09, 0x0e, 0x33, 0x16, 0x1c, 0x04, 0x29, 0xea, 0xfe, 0x06,
0xe4, 0x1a, 0xab, 0x9b, 0x05, 0x00, 0xc3, 0x0d, 0x19, 0x81, 0xd4, 0x1d, 0xd3, 0x08, 0x21, 0xd4,
0xf6, 0x0f, 0x1a, 0x28, 0x06, 0xcd, 0xee, 0xeb, 0x0c, 0xd1, 0xf0, 0x13, 0x1a, 0xf1, 0xe8, 0x11,
0x24, 0x04, 0xf8, 0xfb, 0xe7, 0x08, 0x08, 0xf1, 0x08, 0xc1, 0xe8, 0x10, 0x07, 0x13, 0xf8, 0x2d,
0xf7, 0xdf, 0x7f, 0x7c, 0xf7, 0xfa, 0x0b, 0xfa, 0x19, 0xef, 0xfa, 0x18, 0x19, 0xb7, 0xa5, 0xe7,
0x1e, 0x08, 0x16, 0x05, 0xf0, 0xf5, 0x02, 0xfc, 0x1f, 0xee, 0xd9, 0xf2, 0xea, 0x22, 0x1c, 0xde,
0x12, 0x27, 0x21, 0x16, 0xf1, 0x06, 0x0d, 0xfb, 0xfd, 0xd8, 0x14, 0x16, 0xf9, 0x27, 0x3a, 0x01,
0xe7, 0x91, 0x36, 0x35, 0x2a, 0x16, 0xff, 0x0d, 0x2e, 0x8c, 0x19, 0x9d, 0x15, 0xe5, 0xd4, 0x34,
0xea, 0x10, 0xee, 0xfa, 0x03, 0xe9, 0xd1, 0xd8, 0x09, 0x0a, 0xd0, 0xeb, 0xf2, 0xeb, 0xe5, 0xf3,
0xf6, 0x7f, 0xeb, 0x02, 0x16, 0xd2, 0xed, 0xf6, 0xb4, 0x08, 0xf8, 0x2e, 0xed, 0x0e, 0x01, 0xd0,
0x19, 0xf8, 0x14, 0x21, 0xf9, 0xfc, 0x0f, 0xfc, 0xe4, 0x7f, 0x05, 0xf5, 0x13, 0xda, 0xde, 0xf5,
0x04, 0x14, 0xef, 0xf3, 0xfa, 0x1a, 0xfe, 0xef, 0x12, 0x04, 0x02, 0x22, 0x0d, 0x15, 0x09, 0xfd,
0x04, 0xee, 0xf0, 0x01, 0x09, 0xde, 0xfb, 0xf3, 0x22, 0x05, 0x0a, 0xed, 0xf3, 0xf7, 0xfc, 0xfb,
0x48, 0x7f, 0xc2, 0xcb, 0x0c, 0x0e, 0xfe, 0x0e, 0xa4, 0x5f, 0xdf, 0x38, 0xf0, 0x29, 0x36, 0xc8,
0xec, 0xda, 0x1c, 0x06, 0xce, 0x0f, 0x08, 0xf2, 0xe7, 0xcf, 0x12, 0xf4, 0x39, 0x04, 0x34, 0x4b,
0xe8, 0xe0, 0xee, 0xfc, 0x10, 0xfd, 0x0f, 0x1d, 0x59, 0x3e, 0x0b, 0xce, 0xf5, 0xda, 0xe2, 0x07,
0x00, 0x00, 0x00, 0x00, 0x32, 0xf1, 0xff, 0xff, 0x04, 0x00, 0x00, 0x00, 0x80, 0x00, 0x00, 0x00,
0x00, 0x00, 0x00, 0x00, 0x00, 0x00, 0x00, 0x00, 0x00, 0x00, 0x00, 0x00, 0x00, 0x00, 0x00, 0x00,
0x00, 0x00, 0x00, 0x00, 0x00, 0x00, 0x00, 0x00, 0x00, 0x00, 0x00, 0x00, 0x00, 0x00, 0x00, 0x00,
0x00, 0x00, 0x00, 0x00, 0x00, 0x00, 0x00, 0x00, 0x00, 0x00, 0x00, 0x00, 0x00, 0x00, 0x00, 0x00,
0x00, 0x00, 0x00, 0x00, 0x00, 0x00, 0x00, 0x00, 0x00, 0x00, 0x00, 0x00, 0x00, 0x00, 0x00, 0x00,
0x00, 0x00, 0x00, 0x00, 0x00, 0x00, 0x00, 0x00, 0x00, 0x00, 0x00, 0x00, 0x00, 0x00, 0x00, 0x00,
0x00, 0x00, 0x00, 0x00, 0x00, 0x00, 0x00, 0x00, 0x00, 0x00, 0x00, 0x00, 0x00, 0x00, 0x00, 0x00,
0x00, 0x00, 0x00, 0x00, 0x00, 0x00, 0x00, 0x00, 0x00, 0x00, 0x00, 0x00, 0x00, 0x00, 0x00, 0x00,
0x00, 0x00, 0x00, 0x00, 0x00, 0x00, 0x00, 0x00, 0x00, 0x00, 0x00, 0x00, 0x00, 0x00, 0x00, 0x00,
0x00, 0x00, 0x00, 0x00, 0xc2, 0xf1, 0xff, 0xff, 0x04, 0x00, 0x00, 0x00, 0x00, 0x0c, 0x00, 0x00,
0xec, 0xed, 0x08, 0xf2, 0xed, 0x21, 0x40, 0xc8, 0xd4, 0x04, 0x04, 0x4a, 0xf5, 0x20, 0x29, 0xfa,
0xec, 0x07, 0xf6, 0x16, 0xfd, 0x30, 0xbe, 0x0e, 0x20, 0xe8, 0x7f, 0xe1, 0xeb, 0xe2, 0x12, 0x52,
0xe6, 0xee, 0x23, 0x40, 0xa6, 0xc6, 0xce, 0x33, 0xe9, 0xcb, 0x8d, 0xff, 0x27, 0xdf, 0x28, 0xf9,
0x47, 0x20, 0xf4, 0x03, 0x07, 0xea, 0x4c, 0x46, 0x16, 0xfa, 0x01, 0xf9, 0xca, 0x02, 0x01, 0xef,
0x23, 0x24, 0x2f, 0x9e, 0xe5, 0x34, 0x43, 0x30, 0xe0, 0xff, 0x04, 0x0e, 0xf4, 0x0c, 0xc8, 0x3d,
0xd8, 0xf5, 0xfb, 0x03, 0xe4, 0xd7, 0x13, 0xe6, 0xff, 0xfe, 0xb6, 0x1c, 0x0b, 0x30, 0xf3, 0xcf,
0x06, 0x02, 0xef, 0x7f, 0xce, 0xc6, 0xff, 0x05, 0x14, 0xe8, 0xeb, 0xe1, 0xf7, 0x07, 0xeb, 0x04,
0x1b, 0xf0, 0xed, 0xef, 0x30, 0x3b, 0x30, 0xe9, 0x18, 0x11, 0x19, 0xfc, 0x3f, 0x20, 0x15, 0xd4,
0x16, 0x0e, 0xed, 0xf4, 0xf9, 0x09, 0x15, 0x0b, 0x0f, 0xd8, 0x09, 0xda, 0x00, 0xfb, 0xfb, 0x04,
0x1d, 0x11, 0xf5, 0xf5, 0x02, 0xf3, 0x11, 0xfa, 0x03, 0x04, 0xfe, 0x1c, 0x0a, 0x20, 0xf6, 0xef,
0x40, 0x08, 0x42, 0xe4, 0x0c, 0x03, 0xbf, 0x0c, 0x04, 0x05, 0x19, 0xeb, 0x37, 0x11, 0xe9, 0x00,
0x26, 0x1a, 0xc6, 0xf7, 0xec, 0xdd, 0xf5, 0x03, 0x02, 0xfc, 0x3a, 0x1b, 0xfc, 0xfd, 0x10, 0x1a,
0xee, 0xf2, 0xf6, 0x07, 0x08, 0x06, 0x29, 0xfb, 0xfe, 0x10, 0xf7, 0x07, 0x18, 0xfa, 0x0d, 0xf8,
0xeb, 0xfd, 0x34, 0x0f, 0x18, 0x06, 0x0b, 0xec, 0x0b, 0xe2, 0xff, 0x02, 0xf4, 0xf6, 0x13, 0x18,
0x27, 0xeb, 0x03, 0x2c, 0xf8, 0x00, 0xde, 0x06, 0x0e, 0x16, 0xd8, 0xed, 0x25, 0xd7, 0xe4, 0x03,
0x12, 0x08, 0x1e, 0x00, 0xf3, 0xf1, 0x0c, 0x0e, 0x00, 0x01, 0x03, 0x0d, 0xe2, 0x05, 0x0a, 0xf9,
0xcd, 0x13, 0x1f, 0x05, 0x10, 0x08, 0x27, 0xda, 0xfd, 0x23, 0x08, 0x0c, 0xd7, 0x11, 0x26, 0x25,
0xd7, 0xec, 0x7f, 0x1d, 0xeb, 0x18, 0xe9, 0xf3, 0xe8, 0x0a, 0xe2, 0x03, 0xeb, 0x22, 0xe6, 0xf6,
0x10, 0xd8, 0x19, 0x81, 0x28, 0x6e, 0xf3, 0x12, 0x5a, 0x19, 0x26, 0xbf, 0x29, 0xdc, 0xf5, 0x1c,
0x1d, 0x43, 0x3c, 0x19, 0xd5, 0xc0, 0xd8, 0xf2, 0x0c, 0x26, 0xf9, 0x4a, 0xb7, 0xe5, 0xf9, 0x22,
0xef, 0xef, 0x0f, 0xf7, 0x17, 0x00, 0xff, 0xd0, 0xfc, 0xe4, 0x0d, 0x05, 0x09, 0x22, 0x13, 0xf7,
0x1c, 0x1f, 0x0c, 0x1c, 0x00, 0x11, 0xf1, 0x0f, 0x02, 0x09, 0xfe, 0x0d, 0xe4, 0xf9, 0x01, 0x2a,
0xd1, 0xd3, 0xcc, 0x12, 0x09, 0x02, 0x0b, 0xcd, 0xd6, 0x08, 0xe7, 0x30, 0xf2, 0x20, 0x23, 0x07,
0x10, 0xf7, 0x13, 0x1a, 0x06, 0x25, 0xe4, 0xf7, 0x08, 0xed, 0xf0, 0xe5, 0xd5, 0xbe, 0x06, 0x31,
0xe5, 0x2b, 0x08, 0x6a, 0x97, 0xbf, 0x2a, 0x2e, 0xdb, 0xd7, 0x81, 0x21, 0xec, 0x28, 0xf4, 0x36,
0xf1, 0xd1, 0xfb, 0x19, 0x23, 0x06, 0x7b, 0xea, 0x20, 0x17, 0x01, 0xdc, 0xf9, 0x69, 0x06, 0xb1,
0x0b, 0xf8, 0x0c, 0xc8, 0x19, 0x37, 0x09, 0x10, 0x0c, 0x2e, 0x1b, 0xe8, 0xe8, 0xf3, 0x08, 0x15,
0xf3, 0xff, 0x09, 0x1b, 0xe9, 0xd9, 0xdb, 0xf9, 0xf9, 0x01, 0xd5, 0x04, 0xf4, 0x26, 0x04, 0xfb,
0x1e, 0xf9, 0x23, 0x0f, 0xfb, 0x0a, 0xfc, 0x00, 0x2c, 0xec, 0x02, 0xd8, 0xfd, 0xf6, 0xf8, 0xf8,
0x13, 0x0d, 0xd7, 0xf3, 0xef, 0x09, 0xfe, 0x10, 0xf4, 0x15, 0x3d, 0x1e, 0x21, 0x03, 0xf1, 0xf1,
0xfe, 0x14, 0xd9, 0x74, 0x20, 0xd8, 0xe4, 0x05, 0x5a, 0x4b, 0xed, 0x81, 0xe9, 0xd0, 0xde, 0x1a,
0x07, 0x13, 0xc2, 0xfe, 0x04, 0x34, 0xd6, 0xd7, 0x1b, 0x2f, 0x10, 0xff, 0x7b, 0x24, 0x1e, 0xd1,
0x36, 0x0b, 0xee, 0x0e, 0x21, 0x30, 0x0c, 0xeb, 0x4f, 0xe5, 0x11, 0xa8, 0xe9, 0xd6, 0xf1, 0x15,
0x04, 0x11, 0xf4, 0xe4, 0xe0, 0x36, 0xeb, 0xe2, 0x18, 0x2c, 0x36, 0x3c, 0x0d, 0x42, 0xdd, 0xdb,
0x38, 0xed, 0x02, 0x2f, 0xfa, 0xd6, 0x84, 0x1d, 0x1e, 0xcb, 0xd3, 0xf1, 0x3d, 0x10, 0x04, 0xd0,
0x7d, 0x2b, 0xcc, 0xdb, 0x2f, 0x18, 0x2f, 0x3c, 0xe6, 0xeb, 0x18, 0x2f, 0xe4, 0xf6, 0x28, 0x27,
0xe8, 0x30, 0xf5, 0x7f, 0x99, 0xac, 0x2d, 0x19, 0x03, 0xd9, 0xc2, 0x0b, 0xda, 0x1b, 0x12, 0x1b,
0xf5, 0xdf, 0xff, 0x06, 0x3c, 0x18, 0x55, 0xe3, 0x10, 0x15, 0xec, 0xea, 0x17, 0x51, 0x12, 0xb3,
0x07, 0xfc, 0x16, 0xd6, 0x07, 0x1b, 0x1a, 0x01, 0x0e, 0x0b, 0x1a, 0xf8, 0xfd, 0x08, 0x03, 0x11,
0x02, 0x0b, 0x10, 0xfa, 0xdf, 0x0f, 0xed, 0xfb, 0xe9, 0xfd, 0xe0, 0x24, 0xfb, 0x07, 0xf1, 0x09,
0x11, 0xf3, 0xf4, 0xd7, 0xef, 0x19, 0xd9, 0x12, 0x10, 0xe9, 0x1f, 0xe6, 0x27, 0x05, 0xf4, 0xe5,
0xf9, 0x23, 0xca, 0x19, 0x16, 0xee, 0x00, 0x14, 0x22, 0x0b, 0x1e, 0x07, 0x04, 0xf9, 0x0f, 0x24,
0x10, 0xd3, 0x1c, 0x81, 0x19, 0x67, 0xf8, 0x02, 0x51, 0xfd, 0x24, 0xca, 0x3d, 0xdb, 0xe8, 0x39,
0x1e, 0x49, 0x24, 0x22, 0x0d, 0xc5, 0xf9, 0x1b, 0x0a, 0x29, 0x0f, 0x50, 0xc6, 0xd8, 0x04, 0x21,
0xe3, 0xd0, 0x07, 0xd7, 0xf7, 0x2c, 0x0e, 0xd1, 0x13, 0xdd, 0x1c, 0x06, 0x1b, 0x39, 0xff, 0x1d,
0x2a, 0x3a, 0x01, 0x0f, 0x18, 0x0f, 0xf7, 0xfe, 0x0b, 0xfc, 0x3a, 0x0d, 0xf0, 0xee, 0x0a, 0x42,
0xc4, 0xb5, 0xda, 0x0a, 0xed, 0x13, 0x2e, 0xd6, 0xda, 0xd7, 0xd5, 0x16, 0x08, 0x38, 0x20, 0x21,
0x2f, 0x31, 0x1f, 0x15, 0x18, 0x2b, 0xf8, 0x35, 0xfa, 0x03, 0x31, 0xee, 0xa8, 0xe2, 0x0a, 0x42,
0xe8, 0xc0, 0x29, 0x06, 0x0a, 0x11, 0xee, 0x00, 0x5b, 0x2d, 0xec, 0xc7, 0x44, 0x81, 0x26, 0x11,
0x40, 0x15, 0x68, 0xf0, 0xd8, 0xdf, 0xdd, 0x45, 0xc9, 0x11, 0xd9, 0x50, 0x81, 0xc8, 0x02, 0x06,
0x04, 0xfa, 0xe1, 0xfa, 0x6e, 0xf4, 0x0f, 0xab, 0xe3, 0x13, 0x48, 0x0a, 0xe1, 0xeb, 0x2f, 0xee,
0x1e, 0xfa, 0x0e, 0xe6, 0xdd, 0xfb, 0xd3, 0xe8, 0xc5, 0xd0, 0xb4, 0x08, 0xf9, 0xd0, 0x03, 0xfb,
0xe2, 0xfc, 0x20, 0x55, 0xed, 0x98, 0x1b, 0xcd, 0x88, 0xfd, 0xe1, 0x74, 0xf0, 0x27, 0x16, 0x15,
0xf0, 0xce, 0x02, 0x20, 0x4c, 0x21, 0x39, 0xda, 0xfe, 0xae, 0x03, 0xb7, 0x37, 0xe9, 0x0c, 0x08,
0xd7, 0xea, 0xd0, 0x44, 0x88, 0xd0, 0x06, 0x25, 0xf8, 0xe2, 0x9a, 0xfd, 0x18, 0x36, 0xf0, 0xe8,
0xe8, 0x17, 0xc9, 0x22, 0xea, 0xcc, 0x2f, 0x15, 0x0c, 0x2d, 0xae, 0x01, 0xdc, 0xe6, 0xed, 0xe8,
0x2d, 0xea, 0x0e, 0xb6, 0x14, 0x3c, 0x8e, 0x3a, 0x02, 0xb8, 0x5a, 0xe0, 0x4b, 0xe0, 0x0a, 0x0f,
0x5f, 0x2d, 0xd8, 0xe9, 0xdd, 0xef, 0x1b, 0x04, 0xf0, 0x01, 0x30, 0x48, 0xeb, 0x14, 0xf9, 0x16,
0xea, 0x27, 0x07, 0x3a, 0xf0, 0xf7, 0xf2, 0xdf, 0xdc, 0xd5, 0xd6, 0xea, 0xd3, 0x5b, 0x03, 0x5d,
0x0e, 0x2d, 0x17, 0x4c, 0x7f, 0x08, 0x2b, 0xe0, 0x1a, 0x1c, 0x22, 0x15, 0x22, 0x66, 0x43, 0xea,
0xd2, 0x09, 0xe4, 0xdd, 0x0d, 0x2c, 0x17, 0x09, 0xe4, 0x18, 0x33, 0x15, 0xe9, 0x29, 0x33, 0x0e,
0x9d, 0xe2, 0x17, 0x7f, 0x34, 0xdb, 0xf8, 0xea, 0x0b, 0x24, 0xe7, 0xca, 0xde, 0x1d, 0x11, 0x2d,
0x07, 0xba, 0x1a, 0x46, 0x09, 0xc7, 0xb6, 0x09, 0x1a, 0x03, 0xa4, 0xe0, 0x2d, 0xcd, 0x3e, 0xf6,
0x60, 0x2e, 0xf9, 0xd6, 0xdc, 0xcc, 0x16, 0x44, 0xb1, 0x13, 0xc2, 0x2e, 0xb4, 0xa3, 0xf6, 0xed,
0xf7, 0xcc, 0x11, 0x0f, 0x3f, 0xe0, 0xf1, 0xe2, 0xde, 0xde, 0x32, 0xf7, 0xe6, 0x15, 0x52, 0x06,
0x43, 0x31, 0xdf, 0xf2, 0x15, 0x01, 0x00, 0x09, 0xcb, 0xe8, 0x04, 0xfb, 0xf7, 0x04, 0x12, 0x3a,
0x0b, 0x29, 0xe9, 0xd3, 0xee, 0x0c, 0xd4, 0x53, 0x04, 0x09, 0x1e, 0xfb, 0xea, 0xfc, 0xcc, 0xd0,
0x9d, 0xd1, 0xee, 0xe0, 0xf6, 0xe7, 0x03, 0xb8, 0x21, 0x0a, 0xba, 0xe3, 0x20, 0x2e, 0x1a, 0xe3,
0x0d, 0xc7, 0x28, 0xf9, 0x43, 0x14, 0x14, 0xae, 0x1b, 0x24, 0xf5, 0x0b, 0x31, 0xcc, 0x32, 0x3a,
0x04, 0x0a, 0x51, 0xfd, 0xda, 0x14, 0xc7, 0x27, 0xd4, 0xf7, 0x39, 0x28, 0xd2, 0xd8, 0xf9, 0x4d,
0xb9, 0xe9, 0xd4, 0x7f, 0xcb, 0xb9, 0x21, 0xc4, 0xf1, 0x9e, 0xc5, 0xfc, 0xcd, 0x2f, 0x38, 0x1e,
0x1b, 0xff, 0x3d, 0x0f, 0x2c, 0x54, 0xfe, 0x0f, 0xff, 0x0d, 0x17, 0xee, 0xf3, 0x1c, 0xfd, 0xf9,
0xfb, 0x13, 0xfb, 0x4a, 0xf4, 0xdd, 0xf4, 0x1a, 0x42, 0x24, 0xf4, 0x85, 0xc4, 0xd3, 0xf6, 0x39,
0x0b, 0x0a, 0xd7, 0x1c, 0x27, 0x2e, 0x00, 0xeb, 0x08, 0x30, 0x04, 0x03, 0x53, 0x1a, 0x14, 0xd0,
0x19, 0x05, 0x0c, 0x1e, 0xff, 0x06, 0xf3, 0xd9, 0x25, 0xfe, 0xe9, 0xd9, 0xe3, 0xf5, 0x0e, 0x07,
0x11, 0x0a, 0x0f, 0xef, 0xdf, 0x30, 0xe1, 0xef, 0x05, 0x1c, 0x46, 0x2e, 0x12, 0x1f, 0xf7, 0xe4,
0xec, 0xf6, 0xcb, 0xf6, 0x02, 0xf3, 0x81, 0x1e, 0x13, 0xd5, 0x0b, 0xfc, 0x43, 0x10, 0x0d, 0xb2,
0x66, 0x0d, 0xcf, 0xdb, 0xfb, 0xdf, 0x11, 0x2a, 0xf8, 0xe5, 0xec, 0x04, 0xb6, 0xe7, 0x1a, 0x1d,
0xe7, 0x12, 0xda, 0xed, 0xd3, 0x15, 0x31, 0xf3, 0x0d, 0xdd, 0xf4, 0x13, 0xcd, 0x16, 0x1f, 0xf9,
0x9b, 0xeb, 0x77, 0x4a, 0x19, 0xfc, 0xf1, 0xf5, 0x24, 0x0f, 0xd9, 0xf6, 0xde, 0x30, 0x07, 0x0e,
0xfc, 0xcd, 0xdf, 0x6d, 0xe8, 0xce, 0x81, 0x17, 0x30, 0xef, 0xb5, 0xef, 0x29, 0xc5, 0x11, 0xb5,
0x32, 0x1b, 0xfa, 0xe3, 0xf0, 0xde, 0x03, 0x44, 0xed, 0x0a, 0xca, 0xf0, 0xaa, 0xd7, 0xe6, 0xec,
0xf6, 0xee, 0xcc, 0xf7, 0x22, 0xe5, 0xf8, 0x06, 0xf2, 0xe6, 0x0c, 0x01, 0xf6, 0xff, 0x2c, 0xd4,
0x2e, 0x00, 0xf9, 0xde, 0x03, 0x16, 0x12, 0x05, 0xfb, 0xe5, 0x04, 0x06, 0xcf, 0xe6, 0x08, 0x32,
0x11, 0xeb, 0xd1, 0xd7, 0x24, 0x38, 0x16, 0xd3, 0x0c, 0x07, 0x43, 0x02, 0x0d, 0xdc, 0xf4, 0xe9,
0xf5, 0xfd, 0x12, 0xf8, 0xee, 0x17, 0xc2, 0xf7, 0x23, 0xfb, 0x14, 0x2c, 0xd6, 0xf0, 0x02, 0x37,
0xed, 0xee, 0x34, 0x5d, 0xd3, 0xcf, 0x0f, 0xf3, 0x13, 0xb1, 0xb0, 0xe7, 0x26, 0xf2, 0x19, 0x27,
0x3d, 0x1c, 0x3e, 0xf7, 0x12, 0x1f, 0x0d, 0x30, 0x03, 0x06, 0x32, 0x29, 0xeb, 0x08, 0xfa, 0xfe,
0xd2, 0x22, 0xee, 0xc1, 0xc3, 0x2a, 0x2c, 0x3d, 0x03, 0x25, 0xe2, 0x05, 0xe4, 0x0a, 0x09, 0x15,
0xbe, 0x01, 0x4c, 0x47, 0x21, 0xaf, 0x1a, 0xfd, 0x0d, 0x2f, 0x81, 0xf4, 0xfd, 0x2a, 0x16, 0xbf,
0xf8, 0x27, 0xfb, 0x2d, 0xcc, 0xf5, 0x1a, 0x18, 0xe2, 0xff, 0xb4, 0x26, 0xf7, 0x2a, 0x03, 0x29,
0xf3, 0xda, 0xfb, 0x27, 0x15, 0xd5, 0x33, 0xe1, 0x23, 0xec, 0x10, 0xc6, 0xf2, 0x3b, 0x20, 0xd3,
0xf0, 0x06, 0x1c, 0x81, 0x15, 0x52, 0x10, 0x30, 0xef, 0x2d, 0x0c, 0xf5, 0xf9, 0xe7, 0x0d, 0x38,
0xca, 0xf7, 0x1d, 0x28, 0xf3, 0xbb, 0x08, 0xfb, 0xed, 0x08, 0xe7, 0x09, 0xde, 0x22, 0x11, 0x06,
0x21, 0xf2, 0xe2, 0x10, 0x31, 0x09, 0xe6, 0xda, 0x3e, 0x1b, 0x30, 0xc6, 0xe6, 0xe7, 0xf2, 0xf1,
0x0e, 0x11, 0x09, 0xf2, 0xfd, 0x1c, 0xde, 0x14, 0xf5, 0x2f, 0x00, 0x26, 0x22, 0xf3, 0xf9, 0xf9,
0x0b, 0x0a, 0x2b, 0x0d, 0xdc, 0xe9, 0x0c, 0x15, 0xd3, 0xd4, 0xb3, 0x2c, 0x3b, 0x1d, 0x02, 0x1f,
0x1e, 0xfc, 0x08, 0xbb, 0xdd, 0xea, 0x23, 0x19, 0xee, 0xe7, 0x1e, 0xfd, 0xc8, 0x01, 0xec, 0x0d,
0xda, 0x13, 0xdf, 0x81, 0x0c, 0x4d, 0x10, 0x51, 0xdc, 0x05, 0x19, 0x0f, 0xe9, 0x1f, 0x17, 0x22,
0xb4, 0x02, 0x0f, 0x58, 0x31, 0xc0, 0x01, 0xf0, 0x17, 0xfb, 0xd1, 0xe2, 0xe7, 0x18, 0x22, 0x1d,
0x0a, 0xe0, 0x25, 0x1f, 0x43, 0xea, 0xb9, 0xd0, 0x31, 0x42, 0x1e, 0xcf, 0xff, 0xa4, 0x0c, 0xe2,
0x1a, 0x03, 0x29, 0xda, 0xea, 0x12, 0xd5, 0x09, 0xb6, 0x21, 0xd2, 0x34, 0x25, 0xfb, 0xe5, 0xdc,
0xfe, 0x02, 0xf0, 0x35, 0xfb, 0xf0, 0x07, 0x00, 0x40, 0x30, 0x0e, 0x9f, 0xea, 0xcb, 0xd6, 0x28,
0xfe, 0xf9, 0xf5, 0x16, 0x23, 0x2d, 0xf1, 0xf5, 0x1c, 0x34, 0x2c, 0x0d, 0x65, 0x19, 0x16, 0xdd,
0x0e, 0x13, 0x16, 0x23, 0x17, 0x05, 0x18, 0xe5, 0x1f, 0x01, 0xfc, 0xd6, 0xf9, 0xdf, 0xe7, 0xfb,
0x0a, 0xfb, 0xfe, 0xf1, 0xe7, 0x1b, 0xd7, 0x0b, 0x0a, 0x17, 0x55, 0x0a, 0x10, 0x05, 0xf3, 0xfc,
0xf9, 0xdc, 0xc4, 0x02, 0xf0, 0xfe, 0x81, 0x2d, 0xfa, 0xf4, 0x0c, 0xed, 0x3b, 0x06, 0x03, 0xae,
0x55, 0x1f, 0xd0, 0xf3, 0xf6, 0xe9, 0x01, 0x21, 0xff, 0xfb, 0x0b, 0xf7, 0xd2, 0xdb, 0x04, 0x1b,
0x01, 0xf0, 0x36, 0xd0, 0x2a, 0x37, 0x03, 0xf0, 0x0c, 0x21, 0x3c, 0x0c, 0x13, 0xfb, 0x11, 0x32,
0xf1, 0x07, 0x44, 0x2c, 0x0f, 0xe5, 0xe6, 0xfe, 0xfb, 0x06, 0x12, 0xff, 0xb4, 0x04, 0xf8, 0x37,
0x0e, 0xf7, 0x1d, 0x73, 0xd3, 0xf2, 0xf9, 0x1a, 0x13, 0xd0, 0xb0, 0xfa, 0x0b, 0xf9, 0xe1, 0x03,
0x25, 0x01, 0x0c, 0xd6, 0xe1, 0xf3, 0x15, 0x07, 0xff, 0x2d, 0x02, 0xf4, 0xe4, 0x23, 0xf7, 0xc6,
0xe4, 0xe9, 0xe2, 0x49, 0xbc, 0xda, 0xf7, 0x18, 0x0d, 0x81, 0xca, 0xf4, 0x04, 0x0d, 0x0d, 0x0b,
0x39, 0x03, 0x2c, 0xc8, 0xf6, 0x18, 0x34, 0x1f, 0x09, 0x11, 0x27, 0x1a, 0xd7, 0xfb, 0xe8, 0xdd,
0xe6, 0x0d, 0xd8, 0x7f, 0xb4, 0xbb, 0x22, 0x05, 0x03, 0xd1, 0xb4, 0xfa, 0xeb, 0x02, 0x06, 0x12,
0xf9, 0xe3, 0x05, 0x03, 0x18, 0x23, 0x46, 0xe6, 0x1b, 0x17, 0xf8, 0xe2, 0x01, 0x31, 0x10, 0xc7,
0x0e, 0xf9, 0x20, 0xdd, 0x0c, 0x1f, 0x17, 0xf5, 0x1a, 0x10, 0x0a, 0xf9, 0xf8, 0xfd, 0xe7, 0x0f,
0x00, 0x05, 0x0d, 0xe6, 0xe2, 0x0d, 0xe4, 0x1f, 0xe9, 0x0d, 0xfd, 0x0b, 0x04, 0xf6, 0xdf, 0xf9,
0x16, 0xf7, 0xe8, 0xcb, 0xf7, 0x29, 0xe3, 0x30, 0x0b, 0xf5, 0x1f, 0xef, 0x06, 0xf6, 0xf7, 0xda,
0x02, 0x24, 0xe5, 0x22, 0x09, 0xec, 0xe8, 0x08, 0x2f, 0x10, 0x18, 0xfd, 0x02, 0xff, 0xf9, 0x20,
0x02, 0xbc, 0x02, 0xe2, 0x40, 0x16, 0xed, 0xdc, 0xee, 0x1d, 0x39, 0x18, 0x09, 0xeb, 0x2c, 0xe1,
0x34, 0x34, 0xb3, 0xf7, 0xe2, 0x17, 0xc1, 0x14, 0xea, 0xe4, 0x0c, 0x0b, 0xf2, 0x81, 0xef, 0x4d,
0x0b, 0xe7, 0x28, 0x0e, 0xfd, 0xf1, 0xf2, 0x16, 0xd8, 0x07, 0xec, 0xff, 0x18, 0x0a, 0x15, 0x32,
0x34, 0xf5, 0xaf, 0x12, 0x3e, 0xfb, 0x40, 0xed, 0xe0, 0xe8, 0x0b, 0xfc, 0x0d, 0xf5, 0x1c, 0xf1,
0x3d, 0x1e, 0x47, 0x00, 0x23, 0x24, 0x03, 0xe1, 0xea, 0x1d, 0x1c, 0x09, 0x00, 0xf4, 0xa1, 0x4d,
0x01, 0xf6, 0xc1, 0xec, 0xed, 0xef, 0x02, 0xdf, 0xd9, 0x01, 0x27, 0x0b, 0x2f, 0x0f, 0xef, 0xd8,
0x06, 0x0f, 0x01, 0x7f, 0xb0, 0xa6, 0x02, 0xf5, 0x06, 0xbd, 0x96, 0x0f, 0x0e, 0x1d, 0x05, 0xe2,
0x37, 0xf4, 0xfc, 0xbb, 0xf6, 0x48, 0x43, 0x0a, 0xfe, 0xfa, 0x22, 0xec, 0xfb, 0x16, 0xf6, 0xf7,
0x00, 0x08, 0xe4, 0xc6, 0x1d, 0x5e, 0x25, 0x24, 0x1d, 0x2a, 0x04, 0xf1, 0xe9, 0xe8, 0xf6, 0x01,
0xf3, 0x0e, 0xfe, 0x11, 0x14, 0xec, 0x06, 0xf5, 0x09, 0x1f, 0xfc, 0xec, 0xe6, 0x1d, 0x11, 0x14,
0x53, 0xff, 0x48, 0xec, 0x34, 0x30, 0xe2, 0x23, 0x21, 0xfe, 0x15, 0xd8, 0x07, 0xda, 0xc8, 0xf6,
0x2d, 0x20, 0xba, 0xe5, 0xe0, 0xf5, 0xd7, 0x03, 0x10, 0x2d, 0x3f, 0x0b, 0x14, 0x0a, 0xd6, 0x00,
0x06, 0xf5, 0x17, 0x17, 0xf7, 0xfb, 0x01, 0x16, 0x1f, 0xd1, 0xe0, 0xe4, 0xf8, 0xef, 0xf2, 0x2b,
0x14, 0x13, 0x1c, 0xee, 0xfe, 0xed, 0x1c, 0x06, 0xf9, 0x07, 0xf1, 0x1a, 0xfc, 0x04, 0xf6, 0xf4,
0xfd, 0xfd, 0xec, 0x04, 0x17, 0xf4, 0x09, 0xde, 0xf8, 0xfc, 0x07, 0x0f, 0xe8, 0x10, 0x08, 0xed,
0x10, 0xfd, 0x01, 0xef, 0xfa, 0x10, 0xe9, 0x08, 0xf2, 0xf8, 0xfd, 0xfc, 0x19, 0xe1, 0x02, 0x0d,
0xf3, 0xd1, 0xf3, 0xee, 0x05, 0x0c, 0x0a, 0xd6, 0xe6, 0x31, 0x2a, 0x32, 0x22, 0x08, 0x24, 0xd2,
0x0e, 0x0e, 0x02, 0x0c, 0xf1, 0x0d, 0xcf, 0x11, 0x07, 0xd3, 0x04, 0xe0, 0xf0, 0x81, 0x04, 0x4a,
0x17, 0x93, 0xea, 0xe3, 0x65, 0xff, 0xfa, 0xd0, 0xdc, 0xf9, 0x61, 0x23, 0x10, 0xed, 0x2a, 0xf8,
0x50, 0x3d, 0xb1, 0xfb, 0xc5, 0x1c, 0xb2, 0x2b, 0xe0, 0xda, 0x1d, 0x07, 0xdf, 0x81, 0xf7, 0x60,
0xfe, 0xf0, 0x35, 0x02, 0xf7, 0xdb, 0xee, 0x0f, 0xc2, 0x1d, 0x04, 0x07, 0x14, 0xf1, 0x0b, 0x3b,
0x31, 0x0e, 0xac, 0x13, 0x4d, 0xfb, 0x4e, 0x01, 0xe1, 0xec, 0x19, 0xf0, 0x21, 0xf9, 0x26, 0x0d,
0x5a, 0x10, 0x55, 0xe7, 0x37, 0x2c, 0x02, 0xf1, 0xee, 0x38, 0x3c, 0x05, 0x06, 0xf8, 0xa3, 0x6f,
0x0f, 0x08, 0xa7, 0xce, 0xed, 0x0b, 0x07, 0xe6, 0xd1, 0x0e, 0x28, 0x13, 0x52, 0x2e, 0xfb, 0xd6,
0xde, 0x3b, 0xe5, 0x7f, 0x9c, 0xce, 0x0e, 0x36, 0xdc, 0xcd, 0x97, 0x20, 0xf0, 0x1f, 0xff, 0x1a,
0xd9, 0xc0, 0xfd, 0x0a, 0x2d, 0xf9, 0x73, 0xea, 0x33, 0x08, 0x14, 0xcf, 0x06, 0x6d, 0x17, 0xb7,
0x0c, 0x10, 0x12, 0xda, 0x22, 0x4a, 0x2e, 0x34, 0xf9, 0x03, 0xec, 0x01, 0xf2, 0xdc, 0xfb, 0x36,
0xe8, 0x0d, 0x2b, 0x17, 0xcc, 0xd0, 0xf8, 0x04, 0xf7, 0x37, 0xb8, 0x06, 0xeb, 0x3a, 0xe8, 0xd8,
0x3b, 0x02, 0x1c, 0x0c, 0x0a, 0x0d, 0x07, 0xe5, 0x42, 0xf7, 0x02, 0xd2, 0xe4, 0x05, 0xf1, 0xfd,
0x05, 0x31, 0xde, 0xe8, 0xfc, 0x11, 0xf6, 0xff, 0xfd, 0x2c, 0x33, 0xfe, 0x22, 0x0b, 0xe7, 0xf5,
0xec, 0xcc, 0x22, 0xdb, 0xfb, 0x23, 0xec, 0x1b, 0x60, 0x18, 0xdf, 0xc5, 0x1e, 0x98, 0x0a, 0x58,
0x45, 0x3e, 0x4e, 0x29, 0x01, 0xa5, 0x16, 0x12, 0x06, 0x1c, 0xde, 0x4f, 0x81, 0xfb, 0xeb, 0xfc,
0xfe, 0xd9, 0xf3, 0x0e, 0x6c, 0xfe, 0x01, 0xb0, 0xf8, 0x13, 0x14, 0x20, 0xe1, 0xf9, 0x4d, 0xf9,
0x0b, 0xef, 0xec, 0xe1, 0xe0, 0x1f, 0xc3, 0x11, 0xa7, 0xe4, 0xf5, 0xff, 0xf2, 0xd1, 0xed, 0x06,
0xbe, 0xb6, 0x17, 0x05, 0x18, 0xde, 0x06, 0xb9, 0xbd, 0x57, 0xe3, 0x74, 0x09, 0xd8, 0x4d, 0x05,
0x06, 0xdc, 0x19, 0x1d, 0x10, 0x16, 0x05, 0x37, 0xd1, 0xc8, 0x07, 0xb4, 0xd7, 0x97, 0x0d, 0x46,
0xcc, 0x13, 0xe3, 0xc1, 0x81, 0x15, 0x3b, 0x2d, 0xed, 0xe4, 0x91, 0x32, 0x32, 0x22, 0xf6, 0x09,
0xd5, 0x09, 0x1a, 0x4b, 0x00, 0xa8, 0x18, 0x02, 0x56, 0xea, 0xcc, 0x0c, 0xc1, 0xf6, 0x09, 0x1a,
0x06, 0xfb, 0xd8, 0xa1, 0x4f, 0x3e, 0xdc, 0x0e, 0xb0, 0xfd, 0x3b, 0x15, 0xe3, 0x03, 0x2e, 0xf3,
0x01, 0x11, 0xf6, 0x0f, 0xd2, 0xfe, 0x9e, 0xfa, 0x1b, 0xd2, 0xfd, 0xf8, 0xcc, 0xe7, 0xe3, 0x5a,
0xf6, 0x4c, 0x1a, 0x0f, 0xd3, 0x0b, 0x36, 0x27, 0xd9, 0x0d, 0xa5, 0x15, 0xc8, 0x07, 0x05, 0x1e,
0xf4, 0xdf, 0x00, 0x0d, 0x1e, 0xe4, 0x3f, 0xf6, 0xfb, 0x09, 0xc6, 0xde, 0x1d, 0x37, 0x01, 0xd1,
0x21, 0x37, 0xcd, 0x81, 0x3a, 0x1f, 0xe5, 0x11, 0xee, 0x14, 0x4a, 0x04, 0xdd, 0x22, 0x00, 0x87,
0x81, 0xed, 0xda, 0x18, 0xe9, 0x05, 0xe6, 0xea, 0x28, 0xfe, 0xec, 0xf8, 0x1c, 0x01, 0xf5, 0x39,
0xcd, 0xc3, 0x27, 0x38, 0x37, 0xe8, 0xfa, 0xa3, 0x38, 0x5b, 0x9e, 0x12, 0x19, 0xac, 0x25, 0x0a,
0x10, 0x09, 0x2d, 0xec, 0xea, 0x01, 0xc6, 0x40, 0xbf, 0x01, 0x08, 0x12, 0xc3, 0xb1, 0xe7, 0x3e,
0xef, 0xc9, 0xb4, 0x10, 0x1c, 0xe0, 0xf5, 0x04, 0x09, 0xf5, 0x3f, 0x08, 0x01, 0x07, 0x26, 0xe7,
0x57, 0xe4, 0xf5, 0xdd, 0xfd, 0x2d, 0xf4, 0xf7, 0xf0, 0xdc, 0x08, 0xe9, 0x03, 0xea, 0x0d, 0x10,
0xff, 0xad, 0x21, 0x0f, 0xfb, 0x1f, 0x2b, 0xc9, 0xf3, 0x04, 0xd1, 0x32, 0x0d, 0x17, 0x36, 0x1c,
0x2e, 0x1f, 0xea, 0x20, 0xf9, 0x26, 0xc0, 0x27, 0xfa, 0xda, 0x7f, 0x02, 0xc8, 0xc8, 0x06, 0x74,
0xd7, 0xfd, 0xe9, 0x24, 0xc8, 0xd0, 0xf8, 0x22, 0xd8, 0xd5, 0xcc, 0x1b, 0xf6, 0x1d, 0x0f, 0xf5,
0x4b, 0xff, 0xd8, 0xe6, 0x2f, 0x24, 0x3d, 0x19, 0x01, 0xef, 0x18, 0xd5, 0x0e, 0xed, 0x1b, 0xe8,
0x21, 0x2f, 0x61, 0xb2, 0x02, 0x33, 0x1b, 0x69, 0x02, 0x24, 0xf3, 0x01, 0x0e, 0xf5, 0xbb, 0x46,
0xf8, 0x0f, 0xf3, 0x1e, 0x05, 0x9f, 0x1a, 0xf0, 0xec, 0x24, 0xe1, 0xf1, 0xf7, 0x39, 0x07, 0xc7,
0xfc, 0xfe, 0x13, 0x1d, 0x18, 0xe3, 0xe2, 0xec, 0x00, 0x23, 0x1d, 0xf0, 0xfe, 0xef, 0xfc, 0x03,
0xf4, 0xf3, 0xf2, 0x0e, 0x39, 0x26, 0x18, 0xf7, 0xf2, 0x16, 0x23, 0xe9, 0x5e, 0x21, 0x14, 0xdc,
0x2d, 0x0e, 0x25, 0xf5, 0x1c, 0x34, 0x1c, 0xfb, 0x1a, 0x23, 0x23, 0x04, 0xf6, 0xf3, 0xb7, 0x4d,
0xdc, 0xf6, 0x54, 0x08, 0xd0, 0xee, 0xf9, 0xfb, 0x02, 0x25, 0x1f, 0x00, 0x11, 0x3a, 0xe2, 0xdb,
0xe0, 0xed, 0xd3, 0x7f, 0xd7, 0xe3, 0xf2, 0x05, 0x19, 0xf7, 0x9f, 0xec, 0x00, 0xe2, 0x1b, 0xe4,
0x14, 0xfd, 0x19, 0x08, 0xfb, 0x04, 0xfe, 0x0f, 0x15, 0x21, 0x15, 0xf3, 0xe5, 0xfe, 0x15, 0xeb,
0x3e, 0xe8, 0x04, 0xfd, 0xc5, 0xfd, 0xeb, 0x1d, 0xee, 0xdf, 0xf2, 0x09, 0x20, 0x05, 0x09, 0xd7,
0x27, 0x0c, 0xb3, 0xf2, 0xfc, 0xcf, 0x1f, 0x2f, 0xf8, 0xe9, 0x16, 0xec, 0xfc, 0xd0, 0xf9, 0x0f,
0xd9, 0xb3, 0x38, 0xd7, 0x29, 0x2f, 0x57, 0xb0, 0xcc, 0xea, 0x2c, 0x2a, 0xf7, 0x33, 0x4b, 0x5f,
0x1a, 0x28, 0x23, 0x1d, 0x3a, 0x2b, 0xd6, 0xf8, 0x08, 0xe6, 0x4c, 0x02, 0xfe, 0xea, 0xe2, 0x5e,
0xf4, 0x20, 0xf8, 0x1b, 0x81, 0xe8, 0x1e, 0x48, 0xe5, 0xdb, 0x9e, 0x08, 0xdc, 0xff, 0xcd, 0x0e,
0x19, 0xfa, 0xef, 0xf6, 0x18, 0xef, 0x6e, 0x16, 0xfb, 0x20, 0xf3, 0xa2, 0x2b, 0x05, 0x19, 0x9d,
0xd9, 0x2c, 0x96, 0xcd, 0xad, 0x2d, 0x06, 0x15, 0xd1, 0xf7, 0x1d, 0x38, 0xfa, 0x7a, 0x15, 0xb0,
0x81, 0xea, 0xf9, 0x65, 0xfb, 0x07, 0xf4, 0xec, 0x5c, 0x0d, 0xf3, 0xd9, 0x07, 0x1b, 0x09, 0x2b,
0x0e, 0xd6, 0xf5, 0xf0, 0x1c, 0xf7, 0xc1, 0x07, 0xfb, 0xe8, 0xc1, 0x0c, 0x25, 0xd2, 0x2a, 0xe3,
0x42, 0x3b, 0xd0, 0xb5, 0xb6, 0xce, 0x00, 0x47, 0xde, 0xf9, 0xb0, 0x15, 0x9d, 0xb6, 0xdb, 0x0c,
0x0a, 0xdc, 0xfe, 0xdc, 0x63, 0x0d, 0xe8, 0xe3, 0xa8, 0x16, 0x28, 0x1b, 0xef, 0x12, 0x1c, 0x0a,
0x1a, 0x1a, 0xcb, 0xe2, 0x21, 0x08, 0xef, 0xd6, 0xcf, 0xe2, 0x0c, 0xf0, 0xdb, 0xdf, 0x16, 0x31,
0x00, 0x00, 0x00, 0x00, 0xd2, 0xfd, 0xff, 0xff, 0x04, 0x00, 0x00, 0x00, 0x80, 0x00, 0x00, 0x00,
0x1b, 0x2a, 0x00, 0x00, 0x13, 0xf2, 0xff, 0xff, 0x52, 0x2e, 0x00, 0x00, 0x16, 0x13, 0x00, 0x00,
0x9b, 0xfa, 0xff, 0xff, 0xd8, 0x17, 0x00, 0x00, 0xa0, 0xfa, 0xff, 0xff, 0x75, 0x0e, 0x00, 0x00,
0xd9, 0x11, 0x00, 0x00, 0x10, 0xec, 0xff, 0xff, 0xd9, 0x0d, 0x00, 0x00, 0xf8, 0x0e, 0x00, 0x00,
0xe1, 0x19, 0x00, 0x00, 0xbb, 0x4a, 0x00, 0x00, 0x4f, 0x40, 0x00, 0x00, 0x01, 0xfe, 0xff, 0xff,
0x5f, 0x0a, 0x00, 0x00, 0x4b, 0x00, 0x00, 0x00, 0xdf, 0x48, 0x00, 0x00, 0xa4, 0x02, 0x00, 0x00,
0xed, 0xc1, 0xff, 0xff, 0x24, 0xfd, 0xff, 0xff, 0x9d, 0xf4, 0xff, 0xff, 0x92, 0xa6, 0xff, 0xff,
0xb7, 0x07, 0x00, 0x00, 0xcd, 0x26, 0x00, 0x00, 0x2d, 0x29, 0x00, 0x00, 0x92, 0xeb, 0xff, 0xff,
0x99, 0x1b, 0x00, 0x00, 0x67, 0x00, 0x00, 0x00, 0x89, 0x04, 0x00, 0x00, 0xf7, 0xf8, 0xff, 0xff,
0x00, 0x00, 0x00, 0x00, 0x62, 0xfe, 0xff, 0xff, 0x04, 0x00, 0x00, 0x00, 0x40, 0x00, 0x00, 0x00,
0xdc, 0x13, 0xbe, 0x66, 0x57, 0x26, 0x39, 0x55, 0x5f, 0x19, 0xb9, 0xe1, 0x48, 0xbf, 0xab, 0x5b,
0x48, 0x2d, 0xbc, 0x5a, 0xb8, 0x4b, 0x42, 0xd8, 0x53, 0x57, 0xe5, 0x9d, 0xc3, 0xaf, 0xc9, 0xc3,
0x19, 0xbe, 0x1e, 0xda, 0xba, 0xd5, 0xc4, 0x81, 0xb5, 0x24, 0x2b, 0x49, 0xd3, 0x5e, 0x30, 0xe1,
0xab, 0xd0, 0x44, 0xd2, 0x18, 0xde, 0xac, 0x25, 0xcb, 0xb9, 0x38, 0x25, 0x07, 0x50, 0x11, 0x38,
0x00, 0x00, 0x00, 0x00, 0x00, 0x00, 0x00, 0x00, 0x00, 0x00, 0x00, 0x00, 0xba, 0xfe, 0xff, 0xff,
0x04, 0x00, 0x00, 0x00, 0x08, 0x00, 0x00, 0x00, 0x4d, 0xfa, 0xff, 0xff, 0xb3, 0x05, 0x00, 0x00,
0xce, 0xfe, 0xff, 0xff, 0x04, 0x00, 0x00, 0x00, 0x04, 0x00, 0x00, 0x00, 0x01, 0x00, 0x00, 0x00,
0x00, 0x00, 0x00, 0x00, 0x00, 0x00, 0x00, 0x00, 0xe6, 0xfe, 0xff, 0xff, 0x04, 0x00, 0x00, 0x00,
0x0c, 0x00, 0x00, 0x00, 0x01, 0x00, 0x00, 0x00, 0x06, 0x00, 0x00, 0x00, 0x20, 0x00, 0x00, 0x00,
0x00, 0x00, 0x00, 0x00, 0x02, 0xff, 0xff, 0xff, 0x04, 0x00, 0x00, 0x00, 0x10, 0x00, 0x00, 0x00,
0x01, 0x00, 0x00, 0x00, 0x0c, 0x00, 0x00, 0x00, 0x01, 0x00, 0x00, 0x00, 0x20, 0x00, 0x00, 0x00,
0x00, 0x00, 0x00, 0x00, 0x22, 0xff, 0xff, 0xff, 0x04, 0x00, 0x00, 0x00, 0x10, 0x00, 0x00, 0x00,
0x01, 0x00, 0x00, 0x00, 0x01, 0x00, 0x00, 0x00, 0x18, 0x00, 0x00, 0x00, 0x03, 0x00, 0x00, 0x00,
0x00, 0x00, 0x00, 0x00, 0x00, 0x00, 0x00, 0x00, 0x00, 0x00, 0x00, 0x00, 0x88, 0xe7, 0xff, 0xff,
0x00, 0x00, 0x00, 0x00, 0x00, 0x00, 0x00, 0x00, 0x00, 0x00, 0x00, 0x00, 0x98, 0xe7, 0xff, 0xff,
0x00, 0x00, 0x00, 0x00, 0x00, 0x00, 0x00, 0x00, 0x00, 0x00, 0x00, 0x00, 0x0f, 0x00, 0x00, 0x00,
0x4d, 0x4c, 0x49, 0x52, 0x20, 0x43, 0x6f, 0x6e, 0x76, 0x65, 0x72, 0x74, 0x65, 0x64, 0x2e, 0x00,
0x01, 0x00, 0x00, 0x00, 0x14, 0x00, 0x00, 0x00, 0x00, 0x00, 0x0e, 0x00, 0x18, 0x00, 0x14, 0x00,
0x10, 0x00, 0x0c, 0x00, 0x08, 0x00, 0x04, 0x00, 0x0e, 0x00, 0x00, 0x00, 0x14, 0x00, 0x00, 0x00,
0x1c, 0x00, 0x00, 0x00, 0x74, 0x02, 0x00, 0x00, 0x78, 0x02, 0x00, 0x00, 0x7c, 0x02, 0x00, 0x00,
0x04, 0x00, 0x00, 0x00, 0x6d, 0x61, 0x69, 0x6e, 0x00, 0x00, 0x00, 0x00, 0x0a, 0x00, 0x00, 0x00,
0x38, 0x02, 0x00, 0x00, 0xdc, 0x01, 0x00, 0x00, 0x8c, 0x01, 0x00, 0x00, 0x48, 0x01, 0x00, 0x00,
0x24, 0x01, 0x00, 0x00, 0xd0, 0x00, 0x00, 0x00, 0xac, 0x00, 0x00, 0x00, 0x78, 0x00, 0x00, 0x00,
0x40, 0x00, 0x00, 0x00, 0x04, 0x00, 0x00, 0x00, 0x56, 0xfe, 0xff, 0xff, 0x1c, 0x00, 0x00, 0x00,
0x00, 0x00, 0x00, 0x09, 0x1c, 0x00, 0x00, 0x00, 0x20, 0x00, 0x00, 0x00, 0x05, 0x00, 0x00, 0x00,
0x00, 0x00, 0x06, 0x00, 0x08, 0x00, 0x04, 0x00, 0x06, 0x00, 0x00, 0x00, 0x00, 0x00, 0x80, 0x3f,
0x01, 0x00, 0x00, 0x00, 0x16, 0x00, 0x00, 0x00, 0x01, 0x00, 0x00, 0x00, 0x15, 0x00, 0x00, 0x00,
0x8e, 0xfe, 0xff, 0xff, 0x14, 0x00, 0x00, 0x00, 0x00, 0x00, 0x00, 0x08, 0x10, 0x00, 0x00, 0x00,
0x14, 0x00, 0x00, 0x00, 0x04, 0x00, 0x00, 0x00, 0x74, 0xe8, 0xff, 0xff, 0x01, 0x00, 0x00, 0x00,
0x15, 0x00, 0x00, 0x00, 0x03, 0x00, 0x00, 0x00, 0x14, 0x00, 0x00, 0x00, 0x06, 0x00, 0x00, 0x00,
0x05, 0x00, 0x00, 0x00, 0xc2, 0xfe, 0xff, 0xff, 0x14, 0x00, 0x00, 0x00, 0x00, 0x00, 0x00, 0x1b,
0x10, 0x00, 0x00, 0x00, 0x14, 0x00, 0x00, 0x00, 0x03, 0x00, 0x00, 0x00, 0xa8, 0xe8, 0xff, 0xff,
0x01, 0x00, 0x00, 0x00, 0x14, 0x00, 0x00, 0x00, 0x02, 0x00, 0x00, 0x00, 0x13, 0x00, 0x00, 0x00,
0x04, 0x00, 0x00, 0x00, 0x96, 0xfe, 0xff, 0xff, 0x08, 0x00, 0x00, 0x00, 0x0c, 0x00, 0x00, 0x00,
0x01, 0x00, 0x00, 0x00, 0x13, 0x00, 0x00, 0x00, 0x02, 0x00, 0x00, 0x00, 0x12, 0x00, 0x00, 0x00,
0x03, 0x00, 0x00, 0x00, 0x12, 0xff, 0xff, 0xff, 0x24, 0x00, 0x00, 0x00, 0x00, 0x00, 0x00, 0x05,
0x34, 0x00, 0x00, 0x00, 0x38, 0x00, 0x00, 0x00, 0x02, 0x00, 0x00, 0x00, 0x00, 0x00, 0x0e, 0x00,
0x18, 0x00, 0x17, 0x00, 0x10, 0x00, 0x0c, 0x00, 0x08, 0x00, 0x04, 0x00, 0x0e, 0x00, 0x00, 0x00,
0x02, 0x00, 0x00, 0x00, 0x01, 0x00, 0x00, 0x00, 0x02, 0x00, 0x00, 0x00, 0x01, 0x00, 0x00, 0x00,
0x00, 0x00, 0x00, 0x01, 0x01, 0x00, 0x00, 0x00, 0x12, 0x00, 0x00, 0x00, 0x01, 0x00, 0x00, 0x00,
0x11, 0x00, 0x00, 0x00, 0x06, 0xff, 0xff, 0xff, 0x08, 0x00, 0x00, 0x00, 0x0c, 0x00, 0x00, 0x00,
0x01, 0x00, 0x00, 0x00, 0x11, 0x00, 0x00, 0x00, 0x02, 0x00, 0x00, 0x00, 0x10, 0x00, 0x00, 0x00,
0x02, 0x00, 0x00, 0x00, 0x82, 0xff, 0xff, 0xff, 0x14, 0x00, 0x00, 0x00, 0x00, 0x00, 0x00, 0x01,
0x1c, 0x00, 0x00, 0x00, 0x20, 0x00, 0x00, 0x00, 0x01, 0x00, 0x00, 0x00, 0x74, 0xff, 0xff, 0xff,
0x00, 0x00, 0x00, 0x01, 0x01, 0x00, 0x00, 0x00, 0x01, 0x00, 0x00, 0x00, 0x01, 0x00, 0x00, 0x00,
0x10, 0x00, 0x00, 0x00, 0x03, 0x00, 0x00, 0x00, 0x0f, 0x00, 0x00, 0x00, 0x08, 0x00, 0x00, 0x00,
0x07, 0x00, 0x00, 0x00, 0xc2, 0xff, 0xff, 0xff, 0x14, 0x00, 0x00, 0x00, 0x00, 0x00, 0x00, 0x01,
0x18, 0x00, 0x00, 0x00, 0x1c, 0x00, 0x00, 0x00, 0x01, 0x00, 0x00, 0x00, 0x7e, 0xff, 0xff, 0xff,
0x01, 0x00, 0x00, 0x00, 0x01, 0x00, 0x00, 0x00, 0x01, 0x00, 0x00, 0x00, 0x0f, 0x00, 0x00, 0x00,
0x03, 0x00, 0x00, 0x00, 0x0e, 0x00, 0x00, 0x00, 0x0a, 0x00, 0x00, 0x00, 0x09, 0x00, 0x00, 0x00,
0x00, 0x00, 0x0e, 0x00, 0x18, 0x00, 0x14, 0x00, 0x10, 0x00, 0x0c, 0x00, 0x0b, 0x00, 0x04, 0x00,
0x0e, 0x00, 0x00, 0x00, 0x20, 0x00, 0x00, 0x00, 0x00, 0x00, 0x00, 0x01, 0x28, 0x00, 0x00, 0x00,
0x2c, 0x00, 0x00, 0x00, 0x01, 0x00, 0x00, 0x00, 0x0c, 0x00, 0x10, 0x00, 0x00, 0x00, 0x0c, 0x00,
0x08, 0x00, 0x07, 0x00, 0x0c, 0x00, 0x00, 0x00, 0x00, 0x00, 0x00, 0x01, 0x01, 0x00, 0x00, 0x00,
0x02, 0x00, 0x00, 0x00, 0x01, 0x00, 0x00, 0x00, 0x0e, 0x00, 0x00, 0x00, 0x03, 0x00, 0x00, 0x00,
0x0d, 0x00, 0x00, 0x00, 0x0c, 0x00, 0x00, 0x00, 0x0b, 0x00, 0x00, 0x00, 0x00, 0x00, 0x0a, 0x00,
0x0c, 0x00, 0x00, 0x00, 0x08, 0x00, 0x04, 0x00, 0x0a, 0x00, 0x00, 0x00, 0x08, 0x00, 0x00, 0x00,
0x0c, 0x00, 0x00, 0x00, 0x01, 0x00, 0x00, 0x00, 0x0d, 0x00, 0x00, 0x00, 0x02, 0x00, 0x00, 0x00,
0x00, 0x00, 0x00, 0x00, 0x01, 0x00, 0x00, 0x00, 0x01, 0x00, 0x00, 0x00, 0x16, 0x00, 0x00, 0x00,
0x01, 0x00, 0x00, 0x00, 0x00, 0x00, 0x00, 0x00, 0x17, 0x00, 0x00, 0x00, 0xf8, 0x15, 0x00, 0x00,
0x7c, 0x15, 0x00, 0x00, 0x1c, 0x15, 0x00, 0x00, 0xc0, 0x14, 0x00, 0x00, 0x58, 0x14, 0x00, 0x00,
0xd0, 0x13, 0x00, 0x00, 0x54, 0x13, 0x00, 0x00, 0x60, 0x11, 0x00, 0x00, 0xc4, 0x0e, 0x00, 0x00,
0xd8, 0x0c, 0x00, 0x00, 0xdc, 0x0a, 0x00, 0x00, 0xa8, 0x09, 0x00, 0x00, 0xcc, 0x07, 0x00, 0x00,
0x38, 0x07, 0x00, 0x00, 0x74, 0x05, 0x00, 0x00, 0xf0, 0x04, 0x00, 0x00, 0x2c, 0x03, 0x00, 0x00,
0xa0, 0x02, 0x00, 0x00, 0x1c, 0x02, 0x00, 0x00, 0x98, 0x01, 0x00, 0x00, 0x1c, 0x01, 0x00, 0x00,
0x70, 0x00, 0x00, 0x00, 0x04, 0x00, 0x00, 0x00, 0x72, 0xea, 0xff, 0xff, 0x14, 0x00, 0x00, 0x00,
0x34, 0x00, 0x00, 0x00, 0x17, 0x00, 0x00, 0x00, 0x00, 0x00, 0x00, 0x09, 0x48, 0x00, 0x00, 0x00,
0x64, 0xea, 0xff, 0xff, 0x08, 0x00, 0x00, 0x00, 0x14, 0x00, 0x00, 0x00, 0x01, 0x00, 0x00, 0x00,
0x80, 0xff, 0xff, 0xff, 0xff, 0xff, 0xff, 0xff, 0x00, 0x00, 0x00, 0x00, 0x01, 0x00, 0x00, 0x00,
0x00, 0x00, 0x80, 0x3b, 0x19, 0x00, 0x00, 0x00, 0x53, 0x74, 0x61, 0x74, 0x65, 0x66, 0x75, 0x6c,
0x50, 0x61, 0x72, 0x74, 0x69, 0x74, 0x69, 0x6f, 0x6e, 0x65, 0x64, 0x43, 0x61, 0x6c, 0x6c, 0x3a,
0x30, 0x00, 0x00, 0x00, 0x02, 0x00, 0x00, 0x00, 0x01, 0x00, 0x00, 0x00, 0x02, 0x00, 0x00, 0x00,
0xda, 0xea, 0xff, 0xff, 0x14, 0x00, 0x00, 0x00, 0x30, 0x00, 0x00, 0x00, 0x16, 0x00, 0x00, 0x00,
0x00, 0x00, 0x00, 0x09, 0x88, 0x00, 0x00, 0x00, 0xcc, 0xea, 0xff, 0xff, 0x08, 0x00, 0x00, 0x00,
0x10, 0x00, 0x00, 0x00, 0x01, 0x00, 0x00, 0x00, 0x0a, 0x00, 0x00, 0x00, 0x00, 0x00, 0x00, 0x00,
0x01, 0x00, 0x00, 0x00, 0x22, 0x10, 0xaf, 0x3d, 0x5e, 0x00, 0x00, 0x00, 0x6d, 0x6f, 0x64, 0x65,
0x6c, 0x5f, 0x31, 0x2f, 0x63, 0x6f, 0x6e, 0x76, 0x31, 0x64, 0x2d, 0x73, 0x6d, 0x61, 0x6c, 0x6c,
0x2d, 0x62, 0x61, 0x6c, 0x61, 0x6e, 0x63, 0x65, 0x64, 0x2d, 0x32, 0x2f, 0x6c, 0x61, 0x79, 0x65,
0x72, 0x5f, 0x39, 0x2f, 0x4d, 0x61, 0x74, 0x4d, 0x75, 0x6c, 0x3b, 0x6d, 0x6f, 0x64, 0x65, 0x6c,
0x5f, 0x31, 0x2f, 0x63, 0x6f, 0x6e, 0x76, 0x31, 0x64, 0x2d, 0x73, 0x6d, 0x61, 0x6c, 0x6c, 0x2d,
0x62, 0x61, 0x6c, 0x61, 0x6e, 0x63, 0x65, 0x64, 0x2d, 0x32, 0x2f, 0x6c, 0x61, 0x79, 0x65, 0x72,
0x5f, 0x39, 0x2f, 0x42, 0x69, 0x61, 0x73, 0x41, 0x64, 0x64, 0x00, 0x00, 0x02, 0x00, 0x00, 0x00,
0x01, 0x00, 0x00, 0x00, 0x02, 0x00, 0x00, 0x00, 0x82, 0xeb, 0xff, 0xff, 0x14, 0x00, 0x00, 0x00,
0x30, 0x00, 0x00, 0x00, 0x15, 0x00, 0x00, 0x00, 0x00, 0x00, 0x00, 0x09, 0x58, 0x00, 0x00, 0x00,
0x74, 0xeb, 0xff, 0xff, 0x08, 0x00, 0x00, 0x00, 0x10, 0x00, 0x00, 0x00, 0x01, 0x00, 0x00, 0x00,
0x80, 0xff, 0xff, 0xff, 0xff, 0xff, 0xff, 0xff, 0x01, 0x00, 0x00, 0x00, 0xb2, 0xb2, 0x62, 0x3c,
0x2c, 0x00, 0x00, 0x00, 0x6d, 0x6f, 0x64, 0x65, 0x6c, 0x5f, 0x31, 0x2f, 0x63, 0x6f, 0x6e, 0x76,
0x31, 0x64, 0x2d, 0x73, 0x6d, 0x61, 0x6c, 0x6c, 0x2d, 0x62, 0x61, 0x6c, 0x61, 0x6e, 0x63, 0x65,
0x64, 0x2d, 0x32, 0x2f, 0x6c, 0x61, 0x79, 0x65, 0x72, 0x5f, 0x38, 0x2f, 0x4d, 0x65, 0x61, 0x6e,
0x00, 0x00, 0x00, 0x00, 0x02, 0x00, 0x00, 0x00, 0x01, 0x00, 0x00, 0x00, 0x20, 0x00, 0x00, 0x00,
0xfa, 0xeb, 0xff, 0xff, 0x14, 0x00, 0x00, 0x00, 0x30, 0x00, 0x00, 0x00, 0x14, 0x00, 0x00, 0x00,
0x00, 0x00, 0x00, 0x09, 0x5c, 0x00, 0x00, 0x00, 0xec, 0xeb, 0xff, 0xff, 0x08, 0x00, 0x00, 0x00,
0x10, 0x00, 0x00, 0x00, 0x01, 0x00, 0x00, 0x00, 0x80, 0xff, 0xff, 0xff, 0xff, 0xff, 0xff, 0xff,
0x01, 0x00, 0x00, 0x00, 0x6b, 0xd2, 0x27, 0x3d, 0x30, 0x00, 0x00, 0x00, 0x6d, 0x6f, 0x64, 0x65,
0x6c, 0x5f, 0x31, 0x2f, 0x63, 0x6f, 0x6e, 0x76, 0x31, 0x64, 0x2d, 0x73, 0x6d, 0x61, 0x6c, 0x6c,
0x2d, 0x62, 0x61, 0x6c, 0x61, 0x6e, 0x63, 0x65, 0x64, 0x2d, 0x32, 0x2f, 0x6c, 0x61, 0x79, 0x65,
0x72, 0x5f, 0x37, 0x2f, 0x53, 0x71, 0x75, 0x65, 0x65, 0x7a, 0x65, 0x31, 0x00, 0x00, 0x00, 0x00,
0x03, 0x00, 0x00, 0x00, 0x01, 0x00, 0x00, 0x00, 0x06, 0x00, 0x00, 0x00, 0x20, 0x00, 0x00, 0x00,
0x7a, 0xec, 0xff, 0xff, 0x14, 0x00, 0x00, 0x00, 0x30, 0x00, 0x00, 0x00, 0x13, 0x00, 0x00, 0x00,
0x00, 0x00, 0x00, 0x09, 0x58, 0x00, 0x00, 0x00, 0x6c, 0xec, 0xff, 0xff, 0x08, 0x00, 0x00, 0x00,
0x10, 0x00, 0x00, 0x00, 0x01, 0x00, 0x00, 0x00, 0x80, 0xff, 0xff, 0xff, 0xff, 0xff, 0xff, 0xff,
0x01, 0x00, 0x00, 0x00, 0x6b, 0xd2, 0x27, 0x3d, 0x2f, 0x00, 0x00, 0x00, 0x6d, 0x6f, 0x64, 0x65,
0x6c, 0x5f, 0x31, 0x2f, 0x63, 0x6f, 0x6e, 0x76, 0x31, 0x64, 0x2d, 0x73, 0x6d, 0x61, 0x6c, 0x6c,
0x2d, 0x62, 0x61, 0x6c, 0x61, 0x6e, 0x63, 0x65, 0x64, 0x2d, 0x32, 0x2f, 0x6c, 0x61, 0x79, 0x65,
0x72, 0x5f, 0x37, 0x2f, 0x4d, 0x61, 0x78, 0x50, 0x6f, 0x6f, 0x6c, 0x00, 0x04, 0x00, 0x00, 0x00,
0x01, 0x00, 0x00, 0x00, 0x06, 0x00, 0x00, 0x00, 0x01, 0x00, 0x00, 0x00, 0x20, 0x00, 0x00, 0x00,
0xfa, 0xec, 0xff, 0xff, 0x14, 0x00, 0x00, 0x00, 0x34, 0x00, 0x00, 0x00, 0x12, 0x00, 0x00, 0x00,
0x00, 0x00, 0x00, 0x09, 0x60, 0x00, 0x00, 0x00, 0xec, 0xec, 0xff, 0xff, 0x08, 0x00, 0x00, 0x00,
0x14, 0x00, 0x00, 0x00, 0x01, 0x00, 0x00, 0x00, 0x80, 0xff, 0xff, 0xff, 0xff, 0xff, 0xff, 0xff,
0x00, 0x00, 0x00, 0x00, 0x01, 0x00, 0x00, 0x00, 0x6b, 0xd2, 0x27, 0x3d, 0x33, 0x00, 0x00, 0x00,
0x6d, 0x6f, 0x64, 0x65, 0x6c, 0x5f, 0x31, 0x2f, 0x63, 0x6f, 0x6e, 0x76, 0x31, 0x64, 0x2d, 0x73,
0x6d, 0x61, 0x6c, 0x6c, 0x2d, 0x62, 0x61, 0x6c, 0x61, 0x6e, 0x63, 0x65, 0x64, 0x2d, 0x32, 0x2f,
0x6c, 0x61, 0x79, 0x65, 0x72, 0x5f, 0x37, 0x2f, 0x45, 0x78, 0x70, 0x61, 0x6e, 0x64, 0x44, 0x69,
0x6d, 0x73, 0x31, 0x00, 0x04, 0x00, 0x00, 0x00, 0x01, 0x00, 0x00, 0x00, 0x0c, 0x00, 0x00, 0x00,
0x01, 0x00, 0x00, 0x00, 0x20, 0x00, 0x00, 0x00, 0x82, 0xed, 0xff, 0xff, 0x14, 0x00, 0x00, 0x00,
0x30, 0x00, 0x00, 0x00, 0x11, 0x00, 0x00, 0x00, 0x00, 0x00, 0x00, 0x09, 0x98, 0x01, 0x00, 0x00,
0x74, 0xed, 0xff, 0xff, 0x08, 0x00, 0x00, 0x00, 0x10, 0x00, 0x00, 0x00, 0x01, 0x00, 0x00, 0x00,
0x80, 0xff, 0xff, 0xff, 0xff, 0xff, 0xff, 0xff, 0x01, 0x00, 0x00, 0x00, 0x6b, 0xd2, 0x27, 0x3d,
0x6e, 0x01, 0x00, 0x00, 0x6d, 0x6f, 0x64, 0x65, 0x6c, 0x5f, 0x31, 0x2f, 0x63, 0x6f, 0x6e, 0x76,
0x31, 0x64, 0x2d, 0x73, 0x6d, 0x61, 0x6c, 0x6c, 0x2d, 0x62, 0x61, 0x6c, 0x61, 0x6e, 0x63, 0x65,
0x64, 0x2d, 0x32, 0x2f, 0x6c, 0x61, 0x79, 0x65, 0x72, 0x5f, 0x36, 0x2f, 0x52, 0x65, 0x6c, 0x75,
0x3b, 0x6d, 0x6f, 0x64, 0x65, 0x6c, 0x5f, 0x31, 0x2f, 0x63, 0x6f, 0x6e, 0x76, 0x31, 0x64, 0x2d,
0x73, 0x6d, 0x61, 0x6c, 0x6c, 0x2d, 0x62, 0x61, 0x6c, 0x61, 0x6e, 0x63, 0x65, 0x64, 0x2d, 0x32,
0x2f, 0x6c, 0x61, 0x79, 0x65, 0x72, 0x5f, 0x35, 0x2f, 0x62, 0x61, 0x74, 0x63, 0x68, 0x6e, 0x6f,
0x72, 0x6d, 0x2f, 0x61, 0x64, 0x64, 0x5f, 0x31, 0x3b, 0x6d, 0x6f, 0x64, 0x65, 0x6c, 0x5f, 0x31,
0x2f, 0x63, 0x6f, 0x6e, 0x76, 0x31, 0x64, 0x2d, 0x73, 0x6d, 0x61, 0x6c, 0x6c, 0x2d, 0x62, 0x61,
0x6c, 0x61, 0x6e, 0x63, 0x65, 0x64, 0x2d, 0x32, 0x2f, 0x6c, 0x61, 0x79, 0x65, 0x72, 0x5f, 0x34,
0x2f, 0x43, 0x6f, 0x6e, 0x76, 0x31, 0x44, 0x2f, 0x53, 0x71, 0x75, 0x65, 0x65, 0x7a, 0x65, 0x3b,
0x6d, 0x6f, 0x64, 0x65, 0x6c, 0x5f, 0x31, 0x2f, 0x63, 0x6f, 0x6e, 0x76, 0x31, 0x64, 0x2d, 0x73,
0x6d, 0x61, 0x6c, 0x6c, 0x2d, 0x62, 0x61, 0x6c, 0x61, 0x6e, 0x63, 0x65, 0x64, 0x2d, 0x32, 0x2f,
0x6c, 0x61, 0x79, 0x65, 0x72, 0x5f, 0x35, 0x2f, 0x62, 0x61, 0x74, 0x63, 0x68, 0x6e, 0x6f, 0x72,
0x6d, 0x2f, 0x6d, 0x75, 0x6c, 0x5f, 0x31, 0x3b, 0x6d, 0x6f, 0x64, 0x65, 0x6c, 0x5f, 0x31, 0x2f,
0x63, 0x6f, 0x6e, 0x76, 0x31, 0x64, 0x2d, 0x73, 0x6d, 0x61, 0x6c, 0x6c, 0x2d, 0x62, 0x61, 0x6c,
0x61, 0x6e, 0x63, 0x65, 0x64, 0x2d, 0x32, 0x2f, 0x6c, 0x61, 0x79, 0x65, 0x72, 0x5f, 0x35, 0x2f,
0x62, 0x61, 0x74, 0x63, 0x68, 0x6e, 0x6f, 0x72, 0x6d, 0x2f, 0x6d, 0x75, 0x6c, 0x3b, 0x6d, 0x6f,
0x64, 0x65, 0x6c, 0x5f, 0x31, 0x2f, 0x63, 0x6f, 0x6e, 0x76, 0x31, 0x64, 0x2d, 0x73, 0x6d, 0x61,
0x6c, 0x6c, 0x2d, 0x62, 0x61, 0x6c, 0x61, 0x6e, 0x63, 0x65, 0x64, 0x2d, 0x32, 0x2f, 0x6c, 0x61,
0x79, 0x65, 0x72, 0x5f, 0x35, 0x2f, 0x62, 0x61, 0x74, 0x63, 0x68, 0x6e, 0x6f, 0x72, 0x6d, 0x2f,
0x73, 0x75, 0x62, 0x3b, 0x6d, 0x6f, 0x64, 0x65, 0x6c, 0x5f, 0x31, 0x2f, 0x63, 0x6f, 0x6e, 0x76,
0x31, 0x64, 0x2d, 0x73, 0x6d, 0x61, 0x6c, 0x6c, 0x2d, 0x62, 0x61, 0x6c, 0x61, 0x6e, 0x63, 0x65,
0x64, 0x2d, 0x32, 0x2f, 0x6c, 0x61, 0x79, 0x65, 0x72, 0x5f, 0x34, 0x2f, 0x43, 0x6f, 0x6e, 0x76,
0x31, 0x44, 0x00, 0x00, 0x04, 0x00, 0x00, 0x00, 0x01, 0x00, 0x00, 0x00, 0x01, 0x00, 0x00, 0x00,
0x0c, 0x00, 0x00, 0x00, 0x20, 0x00, 0x00, 0x00, 0x42, 0xef, 0xff, 0xff, 0x14, 0x00, 0x00, 0x00,
0x30, 0x00, 0x00, 0x00, 0x10, 0x00, 0x00, 0x00, 0x00, 0x00, 0x00, 0x09, 0x58, 0x00, 0x00, 0x00,
0x34, 0xef, 0xff, 0xff, 0x08, 0x00, 0x00, 0x00, 0x10, 0x00, 0x00, 0x00, 0x01, 0x00, 0x00, 0x00,
0x0b, 0x00, 0x00, 0x00, 0x00, 0x00, 0x00, 0x00, 0x01, 0x00, 0x00, 0x00, 0xb4, 0x48, 0x8a, 0x3d,
0x2f, 0x00, 0x00, 0x00, 0x6d, 0x6f, 0x64, 0x65, 0x6c, 0x5f, 0x31, 0x2f, 0x63, 0x6f, 0x6e, 0x76,
0x31, 0x64, 0x2d, 0x73, 0x6d, 0x61, 0x6c, 0x6c, 0x2d, 0x62, 0x61, 0x6c, 0x61, 0x6e, 0x63, 0x65,
0x64, 0x2d, 0x32, 0x2f, 0x6c, 0x61, 0x79, 0x65, 0x72, 0x5f, 0x33, 0x2f, 0x43, 0x6f, 0x6e, 0x76,
0x31, 0x44, 0x31, 0x00, 0x04, 0x00, 0x00, 0x00, 0x01, 0x00, 0x00, 0x00, 0x01, 0x00, 0x00, 0x00,
0x0c, 0x00, 0x00, 0x00, 0x20, 0x00, 0x00, 0x00, 0xc2, 0xef, 0xff, 0xff, 0x14, 0x00, 0x00, 0x00,
0x30, 0x00, 0x00, 0x00, 0x0f, 0x00, 0x00, 0x00, 0x00, 0x00, 0x00, 0x09, 0x98, 0x01, 0x00, 0x00,
0xb4, 0xef, 0xff, 0xff, 0x08, 0x00, 0x00, 0x00, 0x10, 0x00, 0x00, 0x00, 0x01, 0x00, 0x00, 0x00,
0x80, 0xff, 0xff, 0xff, 0xff, 0xff, 0xff, 0xff, 0x01, 0x00, 0x00, 0x00, 0xa0, 0x07, 0x9d, 0x3c,
0x6e, 0x01, 0x00, 0x00, 0x6d, 0x6f, 0x64, 0x65, 0x6c, 0x5f, 0x31, 0x2f, 0x63, 0x6f, 0x6e, 0x76,
0x31, 0x64, 0x2d, 0x73, 0x6d, 0x61, 0x6c, 0x6c, 0x2d, 0x62, 0x61, 0x6c, 0x61, 0x6e, 0x63, 0x65,
0x64, 0x2d, 0x32, 0x2f, 0x6c, 0x61, 0x79, 0x65, 0x72, 0x5f, 0x32, 0x2f, 0x52, 0x65, 0x6c, 0x75,
0x3b, 0x6d, 0x6f, 0x64, 0x65, 0x6c, 0x5f, 0x31, 0x2f, 0x63, 0x6f, 0x6e, 0x76, 0x31, 0x64, 0x2d,
0x73, 0x6d, 0x61, 0x6c, 0x6c, 0x2d, 0x62, 0x61, 0x6c, 0x61, 0x6e, 0x63, 0x65, 0x64, 0x2d, 0x32,
0x2f, 0x6c, 0x61, 0x79, 0x65, 0x72, 0x5f, 0x31, 0x2f, 0x62, 0x61, 0x74, 0x63, 0x68, 0x6e, 0x6f,
0x72, 0x6d, 0x2f, 0x61, 0x64, 0x64, 0x5f, 0x31, 0x3b, 0x6d, 0x6f, 0x64, 0x65, 0x6c, 0x5f, 0x31,
0x2f, 0x63, 0x6f, 0x6e, 0x76, 0x31, 0x64, 0x2d, 0x73, 0x6d, 0x61, 0x6c, 0x6c, 0x2d, 0x62, 0x61,
0x6c, 0x61, 0x6e, 0x63, 0x65, 0x64, 0x2d, 0x32, 0x2f, 0x6c, 0x61, 0x79, 0x65, 0x72, 0x5f, 0x30,
0x2f, 0x43, 0x6f, 0x6e, 0x76, 0x31, 0x44, 0x2f, 0x53, 0x71, 0x75, 0x65, 0x65, 0x7a, 0x65, 0x3b,
0x6d, 0x6f, 0x64, 0x65, 0x6c, 0x5f, 0x31, 0x2f, 0x63, 0x6f, 0x6e, 0x76, 0x31, 0x64, 0x2d, 0x73,
0x6d, 0x61, 0x6c, 0x6c, 0x2d, 0x62, 0x61, 0x6c, 0x61, 0x6e, 0x63, 0x65, 0x64, 0x2d, 0x32, 0x2f,
0x6c, 0x61, 0x79, 0x65, 0x72, 0x5f, 0x31, 0x2f, 0x62, 0x61, 0x74, 0x63, 0x68, 0x6e, 0x6f, 0x72,
0x6d, 0x2f, 0x6d, 0x75, 0x6c, 0x5f, 0x31, 0x3b, 0x6d, 0x6f, 0x64, 0x65, 0x6c, 0x5f, 0x31, 0x2f,
0x63, 0x6f, 0x6e, 0x76, 0x31, 0x64, 0x2d, 0x73, 0x6d, 0x61, 0x6c, 0x6c, 0x2d, 0x62, 0x61, 0x6c,
0x61, 0x6e, 0x63, 0x65, 0x64, 0x2d, 0x32, 0x2f, 0x6c, 0x61, 0x79, 0x65, 0x72, 0x5f, 0x31, 0x2f,
0x62, 0x61, 0x74, 0x63, 0x68, 0x6e, 0x6f, 0x72, 0x6d, 0x2f, 0x6d, 0x75, 0x6c, 0x3b, 0x6d, 0x6f,
0x64, 0x65, 0x6c, 0x5f, 0x31, 0x2f, 0x63, 0x6f, 0x6e, 0x76, 0x31, 0x64, 0x2d, 0x73, 0x6d, 0x61,
0x6c, 0x6c, 0x2d, 0x62, 0x61, 0x6c, 0x61, 0x6e, 0x63, 0x65, 0x64, 0x2d, 0x32, 0x2f, 0x6c, 0x61,
0x79, 0x65, 0x72, 0x5f, 0x31, 0x2f, 0x62, 0x61, 0x74, 0x63, 0x68, 0x6e, 0x6f, 0x72, 0x6d, 0x2f,
0x73, 0x75, 0x62, 0x3b, 0x6d, 0x6f, 0x64, 0x65, 0x6c, 0x5f, 0x31, 0x2f, 0x63, 0x6f, 0x6e, 0x76,
0x31, 0x64, 0x2d, 0x73, 0x6d, 0x61, 0x6c, 0x6c, 0x2d, 0x62, 0x61, 0x6c, 0x61, 0x6e, 0x63, 0x65,
0x64, 0x2d, 0x32, 0x2f, 0x6c, 0x61, 0x79, 0x65, 0x72, 0x5f, 0x30, 0x2f, 0x43, 0x6f, 0x6e, 0x76,
0x31, 0x44, 0x00, 0x00, 0x04, 0x00, 0x00, 0x00, 0x01, 0x00, 0x00, 0x00, 0x01, 0x00, 0x00, 0x00,
0x0c, 0x00, 0x00, 0x00, 0x10, 0x00, 0x00, 0x00, 0x82, 0xf1, 0xff, 0xff, 0x14, 0x00, 0x00, 0x00,
0x34, 0x00, 0x00, 0x00, 0x0e, 0x00, 0x00, 0x00, 0x00, 0x00, 0x00, 0x09, 0x68, 0x00, 0x00, 0x00,
0x74, 0xf1, 0xff, 0xff, 0x08, 0x00, 0x00, 0x00, 0x14, 0x00, 0x00, 0x00, 0x01, 0x00, 0x00, 0x00,
0x80, 0xff, 0xff, 0xff, 0xff, 0xff, 0xff, 0xff, 0x00, 0x00, 0x00, 0x00, 0x01, 0x00, 0x00, 0x00,
0x1c, 0x1c, 0xbc, 0x40, 0x3a, 0x00, 0x00, 0x00, 0x6d, 0x6f, 0x64, 0x65, 0x6c, 0x5f, 0x31, 0x2f,
0x63, 0x6f, 0x6e, 0x76, 0x31, 0x64, 0x2d, 0x73, 0x6d, 0x61, 0x6c, 0x6c, 0x2d, 0x62, 0x61, 0x6c,
0x61, 0x6e, 0x63, 0x65, 0x64, 0x2d, 0x32, 0x2f, 0x6c, 0x61, 0x79, 0x65, 0x72, 0x5f, 0x30, 0x2f,
0x43, 0x6f, 0x6e, 0x76, 0x31, 0x44, 0x2f, 0x45, 0x78, 0x70, 0x61, 0x6e, 0x64, 0x44, 0x69, 0x6d,
0x73, 0x31, 0x00, 0x00, 0x04, 0x00, 0x00, 0x00, 0x01, 0x00, 0x00, 0x00, 0x01, 0x00, 0x00, 0x00,
0x18, 0x00, 0x00, 0x00, 0x03, 0x00, 0x00, 0x00, 0x12, 0xf2, 0xff, 0xff, 0x14, 0x00, 0x00, 0x00,
0xe4, 0x00, 0x00, 0x00, 0x0d, 0x00, 0x00, 0x00, 0x00, 0x00, 0x00, 0x09, 0xb0, 0x01, 0x00, 0x00,
0x04, 0xf2, 0xff, 0xff, 0x08, 0x00, 0x00, 0x00, 0x88, 0x00, 0x00, 0x00, 0x10, 0x00, 0x00, 0x00,
0x00, 0x00, 0x00, 0x00, 0x00, 0x00, 0x00, 0x00, 0x00, 0x00, 0x00, 0x00, 0x00, 0x00, 0x00, 0x00,
0x00, 0x00, 0x00, 0x00, 0x00, 0x00, 0x00, 0x00, 0x00, 0x00, 0x00, 0x00, 0x00, 0x00, 0x00, 0x00,
0x00, 0x00, 0x00, 0x00, 0x00, 0x00, 0x00, 0x00, 0x00, 0x00, 0x00, 0x00, 0x00, 0x00, 0x00, 0x00,
0x00, 0x00, 0x00, 0x00, 0x00, 0x00, 0x00, 0x00, 0x00, 0x00, 0x00, 0x00, 0x00, 0x00, 0x00, 0x00,
0x00, 0x00, 0x00, 0x00, 0x00, 0x00, 0x00, 0x00, 0x00, 0x00, 0x00, 0x00, 0x00, 0x00, 0x00, 0x00,
0x00, 0x00, 0x00, 0x00, 0x00, 0x00, 0x00, 0x00, 0x00, 0x00, 0x00, 0x00, 0x00, 0x00, 0x00, 0x00,
0x00, 0x00, 0x00, 0x00, 0x00, 0x00, 0x00, 0x00, 0x00, 0x00, 0x00, 0x00, 0x00, 0x00, 0x00, 0x00,
0x00, 0x00, 0x00, 0x00, 0x00, 0x00, 0x00, 0x00, 0x00, 0x00, 0x00, 0x00, 0x00, 0x00, 0x00, 0x00,
0x10, 0x00, 0x00, 0x00, 0x93, 0x45, 0xf2, 0x38, 0xdf, 0x26, 0x97, 0x38, 0x9f, 0x0b, 0xa0, 0x37,
0xec, 0x23, 0x75, 0x37, 0xbb, 0x87, 0x28, 0x39, 0x38, 0x9b, 0x3b, 0x38, 0xe0, 0x46, 0x2b, 0x37,
0xb0, 0xf6, 0x43, 0x37, 0x61, 0xef, 0xc7, 0x38, 0x96, 0xd9, 0xbf, 0x38, 0x5c, 0x58, 0xc4, 0x37,
0xb6, 0xa5, 0x35, 0x38, 0x09, 0x37, 0xc2, 0x38, 0x58, 0xfe, 0xe5, 0x37, 0x9c, 0xce, 0x37, 0x38,
0x70, 0x63, 0x26, 0x39, 0xd3, 0x00, 0x00, 0x00, 0x6d, 0x6f, 0x64, 0x65, 0x6c, 0x5f, 0x31, 0x2f,
0x63, 0x6f, 0x6e, 0x76, 0x31, 0x64, 0x2d, 0x73, 0x6d, 0x61, 0x6c, 0x6c, 0x2d, 0x62, 0x61, 0x6c,
0x61, 0x6e, 0x63, 0x65, 0x64, 0x2d, 0x32, 0x2f, 0x6c, 0x61, 0x79, 0x65, 0x72, 0x5f, 0x31, 0x2f,
0x62, 0x61, 0x74, 0x63, 0x68, 0x6e, 0x6f, 0x72, 0x6d, 0x2f, 0x6d, 0x75, 0x6c, 0x5f, 0x31, 0x3b,
0x6d, 0x6f, 0x64, 0x65, 0x6c, 0x5f, 0x31, 0x2f, 0x63, 0x6f, 0x6e, 0x76, 0x31, 0x64, 0x2d, 0x73,
0x6d, 0x61, 0x6c, 0x6c, 0x2d, 0x62, 0x61, 0x6c, 0x61, 0x6e, 0x63, 0x65, 0x64, 0x2d, 0x32, 0x2f,
0x6c, 0x61, 0x79, 0x65, 0x72, 0x5f, 0x30, 0x2f, 0x43, 0x6f, 0x6e, 0x76, 0x31, 0x44, 0x2f, 0x53,
0x71, 0x75, 0x65, 0x65, 0x7a, 0x65, 0x3b, 0x6d, 0x6f, 0x64, 0x65, 0x6c, 0x5f, 0x31, 0x2f, 0x63,
0x6f, 0x6e, 0x76, 0x31, 0x64, 0x2d, 0x73, 0x6d, 0x61, 0x6c, 0x6c, 0x2d, 0x62, 0x61, 0x6c, 0x61,
0x6e, 0x63, 0x65, 0x64, 0x2d, 0x32, 0x2f, 0x6c, 0x61, 0x79, 0x65, 0x72, 0x5f, 0x31, 0x2f, 0x62,
0x61, 0x74, 0x63, 0x68, 0x6e, 0x6f, 0x72, 0x6d, 0x2f, 0x6d, 0x75, 0x6c, 0x3b, 0x6d, 0x6f, 0x64,
0x65, 0x6c, 0x5f, 0x31, 0x2f, 0x63, 0x6f, 0x6e, 0x76, 0x31, 0x64, 0x2d, 0x73, 0x6d, 0x61, 0x6c,
0x6c, 0x2d, 0x62, 0x61, 0x6c, 0x61, 0x6e, 0x63, 0x65, 0x64, 0x2d, 0x32, 0x2f, 0x6c, 0x61, 0x79,
0x65, 0x72, 0x5f, 0x30, 0x2f, 0x43, 0x6f, 0x6e, 0x76, 0x31, 0x44, 0x00, 0x04, 0x00, 0x00, 0x00,
0x10, 0x00, 0x00, 0x00, 0x01, 0x00, 0x00, 0x00, 0x03, 0x00, 0x00, 0x00, 0x03, 0x00, 0x00, 0x00,
0xea, 0xf3, 0xff, 0xff, 0x14, 0x00, 0x00, 0x00, 0xe4, 0x00, 0x00, 0x00, 0x0c, 0x00, 0x00, 0x00,
0x00, 0x00, 0x00, 0x02, 0x14, 0x01, 0x00, 0x00, 0xdc, 0xf3, 0xff, 0xff, 0x08, 0x00, 0x00, 0x00,
0x88, 0x00, 0x00, 0x00, 0x10, 0x00, 0x00, 0x00, 0x00, 0x00, 0x00, 0x00, 0x00, 0x00, 0x00, 0x00,
0x00, 0x00, 0x00, 0x00, 0x00, 0x00, 0x00, 0x00, 0x00, 0x00, 0x00, 0x00, 0x00, 0x00, 0x00, 0x00,
0x00, 0x00, 0x00, 0x00, 0x00, 0x00, 0x00, 0x00, 0x00, 0x00, 0x00, 0x00, 0x00, 0x00, 0x00, 0x00,
0x00, 0x00, 0x00, 0x00, 0x00, 0x00, 0x00, 0x00, 0x00, 0x00, 0x00, 0x00, 0x00, 0x00, 0x00, 0x00,
0x00, 0x00, 0x00, 0x00, 0x00, 0x00, 0x00, 0x00, 0x00, 0x00, 0x00, 0x00, 0x00, 0x00, 0x00, 0x00,
0x00, 0x00, 0x00, 0x00, 0x00, 0x00, 0x00, 0x00, 0x00, 0x00, 0x00, 0x00, 0x00, 0x00, 0x00, 0x00,
0x00, 0x00, 0x00, 0x00, 0x00, 0x00, 0x00, 0x00, 0x00, 0x00, 0x00, 0x00, 0x00, 0x00, 0x00, 0x00,
0x00, 0x00, 0x00, 0x00, 0x00, 0x00, 0x00, 0x00, 0x00, 0x00, 0x00, 0x00, 0x00, 0x00, 0x00, 0x00,
0x00, 0x00, 0x00, 0x00, 0x00, 0x00, 0x00, 0x00, 0x10, 0x00, 0x00, 0x00, 0xb2, 0x05, 0x32, 0x3a,
0x49, 0x22, 0xde, 0x39, 0x37, 0x34, 0xeb, 0x38, 0x4c, 0x21, 0xb4, 0x38, 0x5d, 0xac, 0x77, 0x3a,
0x97, 0xda, 0x89, 0x39, 0xb6, 0xb5, 0x7b, 0x38, 0xae, 0xfe, 0x8f, 0x38, 0xbf, 0xe9, 0x12, 0x3a,
0xdb, 0xf8, 0x0c, 0x3a, 0x73, 0x46, 0x10, 0x39, 0xa4, 0x79, 0x85, 0x39, 0xbe, 0xb5, 0x0e, 0x3a,
0x0a, 0x00, 0x29, 0x39, 0xe9, 0x0f, 0x87, 0x39, 0x97, 0x86, 0x74, 0x3a, 0x35, 0x00, 0x00, 0x00,
0x6d, 0x6f, 0x64, 0x65, 0x6c, 0x5f, 0x31, 0x2f, 0x63, 0x6f, 0x6e, 0x76, 0x31, 0x64, 0x2d, 0x73,
0x6d, 0x61, 0x6c, 0x6c, 0x2d, 0x62, 0x61, 0x6c, 0x61, 0x6e, 0x63, 0x65, 0x64, 0x2d, 0x32, 0x2f,
0x6c, 0x61, 0x79, 0x65, 0x72, 0x5f, 0x31, 0x2f, 0x62, 0x61, 0x74, 0x63, 0x68, 0x6e, 0x6f, 0x72,
0x6d, 0x2f, 0x73, 0x75, 0x62, 0x00, 0x00, 0x00, 0x01, 0x00, 0x00, 0x00, 0x10, 0x00, 0x00, 0x00,
0x1a, 0xf5, 0xff, 0xff, 0x14, 0x00, 0x00, 0x00, 0xa8, 0x01, 0x00, 0x00, 0x0b, 0x00, 0x00, 0x00,
0x00, 0x00, 0x00, 0x09, 0xd0, 0x01, 0x00, 0x00, 0x0c, 0xf5, 0xff, 0xff, 0x08, 0x00, 0x00, 0x00,
0x0c, 0x01, 0x00, 0x00, 0x20, 0x00, 0x00, 0x00, 0x00, 0x00, 0x00, 0x00, 0x00, 0x00, 0x00, 0x00,
0x00, 0x00, 0x00, 0x00, 0x00, 0x00, 0x00, 0x00, 0x00, 0x00, 0x00, 0x00, 0x00, 0x00, 0x00, 0x00,
0x00, 0x00, 0x00, 0x00, 0x00, 0x00, 0x00, 0x00, 0x00, 0x00, 0x00, 0x00, 0x00, 0x00, 0x00, 0x00,
0x00, 0x00, 0x00, 0x00, 0x00, 0x00, 0x00, 0x00, 0x00, 0x00, 0x00, 0x00, 0x00, 0x00, 0x00, 0x00,
0x00, 0x00, 0x00, 0x00, 0x00, 0x00, 0x00, 0x00, 0x00, 0x00, 0x00, 0x00, 0x00, 0x00, 0x00, 0x00,
0x00, 0x00, 0x00, 0x00, 0x00, 0x00, 0x00, 0x00, 0x00, 0x00, 0x00, 0x00, 0x00, 0x00, 0x00, 0x00,
0x00, 0x00, 0x00, 0x00, 0x00, 0x00, 0x00, 0x00, 0x00, 0x00, 0x00, 0x00, 0x00, 0x00, 0x00, 0x00,
0x00, 0x00, 0x00, 0x00, 0x00, 0x00, 0x00, 0x00, 0x00, 0x00, 0x00, 0x00, 0x00, 0x00, 0x00, 0x00,
0x00, 0x00, 0x00, 0x00, 0x00, 0x00, 0x00, 0x00, 0x00, 0x00, 0x00, 0x00, 0x00, 0x00, 0x00, 0x00,
0x00, 0x00, 0x00, 0x00, 0x00, 0x00, 0x00, 0x00, 0x00, 0x00, 0x00, 0x00, 0x00, 0x00, 0x00, 0x00,
0x00, 0x00, 0x00, 0x00, 0x00, 0x00, 0x00, 0x00, 0x00, 0x00, 0x00, 0x00, 0x00, 0x00, 0x00, 0x00,
0x00, 0x00, 0x00, 0x00, 0x00, 0x00, 0x00, 0x00, 0x00, 0x00, 0x00, 0x00, 0x00, 0x00, 0x00, 0x00,
0x00, 0x00, 0x00, 0x00, 0x00, 0x00, 0x00, 0x00, 0x00, 0x00, 0x00, 0x00, 0x00, 0x00, 0x00, 0x00,
0x00, 0x00, 0x00, 0x00, 0x00, 0x00, 0x00, 0x00, 0x00, 0x00, 0x00, 0x00, 0x00, 0x00, 0x00, 0x00,
0x00, 0x00, 0x00, 0x00, 0x00, 0x00, 0x00, 0x00, 0x00, 0x00, 0x00, 0x00, 0x00, 0x00, 0x00, 0x00,
0x00, 0x00, 0x00, 0x00, 0x00, 0x00, 0x00, 0x00, 0x00, 0x00, 0x00, 0x00, 0x00, 0x00, 0x00, 0x00,
0x00, 0x00, 0x00, 0x00, 0x00, 0x00, 0x00, 0x00, 0x00, 0x00, 0x00, 0x00, 0x20, 0x00, 0x00, 0x00,
0x08, 0x09, 0x4e, 0x3c, 0x9c, 0xa4, 0x09, 0x3c, 0xf2, 0x3b, 0x79, 0x3c, 0x69, 0xc2, 0x2f, 0x3c,
0x81, 0x11, 0x40, 0x3c, 0x75, 0x7b, 0x82, 0x3c, 0x0f, 0x5f, 0xd9, 0x3b, 0x2e, 0x00, 0x1c, 0x3c,
0x18, 0xd0, 0x12, 0x3c, 0xfe, 0xd8, 0x43, 0x3c, 0xc2, 0xae, 0x3c, 0x3c, 0xa6, 0x6d, 0x58, 0x3c,
0x05, 0xb0, 0xeb, 0x3b, 0xfd, 0xf4, 0x4c, 0x3c, 0x91, 0xcd, 0xf6, 0x3b, 0x7d, 0xd1, 0xae, 0x3c,
0xd9, 0x9d, 0x49, 0x3c, 0x8f, 0xee, 0x0f, 0x3c, 0x23, 0xec, 0x00, 0x3c, 0x55, 0x18, 0x41, 0x3c,
0x34, 0xec, 0x25, 0x3c, 0xd0, 0x2a, 0xf0, 0x3b, 0x1c, 0xc6, 0x5e, 0x3c, 0x25, 0x98, 0xca, 0x3b,
0x58, 0x61, 0xef, 0x3b, 0x2e, 0x23, 0x78, 0x3c, 0x3a, 0xe5, 0x6b, 0x3c, 0xde, 0x2a, 0x2c, 0x3c,
0x2e, 0xf4, 0x5b, 0x3c, 0x42, 0xa1, 0x35, 0x3c, 0xd4, 0x82, 0x63, 0x3c, 0xd5, 0x73, 0x1e, 0x3c,
0x2e, 0x00, 0x00, 0x00, 0x6d, 0x6f, 0x64, 0x65, 0x6c, 0x5f, 0x31, 0x2f, 0x63, 0x6f, 0x6e, 0x76,
0x31, 0x64, 0x2d, 0x73, 0x6d, 0x61, 0x6c, 0x6c, 0x2d, 0x62, 0x61, 0x6c, 0x61, 0x6e, 0x63, 0x65,
0x64, 0x2d, 0x32, 0x2f, 0x6c, 0x61, 0x79, 0x65, 0x72, 0x5f, 0x33, 0x2f, 0x43, 0x6f, 0x6e, 0x76,
0x31, 0x44, 0x00, 0x00, 0x04, 0x00, 0x00, 0x00, 0x20, 0x00, 0x00, 0x00, 0x01, 0x00, 0x00, 0x00,
0x03, 0x00, 0x00, 0x00, 0x10, 0x00, 0x00, 0x00, 0x12, 0xf7, 0xff, 0xff, 0x14, 0x00, 0x00, 0x00,
0xa4, 0x01, 0x00, 0x00, 0x0a, 0x00, 0x00, 0x00, 0x00, 0x00, 0x00, 0x02, 0xcc, 0x01, 0x00, 0x00,
0x04, 0xf7, 0xff, 0xff, 0x08, 0x00, 0x00, 0x00, 0x08, 0x01, 0x00, 0x00, 0x20, 0x00, 0x00, 0x00,
0x00, 0x00, 0x00, 0x00, 0x00, 0x00, 0x00, 0x00, 0x00, 0x00, 0x00, 0x00, 0x00, 0x00, 0x00, 0x00,
0x00, 0x00, 0x00, 0x00, 0x00, 0x00, 0x00, 0x00, 0x00, 0x00, 0x00, 0x00, 0x00, 0x00, 0x00, 0x00,
0x00, 0x00, 0x00, 0x00, 0x00, 0x00, 0x00, 0x00, 0x00, 0x00, 0x00, 0x00, 0x00, 0x00, 0x00, 0x00,
0x00, 0x00, 0x00, 0x00, 0x00, 0x00, 0x00, 0x00, 0x00, 0x00, 0x00, 0x00, 0x00, 0x00, 0x00, 0x00,
0x00, 0x00, 0x00, 0x00, 0x00, 0x00, 0x00, 0x00, 0x00, 0x00, 0x00, 0x00, 0x00, 0x00, 0x00, 0x00,
0x00, 0x00, 0x00, 0x00, 0x00, 0x00, 0x00, 0x00, 0x00, 0x00, 0x00, 0x00, 0x00, 0x00, 0x00, 0x00,
0x00, 0x00, 0x00, 0x00, 0x00, 0x00, 0x00, 0x00, 0x00, 0x00, 0x00, 0x00, 0x00, 0x00, 0x00, 0x00,
0x00, 0x00, 0x00, 0x00, 0x00, 0x00, 0x00, 0x00, 0x00, 0x00, 0x00, 0x00, 0x00, 0x00, 0x00, 0x00,
0x00, 0x00, 0x00, 0x00, 0x00, 0x00, 0x00, 0x00, 0x00, 0x00, 0x00, 0x00, 0x00, 0x00, 0x00, 0x00,
0x00, 0x00, 0x00, 0x00, 0x00, 0x00, 0x00, 0x00, 0x00, 0x00, 0x00, 0x00, 0x00, 0x00, 0x00, 0x00,
0x00, 0x00, 0x00, 0x00, 0x00, 0x00, 0x00, 0x00, 0x00, 0x00, 0x00, 0x00, 0x00, 0x00, 0x00, 0x00,
0x00, 0x00, 0x00, 0x00, 0x00, 0x00, 0x00, 0x00, 0x00, 0x00, 0x00, 0x00, 0x00, 0x00, 0x00, 0x00,
0x00, 0x00, 0x00, 0x00, 0x00, 0x00, 0x00, 0x00, 0x00, 0x00, 0x00, 0x00, 0x00, 0x00, 0x00, 0x00,
0x00, 0x00, 0x00, 0x00, 0x00, 0x00, 0x00, 0x00, 0x00, 0x00, 0x00, 0x00, 0x00, 0x00, 0x00, 0x00,
0x00, 0x00, 0x00, 0x00, 0x00, 0x00, 0x00, 0x00, 0x00, 0x00, 0x00, 0x00, 0x00, 0x00, 0x00, 0x00,
0x00, 0x00, 0x00, 0x00, 0x00, 0x00, 0x00, 0x00, 0x00, 0x00, 0x00, 0x00, 0x00, 0x00, 0x00, 0x00,
0x20, 0x00, 0x00, 0x00, 0x5a, 0xc3, 0x7c, 0x39, 0x1a, 0xdc, 0x28, 0x39, 0x30, 0xe1, 0x98, 0x39,
0xed, 0x9e, 0x57, 0x39, 0xe9, 0xa0, 0x6b, 0x39, 0x33, 0x13, 0xa0, 0x39, 0xc6, 0x55, 0x05, 0x39,
0x83, 0x61, 0x3f, 0x39, 0xfc, 0x1b, 0x34, 0x39, 0xd2, 0x43, 0x70, 0x39, 0x97, 0x79, 0x67, 0x39,
0xb1, 0xc1, 0x84, 0x39, 0xf8, 0x91, 0x10, 0x39, 0xb4, 0x70, 0x7b, 0x39, 0x6c, 0x63, 0x17, 0x39,
0x5d, 0x77, 0xd6, 0x39, 0x9f, 0x57, 0x77, 0x39, 0x2e, 0x93, 0x30, 0x39, 0x51, 0x29, 0x1e, 0x39,
0x59, 0xe3, 0x6c, 0x39, 0x9a, 0x8d, 0x4b, 0x39, 0x69, 0x51, 0x13, 0x39, 0x22, 0xa6, 0x88, 0x39,
0xaf, 0x8a, 0xf8, 0x38, 0xd4, 0xd5, 0x12, 0x39, 0xf7, 0x34, 0x98, 0x39, 0x9b, 0xb2, 0x90, 0x39,
0xd6, 0x36, 0x53, 0x39, 0x4d, 0xeb, 0x86, 0x39, 0x9d, 0xd2, 0x5e, 0x39, 0x03, 0x8e, 0x8b, 0x39,
0x84, 0x63, 0x42, 0x39, 0x2e, 0x00, 0x00, 0x00, 0x6d, 0x6f, 0x64, 0x65, 0x6c, 0x5f, 0x31, 0x2f,
0x63, 0x6f, 0x6e, 0x76, 0x31, 0x64, 0x2d, 0x73, 0x6d, 0x61, 0x6c, 0x6c, 0x2d, 0x62, 0x61, 0x6c,
0x61, 0x6e, 0x63, 0x65, 0x64, 0x2d, 0x32, 0x2f, 0x6c, 0x61, 0x79, 0x65, 0x72, 0x5f, 0x34, 0x2f,
0x43, 0x6f, 0x6e, 0x76, 0x31, 0x44, 0x00, 0x00, 0x01, 0x00, 0x00, 0x00, 0x20, 0x00, 0x00, 0x00,
0xfa, 0xf8, 0xff, 0xff, 0x14, 0x00, 0x00, 0x00, 0xa4, 0x01, 0x00, 0x00, 0x09, 0x00, 0x00, 0x00,
0x00, 0x00, 0x00, 0x09, 0x70, 0x02, 0x00, 0x00, 0xec, 0xf8, 0xff, 0xff, 0x08, 0x00, 0x00, 0x00,
0x08, 0x01, 0x00, 0x00, 0x20, 0x00, 0x00, 0x00, 0x00, 0x00, 0x00, 0x00, 0x00, 0x00, 0x00, 0x00,
0x00, 0x00, 0x00, 0x00, 0x00, 0x00, 0x00, 0x00, 0x00, 0x00, 0x00, 0x00, 0x00, 0x00, 0x00, 0x00,
0x00, 0x00, 0x00, 0x00, 0x00, 0x00, 0x00, 0x00, 0x00, 0x00, 0x00, 0x00, 0x00, 0x00, 0x00, 0x00,
0x00, 0x00, 0x00, 0x00, 0x00, 0x00, 0x00, 0x00, 0x00, 0x00, 0x00, 0x00, 0x00, 0x00, 0x00, 0x00,
0x00, 0x00, 0x00, 0x00, 0x00, 0x00, 0x00, 0x00, 0x00, 0x00, 0x00, 0x00, 0x00, 0x00, 0x00, 0x00,
0x00, 0x00, 0x00, 0x00, 0x00, 0x00, 0x00, 0x00, 0x00, 0x00, 0x00, 0x00, 0x00, 0x00, 0x00, 0x00,
0x00, 0x00, 0x00, 0x00, 0x00, 0x00, 0x00, 0x00, 0x00, 0x00, 0x00, 0x00, 0x00, 0x00, 0x00, 0x00,
0x00, 0x00, 0x00, 0x00, 0x00, 0x00, 0x00, 0x00, 0x00, 0x00, 0x00, 0x00, 0x00, 0x00, 0x00, 0x00,
0x00, 0x00, 0x00, 0x00, 0x00, 0x00, 0x00, 0x00, 0x00, 0x00, 0x00, 0x00, 0x00, 0x00, 0x00, 0x00,
0x00, 0x00, 0x00, 0x00, 0x00, 0x00, 0x00, 0x00, 0x00, 0x00, 0x00, 0x00, 0x00, 0x00, 0x00, 0x00,
0x00, 0x00, 0x00, 0x00, 0x00, 0x00, 0x00, 0x00, 0x00, 0x00, 0x00, 0x00, 0x00, 0x00, 0x00, 0x00,
0x00, 0x00, 0x00, 0x00, 0x00, 0x00, 0x00, 0x00, 0x00, 0x00, 0x00, 0x00, 0x00, 0x00, 0x00, 0x00,
0x00, 0x00, 0x00, 0x00, 0x00, 0x00, 0x00, 0x00, 0x00, 0x00, 0x00, 0x00, 0x00, 0x00, 0x00, 0x00,
0x00, 0x00, 0x00, 0x00, 0x00, 0x00, 0x00, 0x00, 0x00, 0x00, 0x00, 0x00, 0x00, 0x00, 0x00, 0x00,
0x00, 0x00, 0x00, 0x00, 0x00, 0x00, 0x00, 0x00, 0x00, 0x00, 0x00, 0x00, 0x00, 0x00, 0x00, 0x00,
0x00, 0x00, 0x00, 0x00, 0x00, 0x00, 0x00, 0x00, 0x00, 0x00, 0x00, 0x00, 0x00, 0x00, 0x00, 0x00,
0x00, 0x00, 0x00, 0x00, 0x00, 0x00, 0x00, 0x00, 0x20, 0x00, 0x00, 0x00, 0xad, 0xc8, 0x64, 0x3a,
0x3b, 0x0d, 0x18, 0x3b, 0xa1, 0xfe, 0x03, 0x3b, 0x21, 0xe6, 0x00, 0x3b, 0x51, 0x78, 0xf4, 0x3a,
0x74, 0x8c, 0x3e, 0x3a, 0x41, 0x3f, 0x4a, 0x3b, 0x52, 0x6a, 0x06, 0x3b, 0x5e, 0x63, 0xb6, 0x3a,
0x48, 0x00, 0x30, 0x3a, 0x6d, 0xb1, 0xe1, 0x3a, 0x56, 0xe6, 0x9e, 0x3a, 0xdb, 0x81, 0x8e, 0x3a,
0x72, 0x3e, 0xdd, 0x3a, 0x8f, 0x24, 0x13, 0x3b, 0xb3, 0xad, 0x18, 0x3b, 0xbc, 0xb1, 0x2e, 0x3b,
0xee, 0x9e, 0xae, 0x3a, 0x0b, 0xa7, 0xd9, 0x3a, 0xba, 0x5e, 0x3d, 0x3b, 0x0f, 0xf5, 0xb3, 0x3a,
0xfa, 0x4b, 0x07, 0x3b, 0x7f, 0x9e, 0x1b, 0x3b, 0x58, 0xdc, 0x86, 0x3a, 0xcc, 0x52, 0xc9, 0x3a,
0xef, 0x59, 0x9d, 0x3a, 0x76, 0x08, 0x84, 0x3a, 0xe6, 0x83, 0xf3, 0x3a, 0x54, 0x3d, 0x7f, 0x3a,
0x31, 0xe6, 0x0b, 0x3b, 0x23, 0x36, 0x81, 0x3a, 0x7e, 0xc3, 0xc8, 0x3a, 0xd3, 0x00, 0x00, 0x00,
0x6d, 0x6f, 0x64, 0x65, 0x6c, 0x5f, 0x31, 0x2f, 0x63, 0x6f, 0x6e, 0x76, 0x31, 0x64, 0x2d, 0x73,
0x6d, 0x61, 0x6c, 0x6c, 0x2d, 0x62, 0x61, 0x6c, 0x61, 0x6e, 0x63, 0x65, 0x64, 0x2d, 0x32, 0x2f,
0x6c, 0x61, 0x79, 0x65, 0x72, 0x5f, 0x35, 0x2f, 0x62, 0x61, 0x74, 0x63, 0x68, 0x6e, 0x6f, 0x72,
0x6d, 0x2f, 0x6d, 0x75, 0x6c, 0x5f, 0x31, 0x3b, 0x6d, 0x6f, 0x64, 0x65, 0x6c, 0x5f, 0x31, 0x2f,
0x63, 0x6f, 0x6e, 0x76, 0x31, 0x64, 0x2d, 0x73, 0x6d, 0x61, 0x6c, 0x6c, 0x2d, 0x62, 0x61, 0x6c,
0x61, 0x6e, 0x63, 0x65, 0x64, 0x2d, 0x32, 0x2f, 0x6c, 0x61, 0x79, 0x65, 0x72, 0x5f, 0x34, 0x2f,
0x43, 0x6f, 0x6e, 0x76, 0x31, 0x44, 0x2f, 0x53, 0x71, 0x75, 0x65, 0x65, 0x7a, 0x65, 0x3b, 0x6d,
0x6f, 0x64, 0x65, 0x6c, 0x5f, 0x31, 0x2f, 0x63, 0x6f, 0x6e, 0x76, 0x31, 0x64, 0x2d, 0x73, 0x6d,
0x61, 0x6c, 0x6c, 0x2d, 0x62, 0x61, 0x6c, 0x61, 0x6e, 0x63, 0x65, 0x64, 0x2d, 0x32, 0x2f, 0x6c,
0x61, 0x79, 0x65, 0x72, 0x5f, 0x35, 0x2f, 0x62, 0x61, 0x74, 0x63, 0x68, 0x6e, 0x6f, 0x72, 0x6d,
0x2f, 0x6d, 0x75, 0x6c, 0x3b, 0x6d, 0x6f, 0x64, 0x65, 0x6c, 0x5f, 0x31, 0x2f, 0x63, 0x6f, 0x6e,
0x76, 0x31, 0x64, 0x2d, 0x73, 0x6d, 0x61, 0x6c, 0x6c, 0x2d, 0x62, 0x61, 0x6c, 0x61, 0x6e, 0x63,
0x65, 0x64, 0x2d, 0x32, 0x2f, 0x6c, 0x61, 0x79, 0x65, 0x72, 0x5f, 0x34, 0x2f, 0x43, 0x6f, 0x6e,
0x76, 0x31, 0x44, 0x00, 0x04, 0x00, 0x00, 0x00, 0x20, 0x00, 0x00, 0x00, 0x01, 0x00, 0x00, 0x00,
0x03, 0x00, 0x00, 0x00, 0x20, 0x00, 0x00, 0x00, 0x92, 0xfb, 0xff, 0xff, 0x14, 0x00, 0x00, 0x00,
0xa4, 0x01, 0x00, 0x00, 0x08, 0x00, 0x00, 0x00, 0x00, 0x00, 0x00, 0x02, 0xd4, 0x01, 0x00, 0x00,
0x84, 0xfb, 0xff, 0xff, 0x08, 0x00, 0x00, 0x00, 0x08, 0x01, 0x00, 0x00, 0x20, 0x00, 0x00, 0x00,
0x00, 0x00, 0x00, 0x00, 0x00, 0x00, 0x00, 0x00, 0x00, 0x00, 0x00, 0x00, 0x00, 0x00, 0x00, 0x00,
0x00, 0x00, 0x00, 0x00, 0x00, 0x00, 0x00, 0x00, 0x00, 0x00, 0x00, 0x00, 0x00, 0x00, 0x00, 0x00,
0x00, 0x00, 0x00, 0x00, 0x00, 0x00, 0x00, 0x00, 0x00, 0x00, 0x00, 0x00, 0x00, 0x00, 0x00, 0x00,
0x00, 0x00, 0x00, 0x00, 0x00, 0x00, 0x00, 0x00, 0x00, 0x00, 0x00, 0x00, 0x00, 0x00, 0x00, 0x00,
0x00, 0x00, 0x00, 0x00, 0x00, 0x00, 0x00, 0x00, 0x00, 0x00, 0x00, 0x00, 0x00, 0x00, 0x00, 0x00,
0x00, 0x00, 0x00, 0x00, 0x00, 0x00, 0x00, 0x00, 0x00, 0x00, 0x00, 0x00, 0x00, 0x00, 0x00, 0x00,
0x00, 0x00, 0x00, 0x00, 0x00, 0x00, 0x00, 0x00, 0x00, 0x00, 0x00, 0x00, 0x00, 0x00, 0x00, 0x00,
0x00, 0x00, 0x00, 0x00, 0x00, 0x00, 0x00, 0x00, 0x00, 0x00, 0x00, 0x00, 0x00, 0x00, 0x00, 0x00,
0x00, 0x00, 0x00, 0x00, 0x00, 0x00, 0x00, 0x00, 0x00, 0x00, 0x00, 0x00, 0x00, 0x00, 0x00, 0x00,
0x00, 0x00, 0x00, 0x00, 0x00, 0x00, 0x00, 0x00, 0x00, 0x00, 0x00, 0x00, 0x00, 0x00, 0x00, 0x00,
0x00, 0x00, 0x00, 0x00, 0x00, 0x00, 0x00, 0x00, 0x00, 0x00, 0x00, 0x00, 0x00, 0x00, 0x00, 0x00,
0x00, 0x00, 0x00, 0x00, 0x00, 0x00, 0x00, 0x00, 0x00, 0x00, 0x00, 0x00, 0x00, 0x00, 0x00, 0x00,
0x00, 0x00, 0x00, 0x00, 0x00, 0x00, 0x00, 0x00, 0x00, 0x00, 0x00, 0x00, 0x00, 0x00, 0x00, 0x00,
0x00, 0x00, 0x00, 0x00, 0x00, 0x00, 0x00, 0x00, 0x00, 0x00, 0x00, 0x00, 0x00, 0x00, 0x00, 0x00,
0x00, 0x00, 0x00, 0x00, 0x00, 0x00, 0x00, 0x00, 0x00, 0x00, 0x00, 0x00, 0x00, 0x00, 0x00, 0x00,
0x00, 0x00, 0x00, 0x00, 0x00, 0x00, 0x00, 0x00, 0x00, 0x00, 0x00, 0x00, 0x00, 0x00, 0x00, 0x00,
0x20, 0x00, 0x00, 0x00, 0x4d, 0x2a, 0x77, 0x38, 0xa1, 0x44, 0x24, 0x39, 0x7e, 0x99, 0x0e, 0x39,
0x52, 0x41, 0x0b, 0x39, 0x49, 0x0e, 0x04, 0x39, 0xa8, 0xdb, 0x4d, 0x38, 0x12, 0x7f, 0x5a, 0x39,
0xf9, 0x36, 0x11, 0x39, 0xba, 0x0a, 0xc5, 0x38, 0x45, 0x24, 0x3e, 0x38, 0x7b, 0xd3, 0xf3, 0x38,
0x96, 0xaa, 0xab, 0x38, 0xf2, 0xf4, 0x99, 0x38, 0xfd, 0x04, 0xef, 0x38, 0xfe, 0xf6, 0x1e, 0x39,
0xfd, 0xf1, 0x24, 0x39, 0xd8, 0xba, 0x3c, 0x39, 0x88, 0xa6, 0xbc, 0x38, 0xb8, 0x23, 0xeb, 0x38,
0xb0, 0x95, 0x4c, 0x39, 0x6b, 0x6a, 0xc2, 0x38, 0xc3, 0x2a, 0x12, 0x39, 0x45, 0x1f, 0x28, 0x39,
0x28, 0xb2, 0x91, 0x38, 0x9e, 0x7f, 0xd9, 0x38, 0x56, 0xfe, 0xa9, 0x38, 0x1e, 0xa4, 0x8e, 0x38,
0x42, 0x8a, 0x03, 0x39, 0x8c, 0xdf, 0x89, 0x38, 0xa3, 0x23, 0x17, 0x39, 0xc2, 0x97, 0x8b, 0x38,
0xcc, 0xe4, 0xd8, 0x38, 0x35, 0x00, 0x00, 0x00, 0x6d, 0x6f, 0x64, 0x65, 0x6c, 0x5f, 0x31, 0x2f,
0x63, 0x6f, 0x6e, 0x76, 0x31, 0x64, 0x2d, 0x73, 0x6d, 0x61, 0x6c, 0x6c, 0x2d, 0x62, 0x61, 0x6c,
0x61, 0x6e, 0x63, 0x65, 0x64, 0x2d, 0x32, 0x2f, 0x6c, 0x61, 0x79, 0x65, 0x72, 0x5f, 0x35, 0x2f,
0x62, 0x61, 0x74, 0x63, 0x68, 0x6e, 0x6f, 0x72, 0x6d, 0x2f, 0x73, 0x75, 0x62, 0x00, 0x00, 0x00,
0x01, 0x00, 0x00, 0x00, 0x20, 0x00, 0x00, 0x00, 0x82, 0xfd, 0xff, 0xff, 0x14, 0x00, 0x00, 0x00,
0x30, 0x00, 0x00, 0x00, 0x07, 0x00, 0x00, 0x00, 0x00, 0x00, 0x00, 0x09, 0x58, 0x00, 0x00, 0x00,
0x74, 0xfd, 0xff, 0xff, 0x08, 0x00, 0x00, 0x00, 0x10, 0x00, 0x00, 0x00, 0x01, 0x00, 0x00, 0x00,
0x00, 0x00, 0x00, 0x00, 0x00, 0x00, 0x00, 0x00, 0x01, 0x00, 0x00, 0x00, 0x50, 0xe9, 0x34, 0x3c,
0x2e, 0x00, 0x00, 0x00, 0x6d, 0x6f, 0x64, 0x65, 0x6c, 0x5f, 0x31, 0x2f, 0x63, 0x6f, 0x6e, 0x76,
0x31, 0x64, 0x2d, 0x73, 0x6d, 0x61, 0x6c, 0x6c, 0x2d, 0x62, 0x61, 0x6c, 0x61, 0x6e, 0x63, 0x65,
0x64, 0x2d, 0x32, 0x2f, 0x6c, 0x61, 0x79, 0x65, 0x72, 0x5f, 0x39, 0x2f, 0x4d, 0x61, 0x74, 0x4d,
0x75, 0x6c, 0x00, 0x00, 0x02, 0x00, 0x00, 0x00, 0x02, 0x00, 0x00, 0x00, 0x20, 0x00, 0x00, 0x00,
0xfa, 0xfd, 0xff, 0xff, 0x14, 0x00, 0x00, 0x00, 0x30, 0x00, 0x00, 0x00, 0x06, 0x00, 0x00, 0x00,
0x00, 0x00, 0x00, 0x02, 0x68, 0x00, 0x00, 0x00, 0xec, 0xfd, 0xff, 0xff, 0x08, 0x00, 0x00, 0x00,
0x10, 0x00, 0x00, 0x00, 0x01, 0x00, 0x00, 0x00, 0x00, 0x00, 0x00, 0x00, 0x00, 0x00, 0x00, 0x00,
0x01, 0x00, 0x00, 0x00, 0x41, 0x34, 0x20, 0x39, 0x3e, 0x00, 0x00, 0x00, 0x6d, 0x6f, 0x64, 0x65,
0x6c, 0x5f, 0x31, 0x2f, 0x63, 0x6f, 0x6e, 0x76, 0x31, 0x64, 0x2d, 0x73, 0x6d, 0x61, 0x6c, 0x6c,
0x2d, 0x62, 0x61, 0x6c, 0x61, 0x6e, 0x63, 0x65, 0x64, 0x2d, 0x32, 0x2f, 0x6c, 0x61, 0x79, 0x65,
0x72, 0x5f, 0x39, 0x2f, 0x42, 0x69, 0x61, 0x73, 0x41, 0x64, 0x64, 0x2f, 0x52, 0x65, 0x61, 0x64,
0x56, 0x61, 0x72, 0x69, 0x61, 0x62, 0x6c, 0x65, 0x4f, 0x70, 0x00, 0x00, 0x01, 0x00, 0x00, 0x00,
0x02, 0x00, 0x00, 0x00, 0x7e, 0xfe, 0xff, 0xff, 0x14, 0x00, 0x00, 0x00, 0x14, 0x00, 0x00, 0x00,
0x05, 0x00, 0x00, 0x00, 0x00, 0x00, 0x00, 0x02, 0x4c, 0x00, 0x00, 0x00, 0xe8, 0xfe, 0xff, 0xff,
0x3e, 0x00, 0x00, 0x00, 0x6d, 0x6f, 0x64, 0x65, 0x6c, 0x5f, 0x31, 0x2f, 0x63, 0x6f, 0x6e, 0x76,
0x31, 0x64, 0x2d, 0x73, 0x6d, 0x61, 0x6c, 0x6c, 0x2d, 0x62, 0x61, 0x6c, 0x61, 0x6e, 0x63, 0x65,
0x64, 0x2d, 0x32, 0x2f, 0x6c, 0x61, 0x79, 0x65, 0x72, 0x5f, 0x38, 0x2f, 0x4d, 0x65, 0x61, 0x6e,
0x2f, 0x72, 0x65, 0x64, 0x75, 0x63, 0x74, 0x69, 0x6f, 0x6e, 0x5f, 0x69, 0x6e, 0x64, 0x69, 0x63,
0x65, 0x73, 0x00, 0x00, 0x00, 0x00, 0x00, 0x00, 0xe2, 0xfe, 0xff, 0xff, 0x14, 0x00, 0x00, 0x00,
0x14, 0x00, 0x00, 0x00, 0x04, 0x00, 0x00, 0x00, 0x00, 0x00, 0x00, 0x02, 0x3c, 0x00, 0x00, 0x00,
0x4c, 0xff, 0xff, 0xff, 0x2f, 0x00, 0x00, 0x00, 0x6d, 0x6f, 0x64, 0x65, 0x6c, 0x5f, 0x31, 0x2f,
0x63, 0x6f, 0x6e, 0x76, 0x31, 0x64, 0x2d, 0x73, 0x6d, 0x61, 0x6c, 0x6c, 0x2d, 0x62, 0x61, 0x6c,
0x61, 0x6e, 0x63, 0x65, 0x64, 0x2d, 0x32, 0x2f, 0x6c, 0x61, 0x79, 0x65, 0x72, 0x5f, 0x37, 0x2f,
0x53, 0x71, 0x75, 0x65, 0x65, 0x7a, 0x65, 0x00, 0x01, 0x00, 0x00, 0x00, 0x03, 0x00, 0x00, 0x00,
0x3a, 0xff, 0xff, 0xff, 0x14, 0x00, 0x00, 0x00, 0x14, 0x00, 0x00, 0x00, 0x03, 0x00, 0x00, 0x00,
0x00, 0x00, 0x00, 0x02, 0x40, 0x00, 0x00, 0x00, 0xa4, 0xff, 0xff, 0xff, 0x32, 0x00, 0x00, 0x00,
0x6d, 0x6f, 0x64, 0x65, 0x6c, 0x5f, 0x31, 0x2f, 0x63, 0x6f, 0x6e, 0x76, 0x31, 0x64, 0x2d, 0x73,
0x6d, 0x61, 0x6c, 0x6c, 0x2d, 0x62, 0x61, 0x6c, 0x61, 0x6e, 0x63, 0x65, 0x64, 0x2d, 0x32, 0x2f,
0x6c, 0x61, 0x79, 0x65, 0x72, 0x5f, 0x37, 0x2f, 0x45, 0x78, 0x70, 0x61, 0x6e, 0x64, 0x44, 0x69,
0x6d, 0x73, 0x00, 0x00, 0x01, 0x00, 0x00, 0x00, 0x04, 0x00, 0x00, 0x00, 0x96, 0xff, 0xff, 0xff,
0x18, 0x00, 0x00, 0x00, 0x18, 0x00, 0x00, 0x00, 0x02, 0x00, 0x00, 0x00, 0x00, 0x00, 0x00, 0x02,
0x4c, 0x00, 0x00, 0x00, 0x04, 0x00, 0x04, 0x00, 0x04, 0x00, 0x00, 0x00, 0x39, 0x00, 0x00, 0x00,
0x6d, 0x6f, 0x64, 0x65, 0x6c, 0x5f, 0x31, 0x2f, 0x63, 0x6f, 0x6e, 0x76, 0x31, 0x64, 0x2d, 0x73,
0x6d, 0x61, 0x6c, 0x6c, 0x2d, 0x62, 0x61, 0x6c, 0x61, 0x6e, 0x63, 0x65, 0x64, 0x2d, 0x32, 0x2f,
0x6c, 0x61, 0x79, 0x65, 0x72, 0x5f, 0x30, 0x2f, 0x43, 0x6f, 0x6e, 0x76, 0x31, 0x44, 0x2f, 0x45,
0x78, 0x70, 0x61, 0x6e, 0x64, 0x44, 0x69, 0x6d, 0x73, 0x00, 0x00, 0x00, 0x01, 0x00, 0x00, 0x00,
0x04, 0x00, 0x00, 0x00, 0x00, 0x00, 0x0e, 0x00, 0x18, 0x00, 0x14, 0x00, 0x13, 0x00, 0x0c, 0x00,
0x08, 0x00, 0x04, 0x00, 0x0e, 0x00, 0x00, 0x00, 0x20, 0x00, 0x00, 0x00, 0x40, 0x00, 0x00, 0x00,
0x01, 0x00, 0x00, 0x00, 0x00, 0x00, 0x00, 0x09, 0x54, 0x00, 0x00, 0x00, 0x0c, 0x00, 0x0c, 0x00,
0x00, 0x00, 0x00, 0x00, 0x08, 0x00, 0x04, 0x00, 0x0c, 0x00, 0x00, 0x00, 0x08, 0x00, 0x00, 0x00,
0x14, 0x00, 0x00, 0x00, 0x01, 0x00, 0x00, 0x00, 0x80, 0xff, 0xff, 0xff, 0xff, 0xff, 0xff, 0xff,
0x00, 0x00, 0x00, 0x00, 0x01, 0x00, 0x00, 0x00, 0x1c, 0x1c, 0xbc, 0x40, 0x19, 0x00, 0x00, 0x00,
0x73, 0x65, 0x72, 0x76, 0x69, 0x6e, 0x67, 0x5f, 0x64, 0x65, 0x66, 0x61, 0x75, 0x6c, 0x74, 0x5f,
0x69, 0x6e, 0x70, 0x75, 0x74, 0x5f, 0x32, 0x3a, 0x30, 0x00, 0x00, 0x00, 0x03, 0x00, 0x00, 0x00,
0x01, 0x00, 0x00, 0x00, 0x18, 0x00, 0x00, 0x00, 0x03, 0x00, 0x00, 0x00, 0x06, 0x00, 0x00, 0x00,
0x68, 0x00, 0x00, 0x00, 0x54, 0x00, 0x00, 0x00, 0x3c, 0x00, 0x00, 0x00, 0x2c, 0x00, 0x00, 0x00,
0x14, 0x00, 0x00, 0x00, 0x04, 0x00, 0x00, 0x00, 0xea, 0xff, 0xff, 0xff, 0x02, 0x00, 0x00, 0x00,
0x00, 0x00, 0x00, 0x19, 0xd6, 0xff, 0xff, 0xff, 0x04, 0x00, 0x00, 0x00, 0x00, 0x09, 0x0a, 0x00,
0x0c, 0x00, 0x0b, 0x00, 0x00, 0x00, 0x04, 0x00, 0x0a, 0x00, 0x00, 0x00, 0x02, 0x00, 0x00, 0x00,
0x00, 0x00, 0x00, 0x28, 0xf6, 0xff, 0xff, 0xff, 0x02, 0x00, 0x00, 0x00, 0x00, 0x11, 0x0a, 0x00,
0x0a, 0x00, 0x09, 0x00, 0x00, 0x00, 0x04, 0x00, 0x0a, 0x00, 0x00, 0x00, 0x03, 0x00, 0x00, 0x00,
0x00, 0x03, 0x06, 0x00, 0x08, 0x00, 0x07, 0x00, 0x06, 0x00, 0x00, 0x00, 0x00, 0x00, 0x00, 0x16
};

