/***************************************************************************//**
* \file MODEL_tflm_model_int8x8.c
*
* \brief
* Autogenerated with ml-coretools, this file contains MODEL model data.
* Date: 2024-10-09 17:36:34.277804
*******************************************************************************
* \copyright
* Copyright 2024, Cypress Semiconductor Corporation (an Infineon company).
* All rights reserved.
* You may use this file only in accordance with the license, terms, conditions,
* disclaimers, and limitations in the end user license agreement accompanying
* the software package with which this file was provided.
******************************************************************************/


#include "MODEL_tflm_model_int8x8.h"


#ifdef CY_ML_MODEL_MEM
#include "cy_utils.h"
#define Q(x) #x
#define QUOTE(x) Q(x)
CY_SECTION(QUOTE(CY_ML_MODEL_MEM))
const
#endif

uint8_t MODEL_model_bin[MODEL_MODEL_BIN_LEN] __attribute__((aligned(4))) = {
0x28, 0x00, 0x00, 0x00, 0x54, 0x46, 0x4c, 0x33, 0x00, 0x00, 0x00, 0x00, 0x00, 0x00, 0x00, 0x00,
0x00, 0x00, 0x00, 0x00, 0x00, 0x00, 0x12, 0x00, 0x1c, 0x00, 0x18, 0x00, 0x14, 0x00, 0x10, 0x00,
0x0c, 0x00, 0x08, 0x00, 0x00, 0x00, 0x04, 0x00, 0x12, 0x00, 0x00, 0x00, 0x18, 0x00, 0x00, 0x00,
0x70, 0x00, 0x00, 0x00, 0x38, 0x17, 0x00, 0x00, 0x48, 0x17, 0x00, 0x00, 0x60, 0x30, 0x00, 0x00,
0x03, 0x00, 0x00, 0x00, 0x02, 0x00, 0x00, 0x00, 0x34, 0x00, 0x00, 0x00, 0x04, 0x00, 0x00, 0x00,
0xdc, 0xff, 0xff, 0xff, 0x19, 0x00, 0x00, 0x00, 0x04, 0x00, 0x00, 0x00, 0x13, 0x00, 0x00, 0x00,
0x43, 0x4f, 0x4e, 0x56, 0x45, 0x52, 0x53, 0x49, 0x4f, 0x4e, 0x5f, 0x4d, 0x45, 0x54, 0x41, 0x44,
0x41, 0x54, 0x41, 0x00, 0x08, 0x00, 0x0c, 0x00, 0x08, 0x00, 0x04, 0x00, 0x08, 0x00, 0x00, 0x00,
0x18, 0x00, 0x00, 0x00, 0x04, 0x00, 0x00, 0x00, 0x13, 0x00, 0x00, 0x00, 0x6d, 0x69, 0x6e, 0x5f,
0x72, 0x75, 0x6e, 0x74, 0x69, 0x6d, 0x65, 0x5f, 0x76, 0x65, 0x72, 0x73, 0x69, 0x6f, 0x6e, 0x00,
0x1a, 0x00, 0x00, 0x00, 0xb8, 0x16, 0x00, 0x00, 0xa4, 0x16, 0x00, 0x00, 0x78, 0x16, 0x00, 0x00,
0x54, 0x16, 0x00, 0x00, 0x34, 0x16, 0x00, 0x00, 0x18, 0x16, 0x00, 0x00, 0x00, 0x16, 0x00, 0x00,
0xa4, 0x15, 0x00, 0x00, 0x10, 0x15, 0x00, 0x00, 0xfc, 0x08, 0x00, 0x00, 0x68, 0x08, 0x00, 0x00,
0x54, 0x02, 0x00, 0x00, 0x00, 0x02, 0x00, 0x00, 0x5c, 0x01, 0x00, 0x00, 0x50, 0x01, 0x00, 0x00,
0x3c, 0x01, 0x00, 0x00, 0x28, 0x01, 0x00, 0x00, 0x14, 0x01, 0x00, 0x00, 0x00, 0x01, 0x00, 0x00,
0xec, 0x00, 0x00, 0x00, 0xd8, 0x00, 0x00, 0x00, 0xc4, 0x00, 0x00, 0x00, 0xb0, 0x00, 0x00, 0x00,
0x9c, 0x00, 0x00, 0x00, 0x70, 0x00, 0x00, 0x00, 0x04, 0x00, 0x00, 0x00, 0x0a, 0xe9, 0xff, 0xff,
0x04, 0x00, 0x00, 0x00, 0x58, 0x00, 0x00, 0x00, 0x0c, 0x00, 0x00, 0x00, 0x08, 0x00, 0x0e, 0x00,
0x08, 0x00, 0x04, 0x00, 0x08, 0x00, 0x00, 0x00, 0x10, 0x00, 0x00, 0x00, 0x28, 0x00, 0x00, 0x00,
0x00, 0x00, 0x06, 0x00, 0x08, 0x00, 0x04, 0x00, 0x06, 0x00, 0x00, 0x00, 0x04, 0x00, 0x00, 0x00,
0x01, 0x00, 0x00, 0x00, 0xeb, 0x03, 0x00, 0x00, 0x00, 0x00, 0x0a, 0x00, 0x10, 0x00, 0x0c, 0x00,
0x08, 0x00, 0x04, 0x00, 0x0a, 0x00, 0x00, 0x00, 0x02, 0x00, 0x00, 0x00, 0x02, 0x00, 0x00, 0x00,
0x04, 0x00, 0x00, 0x00, 0x06, 0x00, 0x00, 0x00, 0x32, 0x2e, 0x31, 0x34, 0x2e, 0x31, 0x00, 0x00,
0x00, 0x00, 0x00, 0x00, 0x72, 0xe9, 0xff, 0xff, 0x04, 0x00, 0x00, 0x00, 0x10, 0x00, 0x00, 0x00,
0x31, 0x2e, 0x31, 0x34, 0x2e, 0x30, 0x00, 0x00, 0x00, 0x00, 0x00, 0x00, 0x00, 0x00, 0x00, 0x00,
0x00, 0x00, 0x00, 0x00, 0x00, 0x00, 0x00, 0x00, 0x00, 0x00, 0x00, 0x00, 0xd8, 0xd1, 0xff, 0xff,
0x00, 0x00, 0x00, 0x00, 0x00, 0x00, 0x00, 0x00, 0x00, 0x00, 0x00, 0x00, 0xe8, 0xd1, 0xff, 0xff,
0x00, 0x00, 0x00, 0x00, 0x00, 0x00, 0x00, 0x00, 0x00, 0x00, 0x00, 0x00, 0xf8, 0xd1, 0xff, 0xff,
0x00, 0x00, 0x00, 0x00, 0x00, 0x00, 0x00, 0x00, 0x00, 0x00, 0x00, 0x00, 0x08, 0xd2, 0xff, 0xff,
0x00, 0x00, 0x00, 0x00, 0x00, 0x00, 0x00, 0x00, 0x00, 0x00, 0x00, 0x00, 0x18, 0xd2, 0xff, 0xff,
0x00, 0x00, 0x00, 0x00, 0x00, 0x00, 0x00, 0x00, 0x00, 0x00, 0x00, 0x00, 0x28, 0xd2, 0xff, 0xff,
0x00, 0x00, 0x00, 0x00, 0x00, 0x00, 0x00, 0x00, 0x00, 0x00, 0x00, 0x00, 0x38, 0xd2, 0xff, 0xff,
0x00, 0x00, 0x00, 0x00, 0x00, 0x00, 0x00, 0x00, 0x00, 0x00, 0x00, 0x00, 0x48, 0xd2, 0xff, 0xff,
0x00, 0x00, 0x00, 0x00, 0x00, 0x00, 0x00, 0x00, 0x00, 0x00, 0x00, 0x00, 0x58, 0xd2, 0xff, 0xff,
0x00, 0x00, 0x00, 0x00, 0x00, 0x00, 0x00, 0x00, 0x00, 0x00, 0x00, 0x00, 0x68, 0xd2, 0xff, 0xff,
0x00, 0x00, 0x00, 0x00, 0x32, 0xea, 0xff, 0xff, 0x04, 0x00, 0x00, 0x00, 0x90, 0x00, 0x00, 0x00,
0x03, 0x81, 0x07, 0x0a, 0xe3, 0x0d, 0x05, 0xf7, 0x06, 0xfd, 0x35, 0xe3, 0x0b, 0x7f, 0xf1, 0xc6,
0xf8, 0xd8, 0xf3, 0x7f, 0xbe, 0xee, 0x8e, 0xd2, 0x09, 0x0d, 0xf5, 0x04, 0x7f, 0xc6, 0xf7, 0x05,
0xa5, 0x02, 0x21, 0xf0, 0x58, 0xb9, 0x7f, 0xc4, 0xb8, 0x2b, 0xc6, 0x3a, 0xb3, 0x78, 0x33, 0x3e,
0x7f, 0x5e, 0x69, 0x26, 0xf5, 0x11, 0x38, 0x7f, 0xe5, 0x45, 0x1d, 0x13, 0x4f, 0x56, 0xf0, 0x01,
0x81, 0x09, 0x08, 0xd2, 0x0f, 0x0a, 0x12, 0x06, 0xcf, 0x73, 0xc8, 0x28, 0x7f, 0x02, 0xd6, 0xfa,
0xf9, 0xdc, 0x81, 0xf1, 0xf6, 0xcc, 0xf0, 0x05, 0xff, 0x0c, 0xad, 0x81, 0x0e, 0xb4, 0x08, 0x0d,
0xf7, 0x1e, 0xf8, 0xf1, 0x81, 0xf5, 0x05, 0xf4, 0xff, 0x00, 0xf6, 0xec, 0xe7, 0xe3, 0xc8, 0xa6,
0x42, 0x81, 0xe3, 0x41, 0x83, 0xf1, 0xc9, 0x07, 0xf6, 0x81, 0x08, 0xfa, 0xfb, 0x07, 0x81, 0xf3,
0xbd, 0xd8, 0x8f, 0x24, 0x2a, 0xe9, 0x7d, 0x03, 0x81, 0x02, 0x05, 0xed, 0x04, 0x03, 0xf9, 0x00,
0x00, 0x00, 0x00, 0x00, 0xd2, 0xea, 0xff, 0xff, 0x04, 0x00, 0x00, 0x00, 0x40, 0x00, 0x00, 0x00,
0x9c, 0x6f, 0x00, 0x00, 0x60, 0xa2, 0xff, 0xff, 0xfd, 0x05, 0x00, 0x00, 0x30, 0x86, 0xff, 0xff,
0xfa, 0x53, 0x00, 0x00, 0x9c, 0x98, 0xfe, 0xff, 0xfb, 0xbf, 0xfe, 0xff, 0x2e, 0x62, 0x00, 0x00,
0x7d, 0x70, 0xff, 0xff, 0x53, 0xaf, 0x00, 0x00, 0xd6, 0xd0, 0x00, 0x00, 0x6e, 0x6a, 0x00, 0x00,
0x1d, 0x3a, 0x00, 0x00, 0xa0, 0xab, 0x00, 0x00, 0xdb, 0xd1, 0x00, 0x00, 0xd4, 0x6d, 0x00, 0x00,
0x00, 0x00, 0x00, 0x00, 0x22, 0xeb, 0xff, 0xff, 0x04, 0x00, 0x00, 0x00, 0x00, 0x06, 0x00, 0x00,
0xd5, 0xf1, 0xc9, 0xe4, 0xf2, 0xb3, 0x81, 0xaf, 0x24, 0x13, 0x5f, 0xed, 0xe8, 0x7e, 0x48, 0x88,
0x7e, 0xfa, 0x9a, 0x13, 0x40, 0x27, 0x6d, 0x1b, 0x4c, 0x9a, 0xe4, 0xd4, 0xe1, 0xd5, 0x49, 0x54,
0x66, 0x47, 0xf2, 0x28, 0x5a, 0xb8, 0x1a, 0x1b, 0x62, 0x8a, 0x90, 0xd1, 0x8a, 0x52, 0x74, 0xf5,
0x01, 0x3e, 0xcc, 0x5d, 0xef, 0xab, 0x30, 0xe4, 0x1f, 0xb3, 0x04, 0xdc, 0x14, 0x81, 0xf2, 0x42,
0x07, 0xe8, 0x5c, 0xe7, 0x11, 0xb0, 0xb3, 0xeb, 0xc7, 0x46, 0x6a, 0xff, 0x5d, 0x46, 0x56, 0x7a,
0xa9, 0xde, 0xc3, 0x07, 0x94, 0x35, 0x40, 0x1e, 0x09, 0xe0, 0x88, 0xf6, 0xca, 0x08, 0xf5, 0xf9,
0x64, 0xe9, 0xf4, 0xff, 0xe0, 0x0d, 0x08, 0xe9, 0xe0, 0x05, 0x10, 0xfd, 0xdd, 0xaf, 0x81, 0xf6,
0x76, 0x08, 0x35, 0xdd, 0x08, 0x22, 0xfa, 0x01, 0xf0, 0x2e, 0x22, 0x15, 0xfa, 0x0b, 0xe5, 0x32,
0x22, 0x0e, 0x18, 0xed, 0xc9, 0xf8, 0xde, 0xed, 0x01, 0x08, 0xd5, 0x1b, 0xcc, 0x27, 0xde, 0xf6,
0xf8, 0xf9, 0xef, 0x1a, 0x08, 0x81, 0xc0, 0xe5, 0xf4, 0xb4, 0xe2, 0xea, 0xf3, 0x2a, 0xe7, 0xa6,
0x14, 0x21, 0xd0, 0xe0, 0x23, 0xd5, 0x29, 0x0c, 0x1f, 0xea, 0xf5, 0x07, 0x00, 0x1c, 0x2f, 0x29,
0x58, 0x0e, 0x12, 0xf9, 0xf8, 0xfc, 0x01, 0x25, 0x13, 0x23, 0x5d, 0xfa, 0x6b, 0x01, 0x1c, 0x3c,
0x1f, 0xf2, 0x16, 0x81, 0x24, 0x3c, 0x24, 0x2d, 0xef, 0x22, 0x01, 0x30, 0xf8, 0xd6, 0x2f, 0x36,
0xde, 0xfc, 0x11, 0xf2, 0xfa, 0xe3, 0xf1, 0xf6, 0xf8, 0xdb, 0xca, 0xf7, 0xec, 0xe3, 0xe9, 0xdd,
0xd0, 0x0a, 0x2a, 0xf6, 0xe5, 0xa1, 0xdb, 0xc5, 0xfc, 0xf5, 0x03, 0x0b, 0x06, 0x01, 0x1d, 0xf4,
0x81, 0xe4, 0x32, 0xfd, 0xc1, 0x0b, 0xb6, 0xe3, 0xdd, 0x49, 0x28, 0x0e, 0x01, 0x28, 0xdd, 0xda,
0x9f, 0xf4, 0xec, 0x0a, 0xe4, 0xfd, 0x2d, 0xf8, 0xf2, 0xce, 0xc8, 0x0e, 0xdb, 0xeb, 0xad, 0xff,
0xf2, 0x04, 0x1c, 0xe9, 0x24, 0x2a, 0x2a, 0x1c, 0xe3, 0xef, 0xf3, 0x06, 0xec, 0x02, 0xf4, 0x2e,
0x6b, 0x02, 0x01, 0xd8, 0x0d, 0x05, 0xf1, 0x0f, 0x0f, 0x1b, 0x18, 0x03, 0x04, 0x05, 0x0a, 0x28,
0x7f, 0xf7, 0x16, 0xd6, 0x1b, 0x08, 0x0c, 0x1f, 0xfb, 0xff, 0x09, 0x07, 0x02, 0xe8, 0x02, 0x3e,
0x2d, 0x15, 0x0c, 0xeb, 0x04, 0xda, 0xf5, 0x05, 0x1e, 0xda, 0xda, 0x00, 0xd9, 0x02, 0x0f, 0xf9,
0x24, 0x15, 0x43, 0x15, 0x02, 0x16, 0x7f, 0x2d, 0x0a, 0x24, 0x03, 0x27, 0x47, 0x9b, 0x15, 0x72,
0xcb, 0x0e, 0x74, 0xfa, 0xeb, 0xdf, 0x9e, 0xee, 0xdf, 0x5a, 0x42, 0x16, 0x49, 0x10, 0xe0, 0xdc,
0xad, 0xdf, 0x2c, 0x0b, 0xe1, 0x0d, 0xf4, 0xd4, 0xc7, 0x54, 0x13, 0x11, 0x49, 0xc8, 0xad, 0xde,
0x1b, 0x21, 0xd8, 0xd9, 0xf5, 0xd7, 0x60, 0x21, 0x1c, 0xeb, 0xc0, 0x13, 0x02, 0xd0, 0x3e, 0x0c,
0xfa, 0xf2, 0x2f, 0xf7, 0xe4, 0xf9, 0xcb, 0x09, 0xee, 0x45, 0xfe, 0x06, 0xe6, 0x0c, 0x35, 0xed,
0xd1, 0x0e, 0xfc, 0x7f, 0x0f, 0x10, 0xd7, 0xf5, 0x04, 0xff, 0x22, 0x13, 0x10, 0x0b, 0xd0, 0x04,
0x1e, 0x1c, 0xfb, 0xf6, 0x08, 0x36, 0x7f, 0x27, 0x1d, 0x1a, 0xfe, 0x19, 0x15, 0xb0, 0x03, 0x5e,
0xe1, 0xe8, 0x57, 0xf6, 0xef, 0xe8, 0xb7, 0xfa, 0xe1, 0x53, 0x3b, 0x0a, 0x22, 0x00, 0x09, 0xe2,
0x98, 0xf6, 0xfb, 0x05, 0xeb, 0xf5, 0xea, 0xdb, 0xf0, 0x1b, 0xcf, 0x07, 0xd5, 0xf4, 0xd4, 0xc4,
0x02, 0xce, 0xbb, 0x0b, 0x15, 0xea, 0xa6, 0xc6, 0x13, 0xc7, 0x13, 0xee, 0xbe, 0x7f, 0xed, 0x8b,
0x79, 0x27, 0xb8, 0x02, 0x5d, 0x2e, 0x4c, 0x25, 0x3f, 0xb4, 0x02, 0xe3, 0xd0, 0x2c, 0x44, 0x53,
0x62, 0x53, 0xd0, 0xf0, 0x27, 0xd9, 0xfa, 0x18, 0x64, 0xbc, 0xef, 0xf8, 0xda, 0x47, 0x3f, 0xea,
0x81, 0x02, 0xfd, 0x32, 0x01, 0xbf, 0xb9, 0xe5, 0x0d, 0xd7, 0xf4, 0xf7, 0x12, 0x40, 0xf4, 0xb0,
0xac, 0x12, 0xba, 0x02, 0xf8, 0xf4, 0x22, 0x02, 0x17, 0xdc, 0xe3, 0xf1, 0xf2, 0x00, 0x4b, 0xda,
0xfc, 0x09, 0xf9, 0x12, 0x34, 0x10, 0x06, 0x1e, 0xfd, 0x10, 0x3a, 0xf7, 0x42, 0x00, 0x0e, 0x2e,
0x08, 0xe2, 0x28, 0x17, 0xd0, 0x15, 0xa6, 0xeb, 0xe3, 0xfd, 0x17, 0x16, 0x17, 0x7f, 0xe0, 0xe8,
0xf0, 0x11, 0xaf, 0xf4, 0x52, 0x4c, 0x10, 0x25, 0x1f, 0xcd, 0xbc, 0xe4, 0xe9, 0xda, 0xec, 0x32,
0x30, 0xf6, 0xfa, 0xc6, 0x01, 0xd4, 0xf9, 0x39, 0xf1, 0x07, 0x34, 0x04, 0x46, 0xc7, 0x20, 0xd6,
0x08, 0xf7, 0x19, 0x3b, 0xe3, 0xd5, 0x98, 0xe3, 0x06, 0x36, 0x2b, 0xf1, 0x1b, 0x3a, 0x1a, 0xde,
0xfb, 0x0c, 0xc0, 0x1a, 0x31, 0x09, 0x26, 0x25, 0x20, 0xcb, 0xf2, 0xf8, 0xfa, 0xf4, 0xd4, 0x10,
0x7f, 0x01, 0xf7, 0xff, 0x1c, 0x0a, 0x2d, 0x36, 0xf9, 0xf2, 0xec, 0xec, 0x0a, 0xdd, 0x15, 0x26,
0xb8, 0x11, 0x0d, 0x27, 0x4e, 0x1e, 0xee, 0x25, 0x0a, 0x0f, 0x17, 0xfd, 0x1a, 0xc7, 0xf4, 0x28,
0x88, 0x0d, 0xe5, 0x23, 0xba, 0x81, 0xe5, 0xdb, 0x17, 0x3c, 0x2c, 0xf8, 0x11, 0x49, 0x04, 0xa2,
0x27, 0xd2, 0xcd, 0x06, 0x0a, 0x35, 0x61, 0x10, 0xe1, 0xb8, 0xe2, 0xed, 0xf9, 0xeb, 0xce, 0x64,
0x6b, 0x18, 0xfa, 0xdd, 0x36, 0x28, 0x7f, 0x3b, 0xff, 0xaf, 0xbf, 0x05, 0xf4, 0xc7, 0x14, 0x63,
0x0f, 0xe9, 0x38, 0xef, 0xdf, 0xc7, 0xd5, 0xd5, 0xc8, 0x11, 0x1f, 0x01, 0x1f, 0x17, 0x17, 0xea,
0xaf, 0xdd, 0x03, 0xe9, 0xb8, 0xee, 0xe8, 0xbf, 0xed, 0x1d, 0x15, 0xff, 0x02, 0x05, 0xf4, 0xe6,
0x81, 0x02, 0x01, 0xdd, 0xe6, 0xf8, 0x15, 0x01, 0x01, 0xcf, 0xe1, 0x04, 0xeb, 0x10, 0x2b, 0xce,
0x81, 0x16, 0xec, 0x50, 0xea, 0x32, 0xf5, 0x09, 0x26, 0x0f, 0xed, 0xf5, 0xe0, 0xfd, 0x1b, 0xf1,
0xba, 0x09, 0x17, 0x4c, 0x19, 0x2b, 0xc2, 0x16, 0x10, 0x23, 0x46, 0x0e, 0x07, 0x14, 0xf1, 0x17,
0x81, 0xf9, 0xfb, 0x0d, 0xff, 0xe9, 0xff, 0xdd, 0xf7, 0xf3, 0xf4, 0xfa, 0xfa, 0x1d, 0xf8, 0xa8,
0x9e, 0x06, 0xe8, 0x12, 0xff, 0xfd, 0x07, 0xe7, 0x0c, 0xf3, 0xf2, 0xfd, 0xf0, 0x0c, 0x02, 0xbd,
0xd1, 0x06, 0xfa, 0x0f, 0x09, 0x09, 0xf3, 0xf6, 0x02, 0x10, 0x15, 0x03, 0x12, 0x0c, 0xf1, 0xef,
0x4c, 0x0b, 0xf3, 0x1e, 0x34, 0xa5, 0xfc, 0x23, 0xfd, 0x81, 0xc0, 0xe4, 0xf6, 0x0c, 0xf5, 0x24,
0x2e, 0x23, 0xff, 0xc5, 0x15, 0x98, 0xd8, 0x01, 0x16, 0xf4, 0x1e, 0xf4, 0x38, 0x2c, 0x16, 0x34,
0x2e, 0xc9, 0x08, 0xc8, 0x99, 0xf8, 0x0d, 0x0d, 0xd3, 0x3c, 0x6b, 0x11, 0x76, 0xd9, 0x06, 0x43,
0x8c, 0xc2, 0x1a, 0x20, 0xe2, 0x06, 0xe4, 0xf0, 0xe2, 0xb9, 0xe6, 0x18, 0xe2, 0x37, 0xc1, 0x89,
0x8e, 0x37, 0xc6, 0xef, 0x07, 0x3b, 0xfa, 0xfc, 0x36, 0x05, 0xe4, 0x07, 0xd9, 0x27, 0x1c, 0xfb,
0x0b, 0xf2, 0x00, 0xdc, 0xf4, 0x3b, 0xdc, 0x2f, 0xfa, 0x3c, 0x7f, 0x13, 0x45, 0xe4, 0xd0, 0x41,
0xa9, 0x21, 0x22, 0x3c, 0xdf, 0xcc, 0x37, 0x05, 0x16, 0x2b, 0x14, 0xfd, 0x40, 0xcf, 0x32, 0x0f,
0x81, 0xf9, 0x2e, 0x36, 0xca, 0xd1, 0xdf, 0xed, 0xe6, 0x25, 0x0b, 0xf7, 0x28, 0xe8, 0x23, 0xcf,
0xb1, 0xdd, 0xfc, 0x32, 0x03, 0x09, 0x32, 0xfe, 0xd1, 0x08, 0xdd, 0xe6, 0x0a, 0xd0, 0x06, 0xfd,
0x02, 0xce, 0x9c, 0xa3, 0x43, 0x08, 0xac, 0xcf, 0x04, 0xb7, 0xf2, 0xe4, 0xa3, 0x65, 0xfe, 0x93,
0x7c, 0x1e, 0x81, 0xb8, 0x6e, 0x36, 0x27, 0x27, 0x4f, 0xd1, 0xcd, 0xf7, 0xb2, 0x2c, 0x1d, 0x1b,
0x6d, 0x59, 0xb2, 0xba, 0x30, 0xdd, 0xc8, 0x0c, 0x5d, 0xc1, 0xea, 0x03, 0xba, 0x49, 0x45, 0x05,
0x25, 0xdf, 0x18, 0x16, 0xfb, 0xfd, 0xc7, 0xe3, 0xe2, 0xe6, 0x2c, 0xef, 0x04, 0x2c, 0xb1, 0x01,
0x45, 0xfe, 0xf4, 0xcf, 0x1d, 0x15, 0x3b, 0xf4, 0xe7, 0xd3, 0xfe, 0xfd, 0x04, 0xf5, 0xdf, 0x4b,
0x32, 0xef, 0x07, 0x81, 0xda, 0xce, 0x02, 0xff, 0xf2, 0x03, 0x01, 0xf6, 0xf1, 0xf6, 0x32, 0xf5,
0x24, 0xc6, 0xdf, 0xcc, 0x24, 0x27, 0x96, 0xe1, 0xe8, 0xef, 0xfc, 0x03, 0xbf, 0x42, 0xbd, 0x94,
0x7c, 0x0a, 0xbd, 0xcc, 0x37, 0x3b, 0x30, 0x1e, 0x2a, 0xf5, 0xfc, 0x0f, 0xd8, 0xf4, 0xe6, 0x21,
0x7f, 0x29, 0x09, 0xd1, 0x2c, 0xf2, 0xdd, 0x23, 0x37, 0xff, 0x3a, 0x0e, 0x02, 0x16, 0x1a, 0x17,
0x82, 0xeb, 0x0e, 0xd3, 0xff, 0xf5, 0x10, 0xf3, 0xf8, 0xda, 0xfc, 0x24, 0xfb, 0x7b, 0xec, 0x06,
0xb3, 0x03, 0x0a, 0xfe, 0x24, 0x2b, 0x03, 0x1e, 0x11, 0xec, 0xe1, 0xfe, 0xf6, 0xe0, 0x23, 0x47,
0x81, 0x0c, 0x04, 0xd6, 0xfc, 0xd4, 0xe0, 0x08, 0xf3, 0x03, 0x19, 0x0e, 0x01, 0xf0, 0x15, 0xf5,
0x51, 0x33, 0xfc, 0xb7, 0x37, 0x06, 0x45, 0x15, 0x4d, 0x70, 0x3d, 0x0a, 0x0f, 0xbb, 0x47, 0x46,
0x69, 0xd9, 0x3f, 0x3b, 0xf2, 0xdc, 0x1d, 0x0a, 0xee, 0x29, 0x0e, 0xfb, 0x05, 0xd4, 0x09, 0xe6,
0xee, 0x39, 0xfe, 0x4d, 0x49, 0xd5, 0xfc, 0xda, 0x3f, 0x9f, 0x81, 0xe6, 0x9b, 0x2f, 0x1e, 0xcb,
0x29, 0xbe, 0x2a, 0xf5, 0xf7, 0xed, 0xb6, 0xce, 0xe0, 0x3d, 0x0e, 0x0a, 0xf4, 0x5d, 0xb6, 0xaf,
0x41, 0x21, 0xae, 0x2f, 0x06, 0xf1, 0x5e, 0xe4, 0x2d, 0x84, 0xc3, 0x14, 0xea, 0xe4, 0x81, 0xf9,
0x7a, 0xe8, 0x1a, 0x87, 0x0d, 0x26, 0x17, 0xef, 0xd6, 0x17, 0x6f, 0xfb, 0xfa, 0xf3, 0x2f, 0x2b,
0xfb, 0xde, 0x1f, 0x60, 0xdb, 0x35, 0xa1, 0xea, 0xe0, 0xd3, 0xff, 0xf4, 0x10, 0x39, 0xc0, 0x00,
0xe8, 0x05, 0xcb, 0xbf, 0x12, 0xfb, 0x12, 0xf1, 0xe2, 0xde, 0xf9, 0x10, 0xf9, 0x1a, 0xe2, 0x18,
0x3c, 0xb7, 0xfd, 0x81, 0xd9, 0x0c, 0x33, 0x0f, 0xa6, 0x03, 0x1e, 0xf3, 0x2f, 0xc4, 0x00, 0x24,
0x3d, 0x01, 0xeb, 0xfe, 0x08, 0x04, 0xf0, 0xed, 0x08, 0x06, 0x3a, 0xf7, 0xed, 0x16, 0xe5, 0xd2,
0x7f, 0xff, 0x0b, 0xe9, 0x45, 0x21, 0x2d, 0x1e, 0x0d, 0xff, 0x0a, 0xf2, 0x07, 0xf5, 0x24, 0x37,
0x11, 0x22, 0x15, 0x07, 0xf9, 0xc6, 0x04, 0xfe, 0x2d, 0xe7, 0xce, 0xfb, 0xf3, 0x02, 0x09, 0xcc,
0x6c, 0x09, 0xe4, 0x08, 0x23, 0xea, 0x09, 0x03, 0x17, 0xe7, 0x07, 0xf5, 0xfb, 0xef, 0x1e, 0xe9,
0x7f, 0x11, 0x03, 0xfd, 0x2d, 0x16, 0xf7, 0x16, 0x20, 0x11, 0x1c, 0xfe, 0x14, 0x07, 0x20, 0x19,
0x39, 0x24, 0xe7, 0x18, 0xf9, 0xd4, 0xe6, 0xff, 0x39, 0xfe, 0x00, 0xfd, 0x09, 0x0f, 0x01, 0xd4,
0xa4, 0xea, 0x32, 0xfd, 0xf1, 0xc9, 0x81, 0xfc, 0xe0, 0x1b, 0x2a, 0x0c, 0x28, 0x53, 0x14, 0x24,
0x99, 0x01, 0xbb, 0xf1, 0x0f, 0xc7, 0x26, 0x0e, 0x02, 0xa8, 0xc7, 0xec, 0xe3, 0xd2, 0xe7, 0x16,
0x19, 0xed, 0x02, 0xe6, 0x0b, 0xd5, 0x15, 0x1c, 0xdb, 0xf0, 0x01, 0xf3, 0x16, 0xd0, 0x40, 0x46,
0x10, 0x11, 0x23, 0x7f, 0xcc, 0xb0, 0x86, 0xe2, 0xfa, 0xd3, 0xf1, 0xe2, 0x13, 0x06, 0xe9, 0x05,
0x1a, 0x0d, 0xd4, 0xe6, 0xef, 0xdc, 0x4c, 0xef, 0xfc, 0xc7, 0xe3, 0x09, 0xeb, 0xff, 0x10, 0x36,
0x3b, 0x0d, 0x16, 0xec, 0x12, 0x29, 0x27, 0x17, 0xec, 0xfe, 0x1b, 0x01, 0x24, 0x10, 0xe8, 0x4a,
0x00, 0x00, 0x00, 0x00, 0x32, 0xf1, 0xff, 0xff, 0x04, 0x00, 0x00, 0x00, 0x80, 0x00, 0x00, 0x00,
0x00, 0x00, 0x00, 0x00, 0x00, 0x00, 0x00, 0x00, 0x00, 0x00, 0x00, 0x00, 0x00, 0x00, 0x00, 0x00,
0x00, 0x00, 0x00, 0x00, 0x00, 0x00, 0x00, 0x00, 0x00, 0x00, 0x00, 0x00, 0x00, 0x00, 0x00, 0x00,
0x00, 0x00, 0x00, 0x00, 0x00, 0x00, 0x00, 0x00, 0x00, 0x00, 0x00, 0x00, 0x00, 0x00, 0x00, 0x00,
0x00, 0x00, 0x00, 0x00, 0x00, 0x00, 0x00, 0x00, 0x00, 0x00, 0x00, 0x00, 0x00, 0x00, 0x00, 0x00,
0x00, 0x00, 0x00, 0x00, 0x00, 0x00, 0x00, 0x00, 0x00, 0x00, 0x00, 0x00, 0x00, 0x00, 0x00, 0x00,
0x00, 0x00, 0x00, 0x00, 0x00, 0x00, 0x00, 0x00, 0x00, 0x00, 0x00, 0x00, 0x00, 0x00, 0x00, 0x00,
0x00, 0x00, 0x00, 0x00, 0x00, 0x00, 0x00, 0x00, 0x00, 0x00, 0x00, 0x00, 0x00, 0x00, 0x00, 0x00,
0x00, 0x00, 0x00, 0x00, 0x00, 0x00, 0x00, 0x00, 0x00, 0x00, 0x00, 0x00, 0x00, 0x00, 0x00, 0x00,
0x00, 0x00, 0x00, 0x00, 0xc2, 0xf1, 0xff, 0xff, 0x04, 0x00, 0x00, 0x00, 0x00, 0x0c, 0x00, 0x00,
0xf9, 0x56, 0xfd, 0xc5, 0x0c, 0xe7, 0x13, 0x3f, 0x16, 0x53, 0xdc, 0xe1, 0xa1, 0xe6, 0x1e, 0x31,
0xe4, 0xe4, 0xff, 0xbd, 0x49, 0xa7, 0xec, 0x81, 0xf3, 0x3b, 0xe2, 0xe7, 0x12, 0x03, 0xee, 0x05,
0x02, 0xf9, 0xed, 0x0c, 0x1c, 0x00, 0xdb, 0x17, 0xf0, 0xf8, 0xfd, 0x16, 0x25, 0xf6, 0xc6, 0x01,
0x30, 0x2c, 0x05, 0x12, 0x1d, 0xdf, 0x12, 0xdf, 0x3a, 0xf0, 0xff, 0xf0, 0x06, 0x01, 0x1e, 0x02,
0xd0, 0x17, 0xf2, 0x18, 0xb0, 0x22, 0xc0, 0x10, 0xf9, 0xed, 0xcc, 0x1c, 0xff, 0x03, 0x48, 0x0a,
0xf1, 0x1c, 0x1b, 0x2c, 0x48, 0xaa, 0x01, 0xde, 0xee, 0xbd, 0x10, 0x40, 0xcf, 0xb8, 0x13, 0x1d,
0xe2, 0x63, 0x0f, 0x3a, 0xaa, 0xc7, 0xef, 0x20, 0x12, 0x10, 0xe1, 0x13, 0x00, 0x12, 0x41, 0xf6,
0xea, 0xd9, 0x35, 0x04, 0x25, 0xde, 0xf4, 0xe7, 0xc9, 0xe6, 0xcf, 0x1f, 0xfd, 0x1f, 0xf7, 0x22,
0x14, 0x06, 0xd1, 0x81, 0x28, 0x3a, 0x0c, 0x06, 0xd3, 0x0d, 0xee, 0xd8, 0x32, 0x53, 0x1a, 0xe3,
0xcf, 0xdd, 0xd5, 0xc1, 0x40, 0xe6, 0x14, 0xcb, 0x13, 0x1b, 0x1b, 0x17, 0x05, 0xd6, 0x59, 0xe3,
0x1c, 0xbd, 0xdc, 0x0c, 0x28, 0x22, 0xff, 0xdc, 0x0b, 0xd6, 0x07, 0x3d, 0x16, 0xfb, 0xda, 0xe8,
0x15, 0x1c, 0xcd, 0xfa, 0x06, 0x05, 0x00, 0x0b, 0x23, 0x18, 0x09, 0xf6, 0xf9, 0xe4, 0x36, 0x1c,
0x2c, 0xa2, 0xcc, 0x66, 0xd6, 0x5a, 0x19, 0xde, 0xd9, 0xb8, 0x28, 0x53, 0x32, 0x7c, 0x28, 0x81,
0xac, 0x56, 0xd2, 0xd5, 0x07, 0x1d, 0xf5, 0x18, 0xfc, 0x3c, 0x1d, 0xe7, 0x43, 0x0d, 0x45, 0x10,
0xe4, 0xf5, 0x07, 0x1d, 0x28, 0xc5, 0xfc, 0x34, 0x14, 0x24, 0xee, 0xd0, 0xca, 0xd9, 0xdb, 0x2f,
0xfd, 0x19, 0x2e, 0xe2, 0x0f, 0xee, 0xec, 0xf0, 0x05, 0x21, 0x01, 0xbf, 0x27, 0x43, 0xbb, 0xc5,
0x8d, 0xc7, 0xd8, 0x62, 0x06, 0xd8, 0x98, 0x6d, 0x37, 0x3b, 0xa6, 0x34, 0x1a, 0xf1, 0x06, 0x33,
0x1f, 0x31, 0x7a, 0x4c, 0x44, 0x9d, 0xc5, 0xd3, 0xfc, 0xa6, 0x14, 0x1e, 0xb9, 0xf8, 0xe9, 0xee,
0x1e, 0x26, 0x33, 0xcd, 0x46, 0x0d, 0x37, 0xef, 0x18, 0x00, 0x29, 0xef, 0xa1, 0xd1, 0xf8, 0xd8,
0x13, 0xfb, 0xb7, 0xfa, 0xdb, 0x32, 0xeb, 0x28, 0xed, 0x4c, 0xde, 0xa9, 0x14, 0x3d, 0xcf, 0xe0,
0xce, 0x12, 0xe6, 0xe3, 0xf0, 0xea, 0xf0, 0x32, 0xf4, 0x38, 0xe4, 0xf5, 0x64, 0x1c, 0x13, 0xf0,
0x14, 0xf5, 0x29, 0x6c, 0x14, 0xe8, 0x1e, 0xd7, 0x61, 0xab, 0xfb, 0x1b, 0x0f, 0xf7, 0x04, 0xbf,
0xc6, 0xdf, 0xd7, 0x14, 0xb6, 0x48, 0xd2, 0x1c, 0xf5, 0x16, 0xbc, 0x44, 0x1e, 0xfa, 0x20, 0x02,
0xee, 0x23, 0x11, 0x26, 0x19, 0xda, 0xec, 0xf9, 0xe2, 0xae, 0x08, 0x41, 0xca, 0x81, 0x14, 0x22,
0x2a, 0xf6, 0xe2, 0x67, 0xe9, 0x20, 0x07, 0xdb, 0xdb, 0xc6, 0x2b, 0x48, 0x2b, 0x3e, 0x2f, 0xcb,
0xec, 0x34, 0x10, 0x03, 0xf3, 0x24, 0x08, 0x17, 0x01, 0xfc, 0x07, 0x05, 0x03, 0x10, 0x3b, 0x35,
0xf3, 0x16, 0x07, 0x37, 0xf4, 0xeb, 0xf2, 0x2d, 0x19, 0x12, 0xec, 0xfd, 0xe1, 0xef, 0xe4, 0x21,
0x0c, 0x0e, 0x34, 0xf5, 0x10, 0xf1, 0xf1, 0xe6, 0xff, 0x01, 0x01, 0xeb, 0x03, 0x10, 0xe7, 0x03,
0x95, 0xf2, 0xf3, 0x5d, 0xe9, 0xdd, 0xc8, 0x6a, 0x0f, 0x3c, 0xb0, 0x18, 0x1a, 0x00, 0xf0, 0x24,
0x06, 0x04, 0x7f, 0x1f, 0x34, 0x99, 0xfe, 0xca, 0x00, 0xd0, 0xfd, 0x16, 0xdc, 0xfe, 0xf7, 0xf2,
0xf9, 0x45, 0x32, 0x34, 0xc7, 0x26, 0x33, 0x14, 0x13, 0xdf, 0xec, 0x0c, 0x15, 0x4c, 0xd9, 0xb2,
0xeb, 0xca, 0x24, 0xf7, 0x0c, 0xe3, 0x06, 0x08, 0xf3, 0x02, 0xf0, 0xfd, 0xd8, 0x05, 0x42, 0x6b,
0xf4, 0x0d, 0x1b, 0xfa, 0x49, 0x01, 0x3b, 0x16, 0xfe, 0xfd, 0xf1, 0xe1, 0xef, 0x33, 0x53, 0xf4,
0x03, 0xa7, 0x26, 0x1c, 0xf3, 0xee, 0x1a, 0xff, 0x15, 0xf7, 0xfe, 0x05, 0xf0, 0x01, 0x55, 0x1e,
0xfd, 0x5d, 0x44, 0x15, 0x7f, 0xd6, 0x53, 0x15, 0x0d, 0x11, 0xfc, 0xb1, 0x24, 0xce, 0x97, 0x49,
0xf8, 0x90, 0x52, 0xec, 0xdd, 0xf1, 0x34, 0xf8, 0x26, 0xee, 0xe1, 0x01, 0x0c, 0x2e, 0x30, 0x05,
0x0f, 0xb8, 0x32, 0x93, 0x2a, 0xe3, 0x58, 0x0a, 0x03, 0x1a, 0xf3, 0xae, 0xf0, 0x23, 0xac, 0x01,
0xd4, 0x9b, 0xbb, 0x96, 0xdc, 0xf8, 0x05, 0x23, 0x89, 0x70, 0x00, 0xd3, 0x17, 0x37, 0xc8, 0xf8,
0xd4, 0x1f, 0x19, 0xe0, 0x22, 0x91, 0x2c, 0x1a, 0xf3, 0x24, 0xf7, 0xb1, 0x7f, 0xf8, 0x06, 0x67,
0xc3, 0xa9, 0x2f, 0x19, 0xdc, 0x08, 0x29, 0x03, 0xf0, 0xcb, 0x00, 0x4a, 0x19, 0x43, 0xcc, 0xdd,
0xd0, 0xbf, 0x29, 0x12, 0x75, 0x84, 0x21, 0x23, 0x29, 0x1a, 0xdd, 0xd6, 0xdd, 0xc3, 0x97, 0x58,
0x01, 0xcf, 0x2c, 0xb0, 0xe5, 0xea, 0xef, 0x25, 0xac, 0x28, 0xe4, 0xd5, 0x07, 0x6b, 0xb2, 0xf8,
0xeb, 0xfe, 0x25, 0xd1, 0xe8, 0x1a, 0x10, 0x3a, 0xf7, 0x3d, 0xca, 0xe7, 0xc7, 0x25, 0x12, 0xd6,
0xe1, 0xe0, 0xdf, 0xc8, 0x12, 0xc5, 0xe5, 0x0b, 0xb4, 0x24, 0x08, 0xfd, 0xe7, 0xf9, 0xf4, 0xff,
0xcc, 0xde, 0x24, 0x07, 0x00, 0x0b, 0xe7, 0x3d, 0x04, 0x25, 0xe6, 0xfb, 0x1d, 0x01, 0x0b, 0xdb,
0x09, 0x0d, 0xf9, 0x3e, 0x0d, 0xe6, 0x04, 0x15, 0x16, 0xeb, 0x17, 0xf7, 0x01, 0xfd, 0xfc, 0xd9,
0x81, 0xdd, 0x18, 0x54, 0xbd, 0x08, 0xd7, 0x5c, 0x30, 0xfc, 0x8b, 0x14, 0x00, 0x09, 0x3c, 0x03,
0xee, 0xf8, 0x4d, 0x4e, 0x10, 0x8c, 0xe2, 0x27, 0xc5, 0xb6, 0x1d, 0x2f, 0xbd, 0xd3, 0xee, 0x08,
0x0e, 0xb8, 0x10, 0x29, 0xd3, 0x2c, 0x14, 0xec, 0xe2, 0xcd, 0x16, 0x13, 0x7b, 0x52, 0x89, 0xc2,
0x10, 0xee, 0xf5, 0x2e, 0xdb, 0x09, 0x22, 0x30, 0x35, 0xbe, 0x15, 0x36, 0x12, 0xfc, 0x1d, 0x27,
0xe6, 0x03, 0x08, 0xa7, 0x71, 0xf5, 0x10, 0x1c, 0xfd, 0x2c, 0xef, 0xc7, 0xc3, 0xd6, 0x77, 0x40,
0xdd, 0xe0, 0xf9, 0xda, 0xff, 0xf0, 0xfc, 0xf1, 0xd0, 0x34, 0xf4, 0x00, 0xf2, 0xf1, 0xe6, 0xd9,
0xf6, 0x11, 0xf8, 0xf8, 0x7f, 0xfd, 0xfc, 0x0f, 0x03, 0x12, 0xea, 0xf0, 0xe9, 0xbd, 0xba, 0x3b,
0xf2, 0x0a, 0x19, 0xe4, 0x0a, 0xe5, 0x0a, 0xe9, 0x15, 0x0b, 0x00, 0xf6, 0x16, 0x00, 0xfa, 0x0a,
0xdc, 0x6c, 0x27, 0xb2, 0x07, 0xbf, 0x59, 0x56, 0xff, 0x63, 0xdb, 0xaf, 0xcf, 0x07, 0x30, 0x43,
0x9a, 0x81, 0x1b, 0x92, 0xf5, 0xb1, 0x0a, 0xea, 0xd8, 0x3f, 0xd6, 0xfd, 0x26, 0x21, 0xed, 0x11,
0xf3, 0x01, 0xe6, 0xd8, 0x4e, 0xfb, 0x12, 0x3a, 0xd4, 0x1b, 0xf5, 0xef, 0x5b, 0x05, 0xcc, 0x08,
0xf8, 0xf0, 0x08, 0xe9, 0x15, 0xd6, 0x2b, 0xd4, 0x65, 0xf3, 0xed, 0x08, 0x2a, 0x04, 0x39, 0xf8,
0xc1, 0xac, 0xb7, 0x1b, 0x11, 0x38, 0x83, 0x34, 0xf8, 0xf8, 0xb9, 0x55, 0x23, 0xf7, 0x30, 0x17,
0x30, 0x58, 0x27, 0x42, 0x46, 0x8e, 0xd2, 0xd9, 0x10, 0xb7, 0x14, 0x2d, 0x8b, 0xa0, 0x3c, 0x13,
0xe4, 0x14, 0x3e, 0xbd, 0xdd, 0x23, 0x1d, 0x39, 0xe1, 0x3e, 0xd0, 0xd3, 0xce, 0x2c, 0x1d, 0xd6,
0xd0, 0xcf, 0xda, 0xca, 0x09, 0xc3, 0x04, 0x0f, 0xab, 0x25, 0xfd, 0x04, 0xf3, 0xfe, 0x06, 0x01,
0xd5, 0xe5, 0x16, 0xf7, 0xf1, 0x0d, 0xf9, 0x39, 0xfd, 0x24, 0xed, 0xfa, 0x31, 0x09, 0x20, 0xd0,
0x08, 0x14, 0xee, 0x2f, 0x0f, 0xe1, 0xfd, 0x12, 0x21, 0xe7, 0x10, 0xfa, 0x14, 0x00, 0x06, 0xca,
0x82, 0xab, 0x05, 0x50, 0xd4, 0x27, 0xc7, 0x49, 0x18, 0xf5, 0x81, 0x14, 0x1d, 0x11, 0x30, 0xef,
0x0f, 0x0b, 0x35, 0x56, 0x13, 0x90, 0xdd, 0x21, 0xc5, 0xa3, 0x3d, 0x39, 0x97, 0xb2, 0x02, 0x09,
0xda, 0x04, 0x35, 0xb5, 0xe6, 0x43, 0x24, 0x3e, 0xdb, 0x4c, 0xaf, 0xe4, 0xd8, 0x48, 0xf3, 0xb1,
0xba, 0xc3, 0xbf, 0xaf, 0x2f, 0xad, 0x0d, 0xe8, 0x8a, 0x47, 0x0c, 0xf2, 0xef, 0xf2, 0x10, 0x2e,
0xf4, 0x24, 0x16, 0xf8, 0xfa, 0x02, 0x0b, 0x1a, 0xea, 0x04, 0xf8, 0xed, 0x7f, 0x13, 0xf4, 0xd1,
0x0a, 0xe8, 0xfc, 0x52, 0x04, 0xf2, 0x25, 0xf5, 0x33, 0xd4, 0xfc, 0x28, 0x3b, 0x14, 0x15, 0xfd,
0x91, 0xa0, 0xdc, 0x21, 0x50, 0xff, 0xdd, 0x41, 0x4c, 0x23, 0xc3, 0x01, 0x02, 0xc3, 0x0d, 0x36,
0x44, 0xf9, 0x44, 0x4b, 0xf4, 0xd7, 0xbf, 0x0f, 0xfe, 0xbe, 0xeb, 0xe5, 0x94, 0xf3, 0xed, 0xdf,
0xeb, 0x51, 0xfb, 0xba, 0x15, 0xe1, 0x1a, 0x45, 0x2a, 0x5e, 0xdf, 0xd5, 0xa3, 0xd9, 0x2e, 0x49,
0xe3, 0xd6, 0x10, 0xbf, 0x23, 0xba, 0xec, 0x9c, 0x00, 0x2d, 0xdd, 0xe5, 0xf2, 0xfb, 0xe2, 0x13,
0xeb, 0xe0, 0xdc, 0x18, 0x38, 0xea, 0xc1, 0x2b, 0x0a, 0x10, 0xe7, 0x16, 0x37, 0xf3, 0xb6, 0x13,
0x37, 0x1f, 0x2f, 0x0d, 0x0f, 0xc3, 0x1b, 0xd8, 0x46, 0xe6, 0x03, 0xfe, 0xfd, 0x11, 0x22, 0xf5,
0xc4, 0x15, 0x00, 0x16, 0xcf, 0x1c, 0xa5, 0x29, 0xe9, 0x0d, 0xb8, 0x2d, 0xf7, 0xf9, 0x46, 0x10,
0xfa, 0x2f, 0x28, 0x2b, 0x4c, 0x81, 0xfb, 0xe7, 0xe7, 0xce, 0x0e, 0x31, 0xef, 0xcc, 0x11, 0x19,
0xfc, 0x54, 0xf6, 0xc1, 0x06, 0x07, 0x10, 0x2e, 0x0b, 0x33, 0xd2, 0xf4, 0x9f, 0x05, 0x32, 0x1f,
0xe8, 0xde, 0xee, 0xb2, 0x63, 0x99, 0xe4, 0x81, 0xe5, 0x40, 0xee, 0xdf, 0xfa, 0xe8, 0x13, 0x2d,
0x24, 0x36, 0xf0, 0xea, 0xff, 0x23, 0xf7, 0xfe, 0xe3, 0xe3, 0x1c, 0x1b, 0x1f, 0x24, 0xe0, 0xd6,
0x16, 0x29, 0xe9, 0xec, 0x23, 0xf0, 0x14, 0xdc, 0x1e, 0x0f, 0xe6, 0xf2, 0x26, 0x01, 0x28, 0x25,
0xe9, 0xd8, 0xe2, 0x05, 0xc1, 0x40, 0xbc, 0x08, 0xe4, 0xd7, 0xe1, 0x3a, 0x47, 0x30, 0x0e, 0xdf,
0x13, 0x32, 0x04, 0x37, 0x28, 0xc1, 0x14, 0xec, 0x0c, 0xbe, 0x27, 0x55, 0xdc, 0xad, 0x29, 0x2c,
0x06, 0xa3, 0xd7, 0x65, 0xeb, 0x4f, 0x0a, 0xf1, 0xd3, 0xbd, 0x08, 0x56, 0x39, 0x7f, 0x42, 0x92,
0xcb, 0xf8, 0x24, 0xf8, 0x11, 0x05, 0x0a, 0x0e, 0xc6, 0xef, 0x29, 0x0e, 0x01, 0xfc, 0x5e, 0x4b,
0xeb, 0x35, 0x0a, 0x0e, 0x20, 0xf0, 0xff, 0x2f, 0x0b, 0x27, 0xdb, 0xed, 0xfb, 0xe1, 0xdb, 0x29,
0xf4, 0xe8, 0x3c, 0xed, 0x2c, 0xcf, 0x02, 0xc2, 0x11, 0x06, 0x15, 0xdf, 0xf2, 0x0e, 0x15, 0xe9,
0xb5, 0x09, 0xed, 0x51, 0x23, 0xcf, 0xbf, 0x3a, 0x3b, 0x28, 0xc3, 0x1e, 0x3e, 0xd0, 0xea, 0x36,
0x3e, 0x11, 0x78, 0x51, 0x35, 0xb0, 0xea, 0xd2, 0x05, 0x94, 0xfb, 0x1c, 0xc1, 0x01, 0x04, 0x0c,
0x1f, 0x15, 0x16, 0xe0, 0xf0, 0x21, 0x2c, 0xf3, 0xfe, 0xdd, 0x1b, 0x03, 0xb9, 0x20, 0x07, 0xd5,
0xfc, 0xde, 0xc1, 0xe9, 0xb2, 0x3a, 0xf3, 0x50, 0xe2, 0x28, 0xf5, 0xc0, 0x19, 0x3e, 0xdb, 0xfa,
0xdb, 0x1f, 0xfb, 0xce, 0x37, 0x09, 0xdf, 0xfa, 0xe5, 0x2f, 0xf9, 0xf6, 0x75, 0xfe, 0xcf, 0x11,
0xed, 0xfd, 0x19, 0x17, 0x01, 0xf4, 0x22, 0xd0, 0x63, 0xb8, 0x14, 0x0b, 0xeb, 0xd2, 0x16, 0xad,
0xcc, 0xda, 0xf4, 0x0d, 0xf3, 0x50, 0xef, 0xea, 0xf6, 0x08, 0xe4, 0x1b, 0x42, 0xe8, 0xf5, 0x20,
0xeb, 0x0c, 0x11, 0x17, 0xf4, 0xe1, 0xf9, 0x1e, 0xf4, 0x96, 0x29, 0x4f, 0xbf, 0x81, 0x24, 0x2b,
0x37, 0x0f, 0x43, 0x81, 0xda, 0x3f, 0x49, 0x13, 0xb4, 0x13, 0x00, 0xa5, 0xc4, 0x4b, 0x0b, 0xc3,
0xae, 0xb7, 0x9d, 0x82, 0x14, 0xe3, 0x10, 0xfb, 0x8a, 0x79, 0x2d, 0xf0, 0x52, 0x05, 0xeb, 0x0a,
0x1c, 0xdc, 0x23, 0xf3, 0xe0, 0x1a, 0x10, 0xf7, 0xcd, 0xcf, 0x1e, 0x07, 0x4d, 0x14, 0x23, 0xc1,
0xf7, 0xf9, 0xd0, 0x36, 0xf8, 0x11, 0x2f, 0x23, 0x0b, 0xfc, 0x4e, 0x23, 0x4d, 0xf8, 0x03, 0x13,
0x9e, 0x9c, 0x0e, 0x6c, 0xcb, 0x09, 0xf2, 0x23, 0x50, 0xc3, 0xa8, 0x04, 0x0f, 0xfb, 0xb9, 0x32,
0x0e, 0xd1, 0x32, 0x61, 0xe9, 0xbb, 0xe7, 0x40, 0xb3, 0xa6, 0x61, 0x2e, 0xb2, 0xcc, 0xd7, 0x22,
0x0a, 0xb5, 0xda, 0x25, 0xf1, 0x3c, 0x02, 0xed, 0xda, 0xe0, 0x09, 0x16, 0x75, 0x54, 0x0b, 0xc3,
0xd5, 0x0a, 0xf5, 0x18, 0xfe, 0x05, 0x1c, 0x0f, 0x20, 0xe3, 0x27, 0x5a, 0x0b, 0xce, 0x49, 0x07,
0xe8, 0x3c, 0x0c, 0xf6, 0x46, 0xe5, 0x05, 0x0e, 0x05, 0x26, 0xee, 0xd8, 0x8c, 0xaf, 0x09, 0x7f,
0xe1, 0xf0, 0x17, 0xd1, 0x00, 0xe9, 0x01, 0xfa, 0xe9, 0x10, 0xed, 0xec, 0xf9, 0xec, 0xd8, 0xcd,
0xe0, 0x01, 0xf8, 0x14, 0x2f, 0xe7, 0xf2, 0x22, 0x19, 0x2d, 0xde, 0x02, 0xbb, 0xb3, 0x0b, 0x42,
0x0b, 0x0d, 0x24, 0xe6, 0x13, 0xe1, 0xf6, 0xe0, 0x20, 0x1c, 0xe9, 0xc2, 0xfd, 0xf6, 0xf3, 0xec,
0x20, 0xef, 0x12, 0xd3, 0x14, 0x15, 0x21, 0xf3, 0x05, 0xdb, 0x07, 0x19, 0xdb, 0x20, 0xf2, 0xb1,
0xf9, 0xef, 0xd8, 0xeb, 0x02, 0x0b, 0xea, 0x0c, 0xf0, 0x39, 0xde, 0xc9, 0x0e, 0x30, 0xf6, 0x02,
0xe6, 0x24, 0xdc, 0xe0, 0x14, 0xf2, 0xf6, 0x2e, 0x08, 0x33, 0x06, 0xf1, 0x7f, 0x13, 0xee, 0x0a,
0x0f, 0x18, 0x14, 0x24, 0x17, 0xf6, 0x05, 0xce, 0x71, 0xd2, 0xf4, 0xfa, 0x00, 0x09, 0x16, 0xb6,
0xd8, 0xfa, 0xfa, 0x21, 0xed, 0x19, 0xe6, 0x02, 0x01, 0xdf, 0xfb, 0x36, 0x46, 0x2a, 0x07, 0xf7,
0xfc, 0x2e, 0x20, 0x0b, 0x08, 0xf9, 0x10, 0x0b, 0x06, 0xa7, 0x0b, 0x47, 0xd4, 0xbc, 0x30, 0x1a,
0xff, 0x0d, 0x36, 0x0f, 0xd0, 0xe5, 0x4c, 0x05, 0xf3, 0xf7, 0x09, 0xd2, 0x38, 0x27, 0xa7, 0xed,
0xcc, 0x81, 0x12, 0xe5, 0xe1, 0xfe, 0x2a, 0x17, 0xf6, 0x02, 0x07, 0x0b, 0x34, 0x37, 0xf2, 0x0c,
0xf5, 0xdb, 0x04, 0xe6, 0x17, 0xf6, 0x16, 0x05, 0xfe, 0x06, 0xee, 0xee, 0xeb, 0x04, 0x36, 0x24,
0xf2, 0xa1, 0x0a, 0xff, 0xf4, 0xf4, 0xf9, 0x07, 0xd4, 0x0a, 0x10, 0x09, 0xec, 0xfb, 0xf5, 0x07,
0xf9, 0x15, 0x0d, 0xfb, 0xdd, 0xf5, 0x22, 0x07, 0x03, 0xfb, 0xfe, 0xd3, 0x0e, 0x0b, 0xec, 0x1a,
0xf5, 0x95, 0x11, 0xf1, 0xf4, 0xef, 0x0d, 0x04, 0xeb, 0x00, 0x10, 0x12, 0x09, 0xff, 0xe9, 0x16,
0xe7, 0x0c, 0x24, 0xd8, 0xce, 0x1f, 0x10, 0x3d, 0xbe, 0x5f, 0xb7, 0x01, 0xfc, 0x54, 0x10, 0x8f,
0xd4, 0xea, 0xc5, 0xc2, 0x4c, 0xb1, 0x12, 0xd9, 0xa0, 0x34, 0x00, 0xdd, 0x0d, 0x1e, 0x1b, 0xde,
0xff, 0x2c, 0x1e, 0x0e, 0xc9, 0xe9, 0x09, 0x12, 0xdf, 0x0f, 0x03, 0x0d, 0x5f, 0x2e, 0x3a, 0xb5,
0xef, 0xf5, 0x07, 0x47, 0x13, 0xfb, 0x21, 0x03, 0x06, 0xd9, 0xfe, 0x16, 0x2c, 0x39, 0x0b, 0xd8,
0xa3, 0x81, 0xe4, 0x2b, 0x37, 0xc2, 0xf5, 0x35, 0x5f, 0x34, 0xbc, 0xff, 0x19, 0xd2, 0xc9, 0x30,
0x1d, 0xec, 0x43, 0x40, 0x06, 0xd7, 0xc5, 0x1b, 0xc5, 0xbf, 0xf4, 0xfb, 0xa6, 0x0b, 0xe5, 0xc5,
0xef, 0xef, 0x32, 0xa7, 0xf7, 0x41, 0x2d, 0x41, 0xe6, 0x6e, 0xcb, 0xd3, 0xb8, 0x3a, 0x0f, 0xc3,
0xbb, 0xce, 0xb3, 0xb2, 0x2a, 0xbf, 0xea, 0xf5, 0xa8, 0x57, 0x0f, 0xc7, 0x0e, 0xe7, 0x02, 0xea,
0xe5, 0xed, 0x1a, 0x02, 0xf0, 0x17, 0xf5, 0x2f, 0x0e, 0x1d, 0xed, 0xfb, 0x2a, 0x04, 0x23, 0xb2,
0x0a, 0x0e, 0xe9, 0x2e, 0x08, 0xf1, 0x05, 0x19, 0x23, 0xde, 0xfc, 0x00, 0x2c, 0xf6, 0x05, 0xd2,
0x92, 0xa8, 0x10, 0x64, 0xcf, 0x2c, 0xe0, 0x3f, 0x2b, 0xe0, 0x95, 0x22, 0xf7, 0x28, 0x1f, 0xec,
0xfd, 0xf4, 0x45, 0x4c, 0xff, 0xa9, 0xe4, 0x2e, 0xb7, 0xb3, 0x3e, 0x0f, 0x81, 0xc9, 0x17, 0x20,
0xeb, 0x61, 0x00, 0xbc, 0x03, 0xf0, 0x13, 0x56, 0x24, 0x59, 0xd3, 0xcf, 0x81, 0xed, 0x18, 0x38,
0xd7, 0xd2, 0xfb, 0xae, 0x58, 0x81, 0xe1, 0x91, 0xe6, 0x3c, 0xd9, 0xdd, 0xfd, 0x04, 0xf0, 0x05,
0xf7, 0xe4, 0xf2, 0x24, 0x20, 0x0a, 0xdc, 0x30, 0xfe, 0xfa, 0xf5, 0x1e, 0x2c, 0x01, 0xbf, 0x04,
0x2b, 0x31, 0x1b, 0x1a, 0x18, 0xc2, 0x15, 0xdf, 0x3b, 0xe3, 0x0b, 0xf2, 0x04, 0xf5, 0x24, 0x03,
0xc2, 0x1c, 0x0a, 0x18, 0xa3, 0x20, 0xc8, 0x30, 0x01, 0xff, 0xb2, 0x1f, 0xf8, 0xfd, 0x5b, 0xfb,
0xed, 0x15, 0x28, 0x17, 0x43, 0x85, 0xfc, 0xf6, 0xd9, 0xd2, 0xff, 0x37, 0xed, 0xc1, 0x05, 0x19,
0x1a, 0xf6, 0xbd, 0x7f, 0xdf, 0x0d, 0xf9, 0xdd, 0xd8, 0xa8, 0x24, 0x41, 0x39, 0x3f, 0x49, 0xd8,
0xfa, 0xf3, 0x54, 0x1a, 0xe9, 0x20, 0x0d, 0x10, 0x00, 0xd9, 0x10, 0x32, 0xfc, 0x0b, 0x4a, 0x49,
0xcf, 0x41, 0x0a, 0x20, 0x03, 0xd0, 0xe6, 0x43, 0x23, 0x3c, 0xd2, 0xf5, 0xba, 0xd0, 0xde, 0x63,
0x11, 0xf9, 0x63, 0xdf, 0x2a, 0xd0, 0xf0, 0xb9, 0xf0, 0x05, 0xe6, 0xd9, 0xea, 0x0b, 0xcf, 0x05,
0x9f, 0x40, 0xff, 0x33, 0xd5, 0xcc, 0xf6, 0x69, 0x10, 0x5b, 0xab, 0xfd, 0xf2, 0xf3, 0x35, 0x33,
0xef, 0xdc, 0x70, 0xdf, 0x4c, 0x92, 0xf7, 0x9c, 0xfa, 0xfb, 0xb9, 0x07, 0xfd, 0x01, 0xe6, 0x0c,
0x1d, 0x13, 0x19, 0x9e, 0x33, 0xff, 0x42, 0xef, 0x14, 0x13, 0x16, 0xf1, 0xaf, 0xe4, 0xf1, 0xae,
0x27, 0xec, 0x83, 0xeb, 0xea, 0x28, 0xe6, 0x2d, 0xdf, 0x75, 0xc3, 0x9f, 0x1d, 0x38, 0xd8, 0xc7,
0xfb, 0xfc, 0xe4, 0xcd, 0xfe, 0xff, 0xe7, 0x1a, 0xe1, 0x13, 0x08, 0xf6, 0x76, 0x30, 0x23, 0xdd,
0x23, 0x04, 0x02, 0x67, 0x04, 0x11, 0x26, 0xdc, 0x7f, 0xb1, 0x11, 0x28, 0x0b, 0xe8, 0x27, 0xcc,
0xd0, 0xfa, 0xf9, 0x1c, 0xaf, 0x32, 0xcd, 0x11, 0xf3, 0x09, 0xcf, 0x24, 0x35, 0xe5, 0x28, 0x2f,
0xfb, 0x07, 0x29, 0x38, 0x09, 0xe1, 0xfa, 0x0e, 0xe8, 0x94, 0x14, 0x56, 0xb5, 0x87, 0x01, 0x2c,
0x05, 0xf9, 0x03, 0xf3, 0x53, 0xf3, 0xf7, 0xf1, 0x10, 0x18, 0x0c, 0x03, 0x25, 0xcb, 0xd9, 0x11,
0x0f, 0x13, 0xfb, 0x06, 0xf7, 0x25, 0xff, 0xfe, 0x32, 0xec, 0xe1, 0xf2, 0x0c, 0xfb, 0x1f, 0xd2,
0x29, 0xdc, 0x01, 0x30, 0xfc, 0x4f, 0x06, 0xb9, 0xd5, 0x81, 0x1b, 0x12, 0x13, 0x5d, 0x19, 0xbc,
0xff, 0x01, 0xf8, 0x09, 0xdf, 0x20, 0x12, 0x20, 0xf0, 0x00, 0x34, 0x14, 0xfc, 0xe7, 0x41, 0x45,
0xf3, 0x3d, 0x13, 0xf9, 0xbb, 0xea, 0x0f, 0x00, 0x0f, 0x23, 0x05, 0xe5, 0xd8, 0xd4, 0x0b, 0x36,
0xef, 0xe5, 0x19, 0xf9, 0xf5, 0xff, 0x0f, 0xf4, 0x0a, 0xfc, 0xee, 0x12, 0xf6, 0xfb, 0xd1, 0x09,
0x0f, 0x5e, 0xf4, 0xce, 0x1e, 0xe0, 0x19, 0x25, 0x19, 0x46, 0xf9, 0xe7, 0x81, 0xda, 0x13, 0x3f,
0xe5, 0xea, 0x04, 0xaa, 0x54, 0xab, 0xed, 0x8c, 0xfe, 0x44, 0xd6, 0xd4, 0x15, 0xf7, 0xf1, 0xff,
0xfb, 0xce, 0xcb, 0x2d, 0x28, 0x14, 0xd1, 0x19, 0x20, 0xe2, 0xf2, 0x41, 0x15, 0x04, 0xf8, 0xf4,
0x41, 0x35, 0x18, 0x1f, 0x35, 0xc6, 0xde, 0xc4, 0x27, 0xde, 0x02, 0x01, 0xdc, 0xe8, 0x2a, 0x19,
0xec, 0x4f, 0xf7, 0xdf, 0x9f, 0x32, 0xe1, 0x10, 0xda, 0x04, 0xe8, 0xfa, 0x0a, 0x19, 0xea, 0xf5,
0xdc, 0x15, 0x06, 0xe0, 0x60, 0xb2, 0x17, 0xd7, 0xeb, 0xe9, 0x12, 0x22, 0xf0, 0xcf, 0x09, 0x1a,
0xfc, 0x21, 0x42, 0xab, 0xd4, 0xff, 0x2e, 0x00, 0x09, 0x15, 0x03, 0xad, 0x0a, 0xe9, 0xfd, 0x01,
0x0c, 0xcc, 0xe7, 0x17, 0xd7, 0x11, 0x01, 0x14, 0x0c, 0x00, 0xed, 0xf6, 0x0f, 0x01, 0xd3, 0xe6,
0xf2, 0xe1, 0x10, 0x81, 0x31, 0x16, 0x0c, 0x03, 0xf8, 0x25, 0xef, 0xbe, 0xff, 0xde, 0xf6, 0x09,
0x0a, 0xdd, 0xde, 0xec, 0xea, 0xfa, 0xfe, 0x05, 0x0c, 0x17, 0xff, 0xfe, 0xf4, 0xdb, 0xe6, 0xe5,
0xe4, 0x06, 0xf8, 0xa2, 0x1e, 0x17, 0xe2, 0x0c, 0xef, 0x32, 0xe9, 0xe4, 0x09, 0xd0, 0x18, 0x34,
0x05, 0xfb, 0xf4, 0x02, 0x04, 0xee, 0x00, 0xe8, 0x02, 0xf1, 0xf7, 0x21, 0xea, 0xc6, 0xf3, 0xec,
0xde, 0x1b, 0xee, 0x37, 0xdd, 0x3b, 0xd0, 0x1a, 0xcc, 0x04, 0xce, 0x29, 0x19, 0x59, 0x18, 0xf1,
0xe2, 0x0e, 0x53, 0xfb, 0x37, 0xbc, 0x0f, 0xc6, 0xbd, 0xc2, 0x22, 0x4b, 0xe0, 0xc9, 0x77, 0x70,
0xe1, 0x3b, 0x1a, 0x7f, 0xcc, 0xfc, 0xdc, 0x21, 0x16, 0xff, 0xc8, 0xfc, 0xe2, 0x04, 0xaf, 0x1a,
0xf6, 0xf1, 0x51, 0x08, 0x3a, 0xbc, 0x03, 0xcf, 0xd9, 0xb2, 0x13, 0x1a, 0xe2, 0xe2, 0x03, 0x2e,
0x22, 0x15, 0x34, 0x08, 0x2a, 0xd6, 0x17, 0xed, 0x3f, 0x0a, 0x16, 0x12, 0x8a, 0x9a, 0xe5, 0xfc,
0x5e, 0x06, 0xc3, 0x0d, 0xfd, 0x14, 0xc3, 0x05, 0xf6, 0x3d, 0xb6, 0x98, 0x1e, 0x31, 0x9c, 0xfe,
0x16, 0x3c, 0x3c, 0xf7, 0xb5, 0x28, 0x13, 0x0c, 0xe6, 0xf8, 0xf5, 0xfe, 0x81, 0x2b, 0x31, 0xb0,
0xd9, 0xe1, 0xe8, 0xca, 0x1a, 0xd5, 0xfe, 0x1e, 0x8c, 0x29, 0xf4, 0xee, 0x1e, 0x25, 0xef, 0x2c,
0x03, 0xfa, 0x23, 0xfc, 0xe7, 0x29, 0x0b, 0x36, 0x02, 0x07, 0x00, 0xf5, 0x32, 0x18, 0xe0, 0xc4,
0xf5, 0xfc, 0xe3, 0x20, 0x19, 0xe3, 0x07, 0xf1, 0x20, 0x00, 0xec, 0xfc, 0x56, 0x11, 0xff, 0xf3,
0x9b, 0x97, 0xd6, 0x22, 0x4b, 0x06, 0xea, 0x65, 0x53, 0x2f, 0xb6, 0x04, 0xd9, 0xda, 0xe9, 0x22,
0x3b, 0x02, 0x2e, 0x26, 0x07, 0xba, 0xbc, 0xf6, 0xfd, 0xde, 0xfd, 0xcf, 0xb0, 0xf4, 0xf0, 0xec,
0x05, 0x5e, 0x02, 0xb2, 0x1e, 0xc5, 0x17, 0x3e, 0x19, 0x60, 0xf5, 0xe0, 0x81, 0xb1, 0x19, 0x59,
0x05, 0xe0, 0x02, 0xb7, 0x3d, 0xae, 0xfb, 0x89, 0xfc, 0x3f, 0xd0, 0xcf, 0x0e, 0x0c, 0xda, 0x08,
0xf9, 0xfa, 0xd1, 0x0d, 0x4e, 0xe7, 0xc6, 0x1d, 0xf8, 0x07, 0xf6, 0x21, 0x2f, 0xdb, 0xba, 0x21,
0x40, 0x35, 0x31, 0x24, 0x1f, 0xd0, 0x18, 0xc4, 0x64, 0xcf, 0xf6, 0x06, 0xfe, 0x02, 0x25, 0xee,
0xbd, 0x12, 0xd7, 0x3a, 0xba, 0x20, 0x8d, 0x15, 0xeb, 0xdd, 0xba, 0x4a, 0xf9, 0x06, 0x45, 0x14,
0xf5, 0x3b, 0x3d, 0x36, 0x71, 0x91, 0xf8, 0xd8, 0xe5, 0xb0, 0x1a, 0x51, 0xc9, 0xa3, 0x26, 0x2c,
0x2b, 0xcf, 0xf2, 0x7f, 0xee, 0x0a, 0x04, 0xd4, 0x02, 0xc2, 0x2e, 0x36, 0x0d, 0x1c, 0x03, 0xd2,
0x07, 0x3b, 0x19, 0x0c, 0xe0, 0x31, 0x07, 0x23, 0x00, 0x05, 0x0a, 0xf9, 0x10, 0x1d, 0x20, 0x1f,
0xea, 0x16, 0x0c, 0x34, 0xfc, 0xb2, 0xfa, 0x25, 0x2a, 0x1d, 0xf3, 0xeb, 0xc8, 0xcc, 0xde, 0x33,
0x14, 0x06, 0x40, 0x0b, 0x04, 0xee, 0xe4, 0xf7, 0xfe, 0xfa, 0xfb, 0xd6, 0x01, 0x2e, 0xb6, 0xdd,
0xa2, 0xfd, 0xeb, 0x41, 0xd9, 0xcc, 0xe3, 0x6a, 0xf3, 0x41, 0xbd, 0x0f, 0x18, 0x10, 0x1c, 0x0f,
0xf0, 0xff, 0x6b, 0x18, 0x38, 0xaf, 0x09, 0xc6, 0x00, 0xda, 0x08, 0x1f, 0xf3, 0x0b, 0xfd, 0xe3,
0x00, 0x00, 0x00, 0x00, 0xd2, 0xfd, 0xff, 0xff, 0x04, 0x00, 0x00, 0x00, 0x80, 0x00, 0x00, 0x00,
0x60, 0xc4, 0xff, 0xff, 0xa2, 0xe3, 0xff, 0xff, 0x90, 0x86, 0xff, 0xff, 0x3f, 0x5a, 0xff, 0xff,
0xc6, 0xae, 0xff, 0xff, 0xfa, 0xc5, 0xff, 0xff, 0x24, 0xae, 0xff, 0xff, 0xb5, 0xc3, 0xff, 0xff,
0x75, 0xb2, 0xff, 0xff, 0xd0, 0xd6, 0xff, 0xff, 0x84, 0xc2, 0xff, 0xff, 0xd4, 0xba, 0xff, 0xff,
0x28, 0xc4, 0xff, 0xff, 0xc8, 0xda, 0xff, 0xff, 0x05, 0x94, 0xff, 0xff, 0xeb, 0xa9, 0xff, 0xff,
0xce, 0x9d, 0xff, 0xff, 0x1a, 0xa9, 0xff, 0xff, 0xc5, 0xc1, 0xff, 0xff, 0xc4, 0xc0, 0xff, 0xff,
0xa9, 0xb5, 0xff, 0xff, 0xda, 0xa8, 0xff, 0xff, 0x8d, 0xb6, 0xff, 0xff, 0x97, 0x62, 0xff, 0xff,
0xcb, 0x58, 0xff, 0xff, 0xe7, 0x05, 0x00, 0x00, 0x77, 0xbb, 0xff, 0xff, 0xf5, 0xe2, 0xff, 0xff,
0xa0, 0xae, 0xff, 0xff, 0xa7, 0xae, 0xff, 0xff, 0x71, 0xc2, 0xff, 0xff, 0xf1, 0xb3, 0xff, 0xff,
0x00, 0x00, 0x00, 0x00, 0x62, 0xfe, 0xff, 0xff, 0x04, 0x00, 0x00, 0x00, 0x40, 0x00, 0x00, 0x00,
0x0b, 0xc4, 0xdb, 0x03, 0xcf, 0xcf, 0x0e, 0x15, 0x8f, 0x17, 0x0b, 0x12, 0x0e, 0x18, 0xd5, 0xfb,
0x03, 0xdb, 0xfd, 0xe4, 0x1b, 0x03, 0x17, 0xe5, 0x03, 0x3f, 0x15, 0xf5, 0xd1, 0x1c, 0x15, 0xd5,
0xf1, 0x2f, 0x22, 0x06, 0x28, 0x2a, 0xe5, 0xf0, 0x7f, 0xf5, 0xfa, 0xe4, 0xe8, 0xe9, 0x29, 0xff,
0xee, 0x2e, 0xfd, 0x19, 0xdc, 0xf1, 0xea, 0x24, 0x02, 0xcf, 0xed, 0x10, 0x23, 0xee, 0xf7, 0x23,
0x00, 0x00, 0x00, 0x00, 0x00, 0x00, 0x00, 0x00, 0x00, 0x00, 0x00, 0x00, 0xba, 0xfe, 0xff, 0xff,
0x04, 0x00, 0x00, 0x00, 0x08, 0x00, 0x00, 0x00, 0x9f, 0xfb, 0xff, 0xff, 0x61, 0x04, 0x00, 0x00,
0xce, 0xfe, 0xff, 0xff, 0x04, 0x00, 0x00, 0x00, 0x04, 0x00, 0x00, 0x00, 0x01, 0x00, 0x00, 0x00,
0x00, 0x00, 0x00, 0x00, 0x00, 0x00, 0x00, 0x00, 0xe6, 0xfe, 0xff, 0xff, 0x04, 0x00, 0x00, 0x00,
0x0c, 0x00, 0x00, 0x00, 0x01, 0x00, 0x00, 0x00, 0x0c, 0x00, 0x00, 0x00, 0x20, 0x00, 0x00, 0x00,
0x00, 0x00, 0x00, 0x00, 0x02, 0xff, 0xff, 0xff, 0x04, 0x00, 0x00, 0x00, 0x10, 0x00, 0x00, 0x00,
0x01, 0x00, 0x00, 0x00, 0x19, 0x00, 0x00, 0x00, 0x01, 0x00, 0x00, 0x00, 0x20, 0x00, 0x00, 0x00,
0x00, 0x00, 0x00, 0x00, 0x22, 0xff, 0xff, 0xff, 0x04, 0x00, 0x00, 0x00, 0x10, 0x00, 0x00, 0x00,
0x01, 0x00, 0x00, 0x00, 0x01, 0x00, 0x00, 0x00, 0x32, 0x00, 0x00, 0x00, 0x03, 0x00, 0x00, 0x00,
0x00, 0x00, 0x00, 0x00, 0x00, 0x00, 0x00, 0x00, 0x00, 0x00, 0x00, 0x00, 0x88, 0xe7, 0xff, 0xff,
0x00, 0x00, 0x00, 0x00, 0x00, 0x00, 0x00, 0x00, 0x00, 0x00, 0x00, 0x00, 0x98, 0xe7, 0xff, 0xff,
0x00, 0x00, 0x00, 0x00, 0x00, 0x00, 0x00, 0x00, 0x00, 0x00, 0x00, 0x00, 0x0f, 0x00, 0x00, 0x00,
0x4d, 0x4c, 0x49, 0x52, 0x20, 0x43, 0x6f, 0x6e, 0x76, 0x65, 0x72, 0x74, 0x65, 0x64, 0x2e, 0x00,
0x01, 0x00, 0x00, 0x00, 0x14, 0x00, 0x00, 0x00, 0x00, 0x00, 0x0e, 0x00, 0x18, 0x00, 0x14, 0x00,
0x10, 0x00, 0x0c, 0x00, 0x08, 0x00, 0x04, 0x00, 0x0e, 0x00, 0x00, 0x00, 0x14, 0x00, 0x00, 0x00,
0x1c, 0x00, 0x00, 0x00, 0x74, 0x02, 0x00, 0x00, 0x78, 0x02, 0x00, 0x00, 0x7c, 0x02, 0x00, 0x00,
0x04, 0x00, 0x00, 0x00, 0x6d, 0x61, 0x69, 0x6e, 0x00, 0x00, 0x00, 0x00, 0x0a, 0x00, 0x00, 0x00,
0x38, 0x02, 0x00, 0x00, 0xdc, 0x01, 0x00, 0x00, 0x8c, 0x01, 0x00, 0x00, 0x48, 0x01, 0x00, 0x00,
0x24, 0x01, 0x00, 0x00, 0xd0, 0x00, 0x00, 0x00, 0xac, 0x00, 0x00, 0x00, 0x78, 0x00, 0x00, 0x00,
0x40, 0x00, 0x00, 0x00, 0x04, 0x00, 0x00, 0x00, 0x56, 0xfe, 0xff, 0xff, 0x1c, 0x00, 0x00, 0x00,
0x00, 0x00, 0x00, 0x09, 0x1c, 0x00, 0x00, 0x00, 0x20, 0x00, 0x00, 0x00, 0x05, 0x00, 0x00, 0x00,
0x00, 0x00, 0x06, 0x00, 0x08, 0x00, 0x04, 0x00, 0x06, 0x00, 0x00, 0x00, 0x00, 0x00, 0x80, 0x3f,
0x01, 0x00, 0x00, 0x00, 0x16, 0x00, 0x00, 0x00, 0x01, 0x00, 0x00, 0x00, 0x15, 0x00, 0x00, 0x00,
0x8e, 0xfe, 0xff, 0xff, 0x14, 0x00, 0x00, 0x00, 0x00, 0x00, 0x00, 0x08, 0x10, 0x00, 0x00, 0x00,
0x14, 0x00, 0x00, 0x00, 0x04, 0x00, 0x00, 0x00, 0x74, 0xe8, 0xff, 0xff, 0x01, 0x00, 0x00, 0x00,
0x15, 0x00, 0x00, 0x00, 0x03, 0x00, 0x00, 0x00, 0x14, 0x00, 0x00, 0x00, 0x06, 0x00, 0x00, 0x00,
0x05, 0x00, 0x00, 0x00, 0xc2, 0xfe, 0xff, 0xff, 0x14, 0x00, 0x00, 0x00, 0x00, 0x00, 0x00, 0x1b,
0x10, 0x00, 0x00, 0x00, 0x14, 0x00, 0x00, 0x00, 0x03, 0x00, 0x00, 0x00, 0xa8, 0xe8, 0xff, 0xff,
0x01, 0x00, 0x00, 0x00, 0x14, 0x00, 0x00, 0x00, 0x02, 0x00, 0x00, 0x00, 0x13, 0x00, 0x00, 0x00,
0x04, 0x00, 0x00, 0x00, 0x96, 0xfe, 0xff, 0xff, 0x08, 0x00, 0x00, 0x00, 0x0c, 0x00, 0x00, 0x00,
0x01, 0x00, 0x00, 0x00, 0x13, 0x00, 0x00, 0x00, 0x02, 0x00, 0x00, 0x00, 0x12, 0x00, 0x00, 0x00,
0x03, 0x00, 0x00, 0x00, 0x12, 0xff, 0xff, 0xff, 0x24, 0x00, 0x00, 0x00, 0x00, 0x00, 0x00, 0x05,
0x34, 0x00, 0x00, 0x00, 0x38, 0x00, 0x00, 0x00, 0x02, 0x00, 0x00, 0x00, 0x00, 0x00, 0x0e, 0x00,
0x18, 0x00, 0x17, 0x00, 0x10, 0x00, 0x0c, 0x00, 0x08, 0x00, 0x04, 0x00, 0x0e, 0x00, 0x00, 0x00,
0x02, 0x00, 0x00, 0x00, 0x01, 0x00, 0x00, 0x00, 0x02, 0x00, 0x00, 0x00, 0x01, 0x00, 0x00, 0x00,
0x00, 0x00, 0x00, 0x01, 0x01, 0x00, 0x00, 0x00, 0x12, 0x00, 0x00, 0x00, 0x01, 0x00, 0x00, 0x00,
0x11, 0x00, 0x00, 0x00, 0x06, 0xff, 0xff, 0xff, 0x08, 0x00, 0x00, 0x00, 0x0c, 0x00, 0x00, 0x00,
0x01, 0x00, 0x00, 0x00, 0x11, 0x00, 0x00, 0x00, 0x02, 0x00, 0x00, 0x00, 0x10, 0x00, 0x00, 0x00,
0x02, 0x00, 0x00, 0x00, 0x82, 0xff, 0xff, 0xff, 0x14, 0x00, 0x00, 0x00, 0x00, 0x00, 0x00, 0x01,
0x1c, 0x00, 0x00, 0x00, 0x20, 0x00, 0x00, 0x00, 0x01, 0x00, 0x00, 0x00, 0x74, 0xff, 0xff, 0xff,
0x00, 0x00, 0x00, 0x01, 0x01, 0x00, 0x00, 0x00, 0x01, 0x00, 0x00, 0x00, 0x01, 0x00, 0x00, 0x00,
0x10, 0x00, 0x00, 0x00, 0x03, 0x00, 0x00, 0x00, 0x0f, 0x00, 0x00, 0x00, 0x08, 0x00, 0x00, 0x00,
0x07, 0x00, 0x00, 0x00, 0xc2, 0xff, 0xff, 0xff, 0x14, 0x00, 0x00, 0x00, 0x00, 0x00, 0x00, 0x01,
0x18, 0x00, 0x00, 0x00, 0x1c, 0x00, 0x00, 0x00, 0x01, 0x00, 0x00, 0x00, 0x7e, 0xff, 0xff, 0xff,
0x01, 0x00, 0x00, 0x00, 0x01, 0x00, 0x00, 0x00, 0x01, 0x00, 0x00, 0x00, 0x0f, 0x00, 0x00, 0x00,
0x03, 0x00, 0x00, 0x00, 0x0e, 0x00, 0x00, 0x00, 0x0a, 0x00, 0x00, 0x00, 0x09, 0x00, 0x00, 0x00,
0x00, 0x00, 0x0e, 0x00, 0x18, 0x00, 0x14, 0x00, 0x10, 0x00, 0x0c, 0x00, 0x0b, 0x00, 0x04, 0x00,
0x0e, 0x00, 0x00, 0x00, 0x20, 0x00, 0x00, 0x00, 0x00, 0x00, 0x00, 0x01, 0x28, 0x00, 0x00, 0x00,
0x2c, 0x00, 0x00, 0x00, 0x01, 0x00, 0x00, 0x00, 0x0c, 0x00, 0x10, 0x00, 0x00, 0x00, 0x0c, 0x00,
0x08, 0x00, 0x07, 0x00, 0x0c, 0x00, 0x00, 0x00, 0x00, 0x00, 0x00, 0x01, 0x01, 0x00, 0x00, 0x00,
0x02, 0x00, 0x00, 0x00, 0x01, 0x00, 0x00, 0x00, 0x0e, 0x00, 0x00, 0x00, 0x03, 0x00, 0x00, 0x00,
0x0d, 0x00, 0x00, 0x00, 0x0c, 0x00, 0x00, 0x00, 0x0b, 0x00, 0x00, 0x00, 0x00, 0x00, 0x0a, 0x00,
0x0c, 0x00, 0x00, 0x00, 0x08, 0x00, 0x04, 0x00, 0x0a, 0x00, 0x00, 0x00, 0x08, 0x00, 0x00, 0x00,
0x0c, 0x00, 0x00, 0x00, 0x01, 0x00, 0x00, 0x00, 0x0d, 0x00, 0x00, 0x00, 0x02, 0x00, 0x00, 0x00,
0x00, 0x00, 0x00, 0x00, 0x01, 0x00, 0x00, 0x00, 0x01, 0x00, 0x00, 0x00, 0x16, 0x00, 0x00, 0x00,
0x01, 0x00, 0x00, 0x00, 0x00, 0x00, 0x00, 0x00, 0x17, 0x00, 0x00, 0x00, 0xf8, 0x15, 0x00, 0x00,
0x7c, 0x15, 0x00, 0x00, 0x1c, 0x15, 0x00, 0x00, 0xc0, 0x14, 0x00, 0x00, 0x58, 0x14, 0x00, 0x00,
0xd0, 0x13, 0x00, 0x00, 0x54, 0x13, 0x00, 0x00, 0x60, 0x11, 0x00, 0x00, 0xc4, 0x0e, 0x00, 0x00,
0xd8, 0x0c, 0x00, 0x00, 0xdc, 0x0a, 0x00, 0x00, 0xa8, 0x09, 0x00, 0x00, 0xcc, 0x07, 0x00, 0x00,
0x38, 0x07, 0x00, 0x00, 0x74, 0x05, 0x00, 0x00, 0xf0, 0x04, 0x00, 0x00, 0x2c, 0x03, 0x00, 0x00,
0xa0, 0x02, 0x00, 0x00, 0x1c, 0x02, 0x00, 0x00, 0x98, 0x01, 0x00, 0x00, 0x1c, 0x01, 0x00, 0x00,
0x70, 0x00, 0x00, 0x00, 0x04, 0x00, 0x00, 0x00, 0x72, 0xea, 0xff, 0xff, 0x14, 0x00, 0x00, 0x00,
0x34, 0x00, 0x00, 0x00, 0x17, 0x00, 0x00, 0x00, 0x00, 0x00, 0x00, 0x09, 0x48, 0x00, 0x00, 0x00,
0x64, 0xea, 0xff, 0xff, 0x08, 0x00, 0x00, 0x00, 0x14, 0x00, 0x00, 0x00, 0x01, 0x00, 0x00, 0x00,
0x80, 0xff, 0xff, 0xff, 0xff, 0xff, 0xff, 0xff, 0x00, 0x00, 0x00, 0x00, 0x01, 0x00, 0x00, 0x00,
0x00, 0x00, 0x80, 0x3b, 0x19, 0x00, 0x00, 0x00, 0x53, 0x74, 0x61, 0x74, 0x65, 0x66, 0x75, 0x6c,
0x50, 0x61, 0x72, 0x74, 0x69, 0x74, 0x69, 0x6f, 0x6e, 0x65, 0x64, 0x43, 0x61, 0x6c, 0x6c, 0x3a,
0x30, 0x00, 0x00, 0x00, 0x02, 0x00, 0x00, 0x00, 0x01, 0x00, 0x00, 0x00, 0x02, 0x00, 0x00, 0x00,
0xda, 0xea, 0xff, 0xff, 0x14, 0x00, 0x00, 0x00, 0x30, 0x00, 0x00, 0x00, 0x16, 0x00, 0x00, 0x00,
0x00, 0x00, 0x00, 0x09, 0x88, 0x00, 0x00, 0x00, 0xcc, 0xea, 0xff, 0xff, 0x08, 0x00, 0x00, 0x00,
0x10, 0x00, 0x00, 0x00, 0x01, 0x00, 0x00, 0x00, 0xff, 0xff, 0xff, 0xff, 0xff, 0xff, 0xff, 0xff,
0x01, 0x00, 0x00, 0x00, 0xe0, 0xfb, 0x93, 0x3d, 0x5e, 0x00, 0x00, 0x00, 0x6d, 0x6f, 0x64, 0x65,
0x6c, 0x5f, 0x31, 0x2f, 0x63, 0x6f, 0x6e, 0x76, 0x31, 0x64, 0x2d, 0x73, 0x6d, 0x61, 0x6c, 0x6c,
0x2d, 0x62, 0x61, 0x6c, 0x61, 0x6e, 0x63, 0x65, 0x64, 0x2d, 0x32, 0x2f, 0x6c, 0x61, 0x79, 0x65,
0x72, 0x5f, 0x39, 0x2f, 0x4d, 0x61, 0x74, 0x4d, 0x75, 0x6c, 0x3b, 0x6d, 0x6f, 0x64, 0x65, 0x6c,
0x5f, 0x31, 0x2f, 0x63, 0x6f, 0x6e, 0x76, 0x31, 0x64, 0x2d, 0x73, 0x6d, 0x61, 0x6c, 0x6c, 0x2d,
0x62, 0x61, 0x6c, 0x61, 0x6e, 0x63, 0x65, 0x64, 0x2d, 0x32, 0x2f, 0x6c, 0x61, 0x79, 0x65, 0x72,
0x5f, 0x39, 0x2f, 0x42, 0x69, 0x61, 0x73, 0x41, 0x64, 0x64, 0x00, 0x00, 0x02, 0x00, 0x00, 0x00,
0x01, 0x00, 0x00, 0x00, 0x02, 0x00, 0x00, 0x00, 0x82, 0xeb, 0xff, 0xff, 0x14, 0x00, 0x00, 0x00,
0x30, 0x00, 0x00, 0x00, 0x15, 0x00, 0x00, 0x00, 0x00, 0x00, 0x00, 0x09, 0x58, 0x00, 0x00, 0x00,
0x74, 0xeb, 0xff, 0xff, 0x08, 0x00, 0x00, 0x00, 0x10, 0x00, 0x00, 0x00, 0x01, 0x00, 0x00, 0x00,
0x80, 0xff, 0xff, 0xff, 0xff, 0xff, 0xff, 0xff, 0x01, 0x00, 0x00, 0x00, 0x2b, 0x3a, 0x89, 0x3c,
0x2c, 0x00, 0x00, 0x00, 0x6d, 0x6f, 0x64, 0x65, 0x6c, 0x5f, 0x31, 0x2f, 0x63, 0x6f, 0x6e, 0x76,
0x31, 0x64, 0x2d, 0x73, 0x6d, 0x61, 0x6c, 0x6c, 0x2d, 0x62, 0x61, 0x6c, 0x61, 0x6e, 0x63, 0x65,
0x64, 0x2d, 0x32, 0x2f, 0x6c, 0x61, 0x79, 0x65, 0x72, 0x5f, 0x38, 0x2f, 0x4d, 0x65, 0x61, 0x6e,
0x00, 0x00, 0x00, 0x00, 0x02, 0x00, 0x00, 0x00, 0x01, 0x00, 0x00, 0x00, 0x20, 0x00, 0x00, 0x00,
0xfa, 0xeb, 0xff, 0xff, 0x14, 0x00, 0x00, 0x00, 0x30, 0x00, 0x00, 0x00, 0x14, 0x00, 0x00, 0x00,
0x00, 0x00, 0x00, 0x09, 0x5c, 0x00, 0x00, 0x00, 0xec, 0xeb, 0xff, 0xff, 0x08, 0x00, 0x00, 0x00,
0x10, 0x00, 0x00, 0x00, 0x01, 0x00, 0x00, 0x00, 0x80, 0xff, 0xff, 0xff, 0xff, 0xff, 0xff, 0xff,
0x01, 0x00, 0x00, 0x00, 0x60, 0x37, 0x03, 0x3d, 0x30, 0x00, 0x00, 0x00, 0x6d, 0x6f, 0x64, 0x65,
0x6c, 0x5f, 0x31, 0x2f, 0x63, 0x6f, 0x6e, 0x76, 0x31, 0x64, 0x2d, 0x73, 0x6d, 0x61, 0x6c, 0x6c,
0x2d, 0x62, 0x61, 0x6c, 0x61, 0x6e, 0x63, 0x65, 0x64, 0x2d, 0x32, 0x2f, 0x6c, 0x61, 0x79, 0x65,
0x72, 0x5f, 0x37, 0x2f, 0x53, 0x71, 0x75, 0x65, 0x65, 0x7a, 0x65, 0x31, 0x00, 0x00, 0x00, 0x00,
0x03, 0x00, 0x00, 0x00, 0x01, 0x00, 0x00, 0x00, 0x0c, 0x00, 0x00, 0x00, 0x20, 0x00, 0x00, 0x00,
0x7a, 0xec, 0xff, 0xff, 0x14, 0x00, 0x00, 0x00, 0x30, 0x00, 0x00, 0x00, 0x13, 0x00, 0x00, 0x00,
0x00, 0x00, 0x00, 0x09, 0x58, 0x00, 0x00, 0x00, 0x6c, 0xec, 0xff, 0xff, 0x08, 0x00, 0x00, 0x00,
0x10, 0x00, 0x00, 0x00, 0x01, 0x00, 0x00, 0x00, 0x80, 0xff, 0xff, 0xff, 0xff, 0xff, 0xff, 0xff,
0x01, 0x00, 0x00, 0x00, 0x60, 0x37, 0x03, 0x3d, 0x2f, 0x00, 0x00, 0x00, 0x6d, 0x6f, 0x64, 0x65,
0x6c, 0x5f, 0x31, 0x2f, 0x63, 0x6f, 0x6e, 0x76, 0x31, 0x64, 0x2d, 0x73, 0x6d, 0x61, 0x6c, 0x6c,
0x2d, 0x62, 0x61, 0x6c, 0x61, 0x6e, 0x63, 0x65, 0x64, 0x2d, 0x32, 0x2f, 0x6c, 0x61, 0x79, 0x65,
0x72, 0x5f, 0x37, 0x2f, 0x4d, 0x61, 0x78, 0x50, 0x6f, 0x6f, 0x6c, 0x00, 0x04, 0x00, 0x00, 0x00,
0x01, 0x00, 0x00, 0x00, 0x0c, 0x00, 0x00, 0x00, 0x01, 0x00, 0x00, 0x00, 0x20, 0x00, 0x00, 0x00,
0xfa, 0xec, 0xff, 0xff, 0x14, 0x00, 0x00, 0x00, 0x34, 0x00, 0x00, 0x00, 0x12, 0x00, 0x00, 0x00,
0x00, 0x00, 0x00, 0x09, 0x60, 0x00, 0x00, 0x00, 0xec, 0xec, 0xff, 0xff, 0x08, 0x00, 0x00, 0x00,
0x14, 0x00, 0x00, 0x00, 0x01, 0x00, 0x00, 0x00, 0x80, 0xff, 0xff, 0xff, 0xff, 0xff, 0xff, 0xff,
0x00, 0x00, 0x00, 0x00, 0x01, 0x00, 0x00, 0x00, 0x60, 0x37, 0x03, 0x3d, 0x33, 0x00, 0x00, 0x00,
0x6d, 0x6f, 0x64, 0x65, 0x6c, 0x5f, 0x31, 0x2f, 0x63, 0x6f, 0x6e, 0x76, 0x31, 0x64, 0x2d, 0x73,
0x6d, 0x61, 0x6c, 0x6c, 0x2d, 0x62, 0x61, 0x6c, 0x61, 0x6e, 0x63, 0x65, 0x64, 0x2d, 0x32, 0x2f,
0x6c, 0x61, 0x79, 0x65, 0x72, 0x5f, 0x37, 0x2f, 0x45, 0x78, 0x70, 0x61, 0x6e, 0x64, 0x44, 0x69,
0x6d, 0x73, 0x31, 0x00, 0x04, 0x00, 0x00, 0x00, 0x01, 0x00, 0x00, 0x00, 0x19, 0x00, 0x00, 0x00,
0x01, 0x00, 0x00, 0x00, 0x20, 0x00, 0x00, 0x00, 0x82, 0xed, 0xff, 0xff, 0x14, 0x00, 0x00, 0x00,
0x30, 0x00, 0x00, 0x00, 0x11, 0x00, 0x00, 0x00, 0x00, 0x00, 0x00, 0x09, 0x98, 0x01, 0x00, 0x00,
0x74, 0xed, 0xff, 0xff, 0x08, 0x00, 0x00, 0x00, 0x10, 0x00, 0x00, 0x00, 0x01, 0x00, 0x00, 0x00,
0x80, 0xff, 0xff, 0xff, 0xff, 0xff, 0xff, 0xff, 0x01, 0x00, 0x00, 0x00, 0x60, 0x37, 0x03, 0x3d,
0x6e, 0x01, 0x00, 0x00, 0x6d, 0x6f, 0x64, 0x65, 0x6c, 0x5f, 0x31, 0x2f, 0x63, 0x6f, 0x6e, 0x76,
0x31, 0x64, 0x2d, 0x73, 0x6d, 0x61, 0x6c, 0x6c, 0x2d, 0x62, 0x61, 0x6c, 0x61, 0x6e, 0x63, 0x65,
0x64, 0x2d, 0x32, 0x2f, 0x6c, 0x61, 0x79, 0x65, 0x72, 0x5f, 0x36, 0x2f, 0x52, 0x65, 0x6c, 0x75,
0x3b, 0x6d, 0x6f, 0x64, 0x65, 0x6c, 0x5f, 0x31, 0x2f, 0x63, 0x6f, 0x6e, 0x76, 0x31, 0x64, 0x2d,
0x73, 0x6d, 0x61, 0x6c, 0x6c, 0x2d, 0x62, 0x61, 0x6c, 0x61, 0x6e, 0x63, 0x65, 0x64, 0x2d, 0x32,
0x2f, 0x6c, 0x61, 0x79, 0x65, 0x72, 0x5f, 0x35, 0x2f, 0x62, 0x61, 0x74, 0x63, 0x68, 0x6e, 0x6f,
0x72, 0x6d, 0x2f, 0x61, 0x64, 0x64, 0x5f, 0x31, 0x3b, 0x6d, 0x6f, 0x64, 0x65, 0x6c, 0x5f, 0x31,
0x2f, 0x63, 0x6f, 0x6e, 0x76, 0x31, 0x64, 0x2d, 0x73, 0x6d, 0x61, 0x6c, 0x6c, 0x2d, 0x62, 0x61,
0x6c, 0x61, 0x6e, 0x63, 0x65, 0x64, 0x2d, 0x32, 0x2f, 0x6c, 0x61, 0x79, 0x65, 0x72, 0x5f, 0x34,
0x2f, 0x43, 0x6f, 0x6e, 0x76, 0x31, 0x44, 0x2f, 0x53, 0x71, 0x75, 0x65, 0x65, 0x7a, 0x65, 0x3b,
0x6d, 0x6f, 0x64, 0x65, 0x6c, 0x5f, 0x31, 0x2f, 0x63, 0x6f, 0x6e, 0x76, 0x31, 0x64, 0x2d, 0x73,
0x6d, 0x61, 0x6c, 0x6c, 0x2d, 0x62, 0x61, 0x6c, 0x61, 0x6e, 0x63, 0x65, 0x64, 0x2d, 0x32, 0x2f,
0x6c, 0x61, 0x79, 0x65, 0x72, 0x5f, 0x35, 0x2f, 0x62, 0x61, 0x74, 0x63, 0x68, 0x6e, 0x6f, 0x72,
0x6d, 0x2f, 0x6d, 0x75, 0x6c, 0x5f, 0x31, 0x3b, 0x6d, 0x6f, 0x64, 0x65, 0x6c, 0x5f, 0x31, 0x2f,
0x63, 0x6f, 0x6e, 0x76, 0x31, 0x64, 0x2d, 0x73, 0x6d, 0x61, 0x6c, 0x6c, 0x2d, 0x62, 0x61, 0x6c,
0x61, 0x6e, 0x63, 0x65, 0x64, 0x2d, 0x32, 0x2f, 0x6c, 0x61, 0x79, 0x65, 0x72, 0x5f, 0x35, 0x2f,
0x62, 0x61, 0x74, 0x63, 0x68, 0x6e, 0x6f, 0x72, 0x6d, 0x2f, 0x6d, 0x75, 0x6c, 0x3b, 0x6d, 0x6f,
0x64, 0x65, 0x6c, 0x5f, 0x31, 0x2f, 0x63, 0x6f, 0x6e, 0x76, 0x31, 0x64, 0x2d, 0x73, 0x6d, 0x61,
0x6c, 0x6c, 0x2d, 0x62, 0x61, 0x6c, 0x61, 0x6e, 0x63, 0x65, 0x64, 0x2d, 0x32, 0x2f, 0x6c, 0x61,
0x79, 0x65, 0x72, 0x5f, 0x35, 0x2f, 0x62, 0x61, 0x74, 0x63, 0x68, 0x6e, 0x6f, 0x72, 0x6d, 0x2f,
0x73, 0x75, 0x62, 0x3b, 0x6d, 0x6f, 0x64, 0x65, 0x6c, 0x5f, 0x31, 0x2f, 0x63, 0x6f, 0x6e, 0x76,
0x31, 0x64, 0x2d, 0x73, 0x6d, 0x61, 0x6c, 0x6c, 0x2d, 0x62, 0x61, 0x6c, 0x61, 0x6e, 0x63, 0x65,
0x64, 0x2d, 0x32, 0x2f, 0x6c, 0x61, 0x79, 0x65, 0x72, 0x5f, 0x34, 0x2f, 0x43, 0x6f, 0x6e, 0x76,
0x31, 0x44, 0x00, 0x00, 0x04, 0x00, 0x00, 0x00, 0x01, 0x00, 0x00, 0x00, 0x01, 0x00, 0x00, 0x00,
0x19, 0x00, 0x00, 0x00, 0x20, 0x00, 0x00, 0x00, 0x42, 0xef, 0xff, 0xff, 0x14, 0x00, 0x00, 0x00,
0x30, 0x00, 0x00, 0x00, 0x10, 0x00, 0x00, 0x00, 0x00, 0x00, 0x00, 0x09, 0x58, 0x00, 0x00, 0x00,
0x34, 0xef, 0xff, 0xff, 0x08, 0x00, 0x00, 0x00, 0x10, 0x00, 0x00, 0x00, 0x01, 0x00, 0x00, 0x00,
0x1a, 0x00, 0x00, 0x00, 0x00, 0x00, 0x00, 0x00, 0x01, 0x00, 0x00, 0x00, 0x96, 0x6e, 0x5d, 0x3e,
0x2f, 0x00, 0x00, 0x00, 0x6d, 0x6f, 0x64, 0x65, 0x6c, 0x5f, 0x31, 0x2f, 0x63, 0x6f, 0x6e, 0x76,
0x31, 0x64, 0x2d, 0x73, 0x6d, 0x61, 0x6c, 0x6c, 0x2d, 0x62, 0x61, 0x6c, 0x61, 0x6e, 0x63, 0x65,
0x64, 0x2d, 0x32, 0x2f, 0x6c, 0x61, 0x79, 0x65, 0x72, 0x5f, 0x33, 0x2f, 0x43, 0x6f, 0x6e, 0x76,
0x31, 0x44, 0x31, 0x00, 0x04, 0x00, 0x00, 0x00, 0x01, 0x00, 0x00, 0x00, 0x01, 0x00, 0x00, 0x00,
0x19, 0x00, 0x00, 0x00, 0x20, 0x00, 0x00, 0x00, 0xc2, 0xef, 0xff, 0xff, 0x14, 0x00, 0x00, 0x00,
0x30, 0x00, 0x00, 0x00, 0x0f, 0x00, 0x00, 0x00, 0x00, 0x00, 0x00, 0x09, 0x98, 0x01, 0x00, 0x00,
0xb4, 0xef, 0xff, 0xff, 0x08, 0x00, 0x00, 0x00, 0x10, 0x00, 0x00, 0x00, 0x01, 0x00, 0x00, 0x00,
0x80, 0xff, 0xff, 0xff, 0xff, 0xff, 0xff, 0xff, 0x01, 0x00, 0x00, 0x00, 0xb1, 0xe0, 0xfb, 0x3c,
0x6e, 0x01, 0x00, 0x00, 0x6d, 0x6f, 0x64, 0x65, 0x6c, 0x5f, 0x31, 0x2f, 0x63, 0x6f, 0x6e, 0x76,
0x31, 0x64, 0x2d, 0x73, 0x6d, 0x61, 0x6c, 0x6c, 0x2d, 0x62, 0x61, 0x6c, 0x61, 0x6e, 0x63, 0x65,
0x64, 0x2d, 0x32, 0x2f, 0x6c, 0x61, 0x79, 0x65, 0x72, 0x5f, 0x32, 0x2f, 0x52, 0x65, 0x6c, 0x75,
0x3b, 0x6d, 0x6f, 0x64, 0x65, 0x6c, 0x5f, 0x31, 0x2f, 0x63, 0x6f, 0x6e, 0x76, 0x31, 0x64, 0x2d,
0x73, 0x6d, 0x61, 0x6c, 0x6c, 0x2d, 0x62, 0x61, 0x6c, 0x61, 0x6e, 0x63, 0x65, 0x64, 0x2d, 0x32,
0x2f, 0x6c, 0x61, 0x79, 0x65, 0x72, 0x5f, 0x31, 0x2f, 0x62, 0x61, 0x74, 0x63, 0x68, 0x6e, 0x6f,
0x72, 0x6d, 0x2f, 0x61, 0x64, 0x64, 0x5f, 0x31, 0x3b, 0x6d, 0x6f, 0x64, 0x65, 0x6c, 0x5f, 0x31,
0x2f, 0x63, 0x6f, 0x6e, 0x76, 0x31, 0x64, 0x2d, 0x73, 0x6d, 0x61, 0x6c, 0x6c, 0x2d, 0x62, 0x61,
0x6c, 0x61, 0x6e, 0x63, 0x65, 0x64, 0x2d, 0x32, 0x2f, 0x6c, 0x61, 0x79, 0x65, 0x72, 0x5f, 0x30,
0x2f, 0x43, 0x6f, 0x6e, 0x76, 0x31, 0x44, 0x2f, 0x53, 0x71, 0x75, 0x65, 0x65, 0x7a, 0x65, 0x3b,
0x6d, 0x6f, 0x64, 0x65, 0x6c, 0x5f, 0x31, 0x2f, 0x63, 0x6f, 0x6e, 0x76, 0x31, 0x64, 0x2d, 0x73,
0x6d, 0x61, 0x6c, 0x6c, 0x2d, 0x62, 0x61, 0x6c, 0x61, 0x6e, 0x63, 0x65, 0x64, 0x2d, 0x32, 0x2f,
0x6c, 0x61, 0x79, 0x65, 0x72, 0x5f, 0x31, 0x2f, 0x62, 0x61, 0x74, 0x63, 0x68, 0x6e, 0x6f, 0x72,
0x6d, 0x2f, 0x6d, 0x75, 0x6c, 0x5f, 0x31, 0x3b, 0x6d, 0x6f, 0x64, 0x65, 0x6c, 0x5f, 0x31, 0x2f,
0x63, 0x6f, 0x6e, 0x76, 0x31, 0x64, 0x2d, 0x73, 0x6d, 0x61, 0x6c, 0x6c, 0x2d, 0x62, 0x61, 0x6c,
0x61, 0x6e, 0x63, 0x65, 0x64, 0x2d, 0x32, 0x2f, 0x6c, 0x61, 0x79, 0x65, 0x72, 0x5f, 0x31, 0x2f,
0x62, 0x61, 0x74, 0x63, 0x68, 0x6e, 0x6f, 0x72, 0x6d, 0x2f, 0x6d, 0x75, 0x6c, 0x3b, 0x6d, 0x6f,
0x64, 0x65, 0x6c, 0x5f, 0x31, 0x2f, 0x63, 0x6f, 0x6e, 0x76, 0x31, 0x64, 0x2d, 0x73, 0x6d, 0x61,
0x6c, 0x6c, 0x2d, 0x62, 0x61, 0x6c, 0x61, 0x6e, 0x63, 0x65, 0x64, 0x2d, 0x32, 0x2f, 0x6c, 0x61,
0x79, 0x65, 0x72, 0x5f, 0x31, 0x2f, 0x62, 0x61, 0x74, 0x63, 0x68, 0x6e, 0x6f, 0x72, 0x6d, 0x2f,
0x73, 0x75, 0x62, 0x3b, 0x6d, 0x6f, 0x64, 0x65, 0x6c, 0x5f, 0x31, 0x2f, 0x63, 0x6f, 0x6e, 0x76,
0x31, 0x64, 0x2d, 0x73, 0x6d, 0x61, 0x6c, 0x6c, 0x2d, 0x62, 0x61, 0x6c, 0x61, 0x6e, 0x63, 0x65,
0x64, 0x2d, 0x32, 0x2f, 0x6c, 0x61, 0x79, 0x65, 0x72, 0x5f, 0x30, 0x2f, 0x43, 0x6f, 0x6e, 0x76,
0x31, 0x44, 0x00, 0x00, 0x04, 0x00, 0x00, 0x00, 0x01, 0x00, 0x00, 0x00, 0x01, 0x00, 0x00, 0x00,
0x19, 0x00, 0x00, 0x00, 0x10, 0x00, 0x00, 0x00, 0x82, 0xf1, 0xff, 0xff, 0x14, 0x00, 0x00, 0x00,
0x34, 0x00, 0x00, 0x00, 0x0e, 0x00, 0x00, 0x00, 0x00, 0x00, 0x00, 0x09, 0x68, 0x00, 0x00, 0x00,
0x74, 0xf1, 0xff, 0xff, 0x08, 0x00, 0x00, 0x00, 0x14, 0x00, 0x00, 0x00, 0x01, 0x00, 0x00, 0x00,
0x80, 0xff, 0xff, 0xff, 0xff, 0xff, 0xff, 0xff, 0x00, 0x00, 0x00, 0x00, 0x01, 0x00, 0x00, 0x00,
0xfd, 0xfc, 0xbc, 0x40, 0x3a, 0x00, 0x00, 0x00, 0x6d, 0x6f, 0x64, 0x65, 0x6c, 0x5f, 0x31, 0x2f,
0x63, 0x6f, 0x6e, 0x76, 0x31, 0x64, 0x2d, 0x73, 0x6d, 0x61, 0x6c, 0x6c, 0x2d, 0x62, 0x61, 0x6c,
0x61, 0x6e, 0x63, 0x65, 0x64, 0x2d, 0x32, 0x2f, 0x6c, 0x61, 0x79, 0x65, 0x72, 0x5f, 0x30, 0x2f,
0x43, 0x6f, 0x6e, 0x76, 0x31, 0x44, 0x2f, 0x45, 0x78, 0x70, 0x61, 0x6e, 0x64, 0x44, 0x69, 0x6d,
0x73, 0x31, 0x00, 0x00, 0x04, 0x00, 0x00, 0x00, 0x01, 0x00, 0x00, 0x00, 0x01, 0x00, 0x00, 0x00,
0x32, 0x00, 0x00, 0x00, 0x03, 0x00, 0x00, 0x00, 0x12, 0xf2, 0xff, 0xff, 0x14, 0x00, 0x00, 0x00,
0xe4, 0x00, 0x00, 0x00, 0x0d, 0x00, 0x00, 0x00, 0x00, 0x00, 0x00, 0x09, 0xb0, 0x01, 0x00, 0x00,
0x04, 0xf2, 0xff, 0xff, 0x08, 0x00, 0x00, 0x00, 0x88, 0x00, 0x00, 0x00, 0x10, 0x00, 0x00, 0x00,
0x00, 0x00, 0x00, 0x00, 0x00, 0x00, 0x00, 0x00, 0x00, 0x00, 0x00, 0x00, 0x00, 0x00, 0x00, 0x00,
0x00, 0x00, 0x00, 0x00, 0x00, 0x00, 0x00, 0x00, 0x00, 0x00, 0x00, 0x00, 0x00, 0x00, 0x00, 0x00,
0x00, 0x00, 0x00, 0x00, 0x00, 0x00, 0x00, 0x00, 0x00, 0x00, 0x00, 0x00, 0x00, 0x00, 0x00, 0x00,
0x00, 0x00, 0x00, 0x00, 0x00, 0x00, 0x00, 0x00, 0x00, 0x00, 0x00, 0x00, 0x00, 0x00, 0x00, 0x00,
0x00, 0x00, 0x00, 0x00, 0x00, 0x00, 0x00, 0x00, 0x00, 0x00, 0x00, 0x00, 0x00, 0x00, 0x00, 0x00,
0x00, 0x00, 0x00, 0x00, 0x00, 0x00, 0x00, 0x00, 0x00, 0x00, 0x00, 0x00, 0x00, 0x00, 0x00, 0x00,
0x00, 0x00, 0x00, 0x00, 0x00, 0x00, 0x00, 0x00, 0x00, 0x00, 0x00, 0x00, 0x00, 0x00, 0x00, 0x00,
0x00, 0x00, 0x00, 0x00, 0x00, 0x00, 0x00, 0x00, 0x00, 0x00, 0x00, 0x00, 0x00, 0x00, 0x00, 0x00,
0x10, 0x00, 0x00, 0x00, 0x35, 0x73, 0xe3, 0x39, 0x30, 0x93, 0xb2, 0x37, 0xd5, 0xe0, 0xf0, 0x38,
0x22, 0xe9, 0xbb, 0x38, 0xff, 0xb5, 0x84, 0x38, 0x04, 0xb7, 0x5a, 0x38, 0x0a, 0xcb, 0x44, 0x38,
0x56, 0xae, 0xb8, 0x38, 0x72, 0xd3, 0x27, 0x38, 0x81, 0xd9, 0xdf, 0x39, 0x72, 0x6e, 0x18, 0x39,
0x05, 0x8c, 0x49, 0x37, 0xa9, 0x56, 0x3d, 0x38, 0xb3, 0x50, 0xf6, 0x39, 0xc7, 0xb2, 0xe5, 0x38,
0x92, 0x27, 0x82, 0x3a, 0xd3, 0x00, 0x00, 0x00, 0x6d, 0x6f, 0x64, 0x65, 0x6c, 0x5f, 0x31, 0x2f,
0x63, 0x6f, 0x6e, 0x76, 0x31, 0x64, 0x2d, 0x73, 0x6d, 0x61, 0x6c, 0x6c, 0x2d, 0x62, 0x61, 0x6c,
0x61, 0x6e, 0x63, 0x65, 0x64, 0x2d, 0x32, 0x2f, 0x6c, 0x61, 0x79, 0x65, 0x72, 0x5f, 0x31, 0x2f,
0x62, 0x61, 0x74, 0x63, 0x68, 0x6e, 0x6f, 0x72, 0x6d, 0x2f, 0x6d, 0x75, 0x6c, 0x5f, 0x31, 0x3b,
0x6d, 0x6f, 0x64, 0x65, 0x6c, 0x5f, 0x31, 0x2f, 0x63, 0x6f, 0x6e, 0x76, 0x31, 0x64, 0x2d, 0x73,
0x6d, 0x61, 0x6c, 0x6c, 0x2d, 0x62, 0x61, 0x6c, 0x61, 0x6e, 0x63, 0x65, 0x64, 0x2d, 0x32, 0x2f,
0x6c, 0x61, 0x79, 0x65, 0x72, 0x5f, 0x30, 0x2f, 0x43, 0x6f, 0x6e, 0x76, 0x31, 0x44, 0x2f, 0x53,
0x71, 0x75, 0x65, 0x65, 0x7a, 0x65, 0x3b, 0x6d, 0x6f, 0x64, 0x65, 0x6c, 0x5f, 0x31, 0x2f, 0x63,
0x6f, 0x6e, 0x76, 0x31, 0x64, 0x2d, 0x73, 0x6d, 0x61, 0x6c, 0x6c, 0x2d, 0x62, 0x61, 0x6c, 0x61,
0x6e, 0x63, 0x65, 0x64, 0x2d, 0x32, 0x2f, 0x6c, 0x61, 0x79, 0x65, 0x72, 0x5f, 0x31, 0x2f, 0x62,
0x61, 0x74, 0x63, 0x68, 0x6e, 0x6f, 0x72, 0x6d, 0x2f, 0x6d, 0x75, 0x6c, 0x3b, 0x6d, 0x6f, 0x64,
0x65, 0x6c, 0x5f, 0x31, 0x2f, 0x63, 0x6f, 0x6e, 0x76, 0x31, 0x64, 0x2d, 0x73, 0x6d, 0x61, 0x6c,
0x6c, 0x2d, 0x62, 0x61, 0x6c, 0x61, 0x6e, 0x63, 0x65, 0x64, 0x2d, 0x32, 0x2f, 0x6c, 0x61, 0x79,
0x65, 0x72, 0x5f, 0x30, 0x2f, 0x43, 0x6f, 0x6e, 0x76, 0x31, 0x44, 0x00, 0x04, 0x00, 0x00, 0x00,
0x10, 0x00, 0x00, 0x00, 0x01, 0x00, 0x00, 0x00, 0x03, 0x00, 0x00, 0x00, 0x03, 0x00, 0x00, 0x00,
0xea, 0xf3, 0xff, 0xff, 0x14, 0x00, 0x00, 0x00, 0xe4, 0x00, 0x00, 0x00, 0x0c, 0x00, 0x00, 0x00,
0x00, 0x00, 0x00, 0x02, 0x14, 0x01, 0x00, 0x00, 0xdc, 0xf3, 0xff, 0xff, 0x08, 0x00, 0x00, 0x00,
0x88, 0x00, 0x00, 0x00, 0x10, 0x00, 0x00, 0x00, 0x00, 0x00, 0x00, 0x00, 0x00, 0x00, 0x00, 0x00,
0x00, 0x00, 0x00, 0x00, 0x00, 0x00, 0x00, 0x00, 0x00, 0x00, 0x00, 0x00, 0x00, 0x00, 0x00, 0x00,
0x00, 0x00, 0x00, 0x00, 0x00, 0x00, 0x00, 0x00, 0x00, 0x00, 0x00, 0x00, 0x00, 0x00, 0x00, 0x00,
0x00, 0x00, 0x00, 0x00, 0x00, 0x00, 0x00, 0x00, 0x00, 0x00, 0x00, 0x00, 0x00, 0x00, 0x00, 0x00,
0x00, 0x00, 0x00, 0x00, 0x00, 0x00, 0x00, 0x00, 0x00, 0x00, 0x00, 0x00, 0x00, 0x00, 0x00, 0x00,
0x00, 0x00, 0x00, 0x00, 0x00, 0x00, 0x00, 0x00, 0x00, 0x00, 0x00, 0x00, 0x00, 0x00, 0x00, 0x00,
0x00, 0x00, 0x00, 0x00, 0x00, 0x00, 0x00, 0x00, 0x00, 0x00, 0x00, 0x00, 0x00, 0x00, 0x00, 0x00,
0x00, 0x00, 0x00, 0x00, 0x00, 0x00, 0x00, 0x00, 0x00, 0x00, 0x00, 0x00, 0x00, 0x00, 0x00, 0x00,
0x00, 0x00, 0x00, 0x00, 0x00, 0x00, 0x00, 0x00, 0x10, 0x00, 0x00, 0x00, 0x61, 0xe9, 0x27, 0x3b,
0x91, 0xd4, 0x03, 0x39, 0x28, 0xd3, 0x31, 0x3a, 0xe8, 0xb8, 0x0a, 0x3a, 0x9b, 0xf1, 0xc3, 0x39,
0x8b, 0x76, 0xa1, 0x39, 0x96, 0x47, 0x91, 0x39, 0x89, 0x56, 0x08, 0x3a, 0x43, 0xca, 0x77, 0x39,
0xf2, 0x40, 0x25, 0x3b, 0x7e, 0x0f, 0x61, 0x3a, 0x01, 0xca, 0x94, 0x38, 0xc1, 0xc6, 0x8b, 0x39,
0xae, 0xd6, 0x35, 0x3b, 0x49, 0x92, 0x29, 0x3a, 0x5e, 0x2b, 0xc0, 0x3b, 0x35, 0x00, 0x00, 0x00,
0x6d, 0x6f, 0x64, 0x65, 0x6c, 0x5f, 0x31, 0x2f, 0x63, 0x6f, 0x6e, 0x76, 0x31, 0x64, 0x2d, 0x73,
0x6d, 0x61, 0x6c, 0x6c, 0x2d, 0x62, 0x61, 0x6c, 0x61, 0x6e, 0x63, 0x65, 0x64, 0x2d, 0x32, 0x2f,
0x6c, 0x61, 0x79, 0x65, 0x72, 0x5f, 0x31, 0x2f, 0x62, 0x61, 0x74, 0x63, 0x68, 0x6e, 0x6f, 0x72,
0x6d, 0x2f, 0x73, 0x75, 0x62, 0x00, 0x00, 0x00, 0x01, 0x00, 0x00, 0x00, 0x10, 0x00, 0x00, 0x00,
0x1a, 0xf5, 0xff, 0xff, 0x14, 0x00, 0x00, 0x00, 0xa8, 0x01, 0x00, 0x00, 0x0b, 0x00, 0x00, 0x00,
0x00, 0x00, 0x00, 0x09, 0xd0, 0x01, 0x00, 0x00, 0x0c, 0xf5, 0xff, 0xff, 0x08, 0x00, 0x00, 0x00,
0x0c, 0x01, 0x00, 0x00, 0x20, 0x00, 0x00, 0x00, 0x00, 0x00, 0x00, 0x00, 0x00, 0x00, 0x00, 0x00,
0x00, 0x00, 0x00, 0x00, 0x00, 0x00, 0x00, 0x00, 0x00, 0x00, 0x00, 0x00, 0x00, 0x00, 0x00, 0x00,
0x00, 0x00, 0x00, 0x00, 0x00, 0x00, 0x00, 0x00, 0x00, 0x00, 0x00, 0x00, 0x00, 0x00, 0x00, 0x00,
0x00, 0x00, 0x00, 0x00, 0x00, 0x00, 0x00, 0x00, 0x00, 0x00, 0x00, 0x00, 0x00, 0x00, 0x00, 0x00,
0x00, 0x00, 0x00, 0x00, 0x00, 0x00, 0x00, 0x00, 0x00, 0x00, 0x00, 0x00, 0x00, 0x00, 0x00, 0x00,
0x00, 0x00, 0x00, 0x00, 0x00, 0x00, 0x00, 0x00, 0x00, 0x00, 0x00, 0x00, 0x00, 0x00, 0x00, 0x00,
0x00, 0x00, 0x00, 0x00, 0x00, 0x00, 0x00, 0x00, 0x00, 0x00, 0x00, 0x00, 0x00, 0x00, 0x00, 0x00,
0x00, 0x00, 0x00, 0x00, 0x00, 0x00, 0x00, 0x00, 0x00, 0x00, 0x00, 0x00, 0x00, 0x00, 0x00, 0x00,
0x00, 0x00, 0x00, 0x00, 0x00, 0x00, 0x00, 0x00, 0x00, 0x00, 0x00, 0x00, 0x00, 0x00, 0x00, 0x00,
0x00, 0x00, 0x00, 0x00, 0x00, 0x00, 0x00, 0x00, 0x00, 0x00, 0x00, 0x00, 0x00, 0x00, 0x00, 0x00,
0x00, 0x00, 0x00, 0x00, 0x00, 0x00, 0x00, 0x00, 0x00, 0x00, 0x00, 0x00, 0x00, 0x00, 0x00, 0x00,
0x00, 0x00, 0x00, 0x00, 0x00, 0x00, 0x00, 0x00, 0x00, 0x00, 0x00, 0x00, 0x00, 0x00, 0x00, 0x00,
0x00, 0x00, 0x00, 0x00, 0x00, 0x00, 0x00, 0x00, 0x00, 0x00, 0x00, 0x00, 0x00, 0x00, 0x00, 0x00,
0x00, 0x00, 0x00, 0x00, 0x00, 0x00, 0x00, 0x00, 0x00, 0x00, 0x00, 0x00, 0x00, 0x00, 0x00, 0x00,
0x00, 0x00, 0x00, 0x00, 0x00, 0x00, 0x00, 0x00, 0x00, 0x00, 0x00, 0x00, 0x00, 0x00, 0x00, 0x00,
0x00, 0x00, 0x00, 0x00, 0x00, 0x00, 0x00, 0x00, 0x00, 0x00, 0x00, 0x00, 0x00, 0x00, 0x00, 0x00,
0x00, 0x00, 0x00, 0x00, 0x00, 0x00, 0x00, 0x00, 0x00, 0x00, 0x00, 0x00, 0x20, 0x00, 0x00, 0x00,
0x87, 0x49, 0x1b, 0x3c, 0x21, 0x52, 0x92, 0x3c, 0x57, 0x9f, 0x96, 0x3c, 0x6d, 0x70, 0xd0, 0x3c,
0x2d, 0xb0, 0x13, 0x3d, 0xb6, 0x95, 0xb7, 0x3c, 0xd3, 0x96, 0xea, 0x3c, 0xe7, 0x15, 0x63, 0x3c,
0x31, 0xdb, 0x86, 0x3c, 0xe7, 0xea, 0xa8, 0x3c, 0x29, 0xbd, 0x33, 0x3c, 0xb6, 0x22, 0xb3, 0x3c,
0x24, 0x73, 0xda, 0x3c, 0x0b, 0x79, 0xdc, 0x3c, 0x25, 0xd5, 0xa9, 0x3c, 0xfb, 0xb8, 0xbd, 0x3c,
0x4c, 0x3f, 0x96, 0x3c, 0x93, 0x89, 0x1b, 0x3d, 0xbb, 0xbc, 0x8b, 0x3c, 0x29, 0x4a, 0x93, 0x3c,
0xba, 0xa1, 0xa0, 0x3c, 0xe5, 0xe1, 0x54, 0x3c, 0xbd, 0xae, 0x84, 0x3c, 0x72, 0xd6, 0x86, 0x3c,
0x32, 0x1e, 0xbc, 0x3c, 0x5c, 0x2b, 0x78, 0x3c, 0x13, 0x01, 0x46, 0x3c, 0xeb, 0x90, 0x8f, 0x3c,
0x12, 0x2d, 0xa7, 0x3c, 0x93, 0x30, 0xf1, 0x3c, 0x4f, 0x0a, 0xac, 0x3c, 0x69, 0x2c, 0x9c, 0x3c,
0x2e, 0x00, 0x00, 0x00, 0x6d, 0x6f, 0x64, 0x65, 0x6c, 0x5f, 0x31, 0x2f, 0x63, 0x6f, 0x6e, 0x76,
0x31, 0x64, 0x2d, 0x73, 0x6d, 0x61, 0x6c, 0x6c, 0x2d, 0x62, 0x61, 0x6c, 0x61, 0x6e, 0x63, 0x65,
0x64, 0x2d, 0x32, 0x2f, 0x6c, 0x61, 0x79, 0x65, 0x72, 0x5f, 0x33, 0x2f, 0x43, 0x6f, 0x6e, 0x76,
0x31, 0x44, 0x00, 0x00, 0x04, 0x00, 0x00, 0x00, 0x20, 0x00, 0x00, 0x00, 0x01, 0x00, 0x00, 0x00,
0x03, 0x00, 0x00, 0x00, 0x10, 0x00, 0x00, 0x00, 0x12, 0xf7, 0xff, 0xff, 0x14, 0x00, 0x00, 0x00,
0xa4, 0x01, 0x00, 0x00, 0x0a, 0x00, 0x00, 0x00, 0x00, 0x00, 0x00, 0x02, 0xcc, 0x01, 0x00, 0x00,
0x04, 0xf7, 0xff, 0xff, 0x08, 0x00, 0x00, 0x00, 0x08, 0x01, 0x00, 0x00, 0x20, 0x00, 0x00, 0x00,
0x00, 0x00, 0x00, 0x00, 0x00, 0x00, 0x00, 0x00, 0x00, 0x00, 0x00, 0x00, 0x00, 0x00, 0x00, 0x00,
0x00, 0x00, 0x00, 0x00, 0x00, 0x00, 0x00, 0x00, 0x00, 0x00, 0x00, 0x00, 0x00, 0x00, 0x00, 0x00,
0x00, 0x00, 0x00, 0x00, 0x00, 0x00, 0x00, 0x00, 0x00, 0x00, 0x00, 0x00, 0x00, 0x00, 0x00, 0x00,
0x00, 0x00, 0x00, 0x00, 0x00, 0x00, 0x00, 0x00, 0x00, 0x00, 0x00, 0x00, 0x00, 0x00, 0x00, 0x00,
0x00, 0x00, 0x00, 0x00, 0x00, 0x00, 0x00, 0x00, 0x00, 0x00, 0x00, 0x00, 0x00, 0x00, 0x00, 0x00,
0x00, 0x00, 0x00, 0x00, 0x00, 0x00, 0x00, 0x00, 0x00, 0x00, 0x00, 0x00, 0x00, 0x00, 0x00, 0x00,
0x00, 0x00, 0x00, 0x00, 0x00, 0x00, 0x00, 0x00, 0x00, 0x00, 0x00, 0x00, 0x00, 0x00, 0x00, 0x00,
0x00, 0x00, 0x00, 0x00, 0x00, 0x00, 0x00, 0x00, 0x00, 0x00, 0x00, 0x00, 0x00, 0x00, 0x00, 0x00,
0x00, 0x00, 0x00, 0x00, 0x00, 0x00, 0x00, 0x00, 0x00, 0x00, 0x00, 0x00, 0x00, 0x00, 0x00, 0x00,
0x00, 0x00, 0x00, 0x00, 0x00, 0x00, 0x00, 0x00, 0x00, 0x00, 0x00, 0x00, 0x00, 0x00, 0x00, 0x00,
0x00, 0x00, 0x00, 0x00, 0x00, 0x00, 0x00, 0x00, 0x00, 0x00, 0x00, 0x00, 0x00, 0x00, 0x00, 0x00,
0x00, 0x00, 0x00, 0x00, 0x00, 0x00, 0x00, 0x00, 0x00, 0x00, 0x00, 0x00, 0x00, 0x00, 0x00, 0x00,
0x00, 0x00, 0x00, 0x00, 0x00, 0x00, 0x00, 0x00, 0x00, 0x00, 0x00, 0x00, 0x00, 0x00, 0x00, 0x00,
0x00, 0x00, 0x00, 0x00, 0x00, 0x00, 0x00, 0x00, 0x00, 0x00, 0x00, 0x00, 0x00, 0x00, 0x00, 0x00,
0x00, 0x00, 0x00, 0x00, 0x00, 0x00, 0x00, 0x00, 0x00, 0x00, 0x00, 0x00, 0x00, 0x00, 0x00, 0x00,
0x00, 0x00, 0x00, 0x00, 0x00, 0x00, 0x00, 0x00, 0x00, 0x00, 0x00, 0x00, 0x00, 0x00, 0x00, 0x00,
0x20, 0x00, 0x00, 0x00, 0x63, 0xc9, 0x98, 0x39, 0xf3, 0xf6, 0x0f, 0x3a, 0x6e, 0x32, 0x14, 0x3a,
0x2d, 0x15, 0x4d, 0x3a, 0x5c, 0x4f, 0x91, 0x3a, 0xeb, 0xa0, 0x34, 0x3a, 0xc7, 0xcf, 0x66, 0x3a,
0xca, 0x6d, 0xdf, 0x39, 0x46, 0xaf, 0x04, 0x3a, 0x93, 0x32, 0x26, 0x3a, 0x39, 0xd8, 0xb0, 0x39,
0x43, 0x40, 0x30, 0x3a, 0xa0, 0xee, 0x56, 0x3a, 0x30, 0xec, 0x58, 0x3a, 0x0b, 0x19, 0x27, 0x3a,
0xe3, 0xaa, 0x3a, 0x3a, 0xef, 0xd3, 0x13, 0x3a, 0x67, 0x08, 0x99, 0x3a, 0xb1, 0x7c, 0x09, 0x3a,
0xfd, 0xea, 0x10, 0x3a, 0x8e, 0x0b, 0x1e, 0x3a, 0x54, 0x74, 0xd1, 0x39, 0xc8, 0x8b, 0x02, 0x3a,
0x9b, 0xaa, 0x04, 0x3a, 0xb8, 0x16, 0x39, 0x3a, 0x55, 0x2c, 0xf4, 0x39, 0xd7, 0xd0, 0xc2, 0x39,
0x18, 0x41, 0x0d, 0x3a, 0xec, 0x7b, 0x24, 0x3a, 0x51, 0x4e, 0x6d, 0x3a, 0x1b, 0x45, 0x29, 0x3a,
0x9e, 0xa8, 0x19, 0x3a, 0x2e, 0x00, 0x00, 0x00, 0x6d, 0x6f, 0x64, 0x65, 0x6c, 0x5f, 0x31, 0x2f,
0x63, 0x6f, 0x6e, 0x76, 0x31, 0x64, 0x2d, 0x73, 0x6d, 0x61, 0x6c, 0x6c, 0x2d, 0x62, 0x61, 0x6c,
0x61, 0x6e, 0x63, 0x65, 0x64, 0x2d, 0x32, 0x2f, 0x6c, 0x61, 0x79, 0x65, 0x72, 0x5f, 0x34, 0x2f,
0x43, 0x6f, 0x6e, 0x76, 0x31, 0x44, 0x00, 0x00, 0x01, 0x00, 0x00, 0x00, 0x20, 0x00, 0x00, 0x00,
0xfa, 0xf8, 0xff, 0xff, 0x14, 0x00, 0x00, 0x00, 0xa4, 0x01, 0x00, 0x00, 0x09, 0x00, 0x00, 0x00,
0x00, 0x00, 0x00, 0x09, 0x70, 0x02, 0x00, 0x00, 0xec, 0xf8, 0xff, 0xff, 0x08, 0x00, 0x00, 0x00,
0x08, 0x01, 0x00, 0x00, 0x20, 0x00, 0x00, 0x00, 0x00, 0x00, 0x00, 0x00, 0x00, 0x00, 0x00, 0x00,
0x00, 0x00, 0x00, 0x00, 0x00, 0x00, 0x00, 0x00, 0x00, 0x00, 0x00, 0x00, 0x00, 0x00, 0x00, 0x00,
0x00, 0x00, 0x00, 0x00, 0x00, 0x00, 0x00, 0x00, 0x00, 0x00, 0x00, 0x00, 0x00, 0x00, 0x00, 0x00,
0x00, 0x00, 0x00, 0x00, 0x00, 0x00, 0x00, 0x00, 0x00, 0x00, 0x00, 0x00, 0x00, 0x00, 0x00, 0x00,
0x00, 0x00, 0x00, 0x00, 0x00, 0x00, 0x00, 0x00, 0x00, 0x00, 0x00, 0x00, 0x00, 0x00, 0x00, 0x00,
0x00, 0x00, 0x00, 0x00, 0x00, 0x00, 0x00, 0x00, 0x00, 0x00, 0x00, 0x00, 0x00, 0x00, 0x00, 0x00,
0x00, 0x00, 0x00, 0x00, 0x00, 0x00, 0x00, 0x00, 0x00, 0x00, 0x00, 0x00, 0x00, 0x00, 0x00, 0x00,
0x00, 0x00, 0x00, 0x00, 0x00, 0x00, 0x00, 0x00, 0x00, 0x00, 0x00, 0x00, 0x00, 0x00, 0x00, 0x00,
0x00, 0x00, 0x00, 0x00, 0x00, 0x00, 0x00, 0x00, 0x00, 0x00, 0x00, 0x00, 0x00, 0x00, 0x00, 0x00,
0x00, 0x00, 0x00, 0x00, 0x00, 0x00, 0x00, 0x00, 0x00, 0x00, 0x00, 0x00, 0x00, 0x00, 0x00, 0x00,
0x00, 0x00, 0x00, 0x00, 0x00, 0x00, 0x00, 0x00, 0x00, 0x00, 0x00, 0x00, 0x00, 0x00, 0x00, 0x00,
0x00, 0x00, 0x00, 0x00, 0x00, 0x00, 0x00, 0x00, 0x00, 0x00, 0x00, 0x00, 0x00, 0x00, 0x00, 0x00,
0x00, 0x00, 0x00, 0x00, 0x00, 0x00, 0x00, 0x00, 0x00, 0x00, 0x00, 0x00, 0x00, 0x00, 0x00, 0x00,
0x00, 0x00, 0x00, 0x00, 0x00, 0x00, 0x00, 0x00, 0x00, 0x00, 0x00, 0x00, 0x00, 0x00, 0x00, 0x00,
0x00, 0x00, 0x00, 0x00, 0x00, 0x00, 0x00, 0x00, 0x00, 0x00, 0x00, 0x00, 0x00, 0x00, 0x00, 0x00,
0x00, 0x00, 0x00, 0x00, 0x00, 0x00, 0x00, 0x00, 0x00, 0x00, 0x00, 0x00, 0x00, 0x00, 0x00, 0x00,
0x00, 0x00, 0x00, 0x00, 0x00, 0x00, 0x00, 0x00, 0x20, 0x00, 0x00, 0x00, 0xf3, 0x28, 0x69, 0x39,
0x09, 0x44, 0x4f, 0x3a, 0x99, 0x88, 0x7e, 0x39, 0x1e, 0x4e, 0x1e, 0x38, 0x92, 0xb2, 0xc2, 0x39,
0x4d, 0x6a, 0xb5, 0x39, 0x1e, 0xef, 0xa8, 0x39, 0x5d, 0xde, 0x99, 0x39, 0x0a, 0x55, 0x2e, 0x3a,
0x8e, 0x8e, 0x80, 0x39, 0x85, 0x67, 0x60, 0x39, 0xa0, 0x86, 0xd3, 0x39, 0x14, 0xdc, 0x6c, 0x39,
0xfc, 0xb3, 0xdd, 0x39, 0x35, 0x28, 0x64, 0x39, 0x01, 0xbc, 0x2e, 0x38, 0xdf, 0x83, 0x68, 0x39,
0xb4, 0xfc, 0xf6, 0x39, 0x92, 0xbf, 0x67, 0x38, 0x85, 0x48, 0xfa, 0x39, 0xb5, 0xa3, 0xbc, 0x39,
0x8a, 0xc1, 0x80, 0x39, 0xbd, 0x8b, 0x71, 0x39, 0xe4, 0xd0, 0x82, 0x39, 0x9f, 0x83, 0x40, 0x38,
0x95, 0xc9, 0x33, 0x3a, 0x86, 0x1d, 0x99, 0x39, 0x7e, 0xba, 0xd5, 0x39, 0x22, 0x56, 0xcf, 0x39,
0x7a, 0x5c, 0xf9, 0x39, 0x8a, 0x9a, 0x46, 0x39, 0xff, 0x14, 0xd6, 0x39, 0xd3, 0x00, 0x00, 0x00,
0x6d, 0x6f, 0x64, 0x65, 0x6c, 0x5f, 0x31, 0x2f, 0x63, 0x6f, 0x6e, 0x76, 0x31, 0x64, 0x2d, 0x73,
0x6d, 0x61, 0x6c, 0x6c, 0x2d, 0x62, 0x61, 0x6c, 0x61, 0x6e, 0x63, 0x65, 0x64, 0x2d, 0x32, 0x2f,
0x6c, 0x61, 0x79, 0x65, 0x72, 0x5f, 0x35, 0x2f, 0x62, 0x61, 0x74, 0x63, 0x68, 0x6e, 0x6f, 0x72,
0x6d, 0x2f, 0x6d, 0x75, 0x6c, 0x5f, 0x31, 0x3b, 0x6d, 0x6f, 0x64, 0x65, 0x6c, 0x5f, 0x31, 0x2f,
0x63, 0x6f, 0x6e, 0x76, 0x31, 0x64, 0x2d, 0x73, 0x6d, 0x61, 0x6c, 0x6c, 0x2d, 0x62, 0x61, 0x6c,
0x61, 0x6e, 0x63, 0x65, 0x64, 0x2d, 0x32, 0x2f, 0x6c, 0x61, 0x79, 0x65, 0x72, 0x5f, 0x34, 0x2f,
0x43, 0x6f, 0x6e, 0x76, 0x31, 0x44, 0x2f, 0x53, 0x71, 0x75, 0x65, 0x65, 0x7a, 0x65, 0x3b, 0x6d,
0x6f, 0x64, 0x65, 0x6c, 0x5f, 0x31, 0x2f, 0x63, 0x6f, 0x6e, 0x76, 0x31, 0x64, 0x2d, 0x73, 0x6d,
0x61, 0x6c, 0x6c, 0x2d, 0x62, 0x61, 0x6c, 0x61, 0x6e, 0x63, 0x65, 0x64, 0x2d, 0x32, 0x2f, 0x6c,
0x61, 0x79, 0x65, 0x72, 0x5f, 0x35, 0x2f, 0x62, 0x61, 0x74, 0x63, 0x68, 0x6e, 0x6f, 0x72, 0x6d,
0x2f, 0x6d, 0x75, 0x6c, 0x3b, 0x6d, 0x6f, 0x64, 0x65, 0x6c, 0x5f, 0x31, 0x2f, 0x63, 0x6f, 0x6e,
0x76, 0x31, 0x64, 0x2d, 0x73, 0x6d, 0x61, 0x6c, 0x6c, 0x2d, 0x62, 0x61, 0x6c, 0x61, 0x6e, 0x63,
0x65, 0x64, 0x2d, 0x32, 0x2f, 0x6c, 0x61, 0x79, 0x65, 0x72, 0x5f, 0x34, 0x2f, 0x43, 0x6f, 0x6e,
0x76, 0x31, 0x44, 0x00, 0x04, 0x00, 0x00, 0x00, 0x20, 0x00, 0x00, 0x00, 0x01, 0x00, 0x00, 0x00,
0x03, 0x00, 0x00, 0x00, 0x20, 0x00, 0x00, 0x00, 0x92, 0xfb, 0xff, 0xff, 0x14, 0x00, 0x00, 0x00,
0xa4, 0x01, 0x00, 0x00, 0x08, 0x00, 0x00, 0x00, 0x00, 0x00, 0x00, 0x02, 0xd4, 0x01, 0x00, 0x00,
0x84, 0xfb, 0xff, 0xff, 0x08, 0x00, 0x00, 0x00, 0x08, 0x01, 0x00, 0x00, 0x20, 0x00, 0x00, 0x00,
0x00, 0x00, 0x00, 0x00, 0x00, 0x00, 0x00, 0x00, 0x00, 0x00, 0x00, 0x00, 0x00, 0x00, 0x00, 0x00,
0x00, 0x00, 0x00, 0x00, 0x00, 0x00, 0x00, 0x00, 0x00, 0x00, 0x00, 0x00, 0x00, 0x00, 0x00, 0x00,
0x00, 0x00, 0x00, 0x00, 0x00, 0x00, 0x00, 0x00, 0x00, 0x00, 0x00, 0x00, 0x00, 0x00, 0x00, 0x00,
0x00, 0x00, 0x00, 0x00, 0x00, 0x00, 0x00, 0x00, 0x00, 0x00, 0x00, 0x00, 0x00, 0x00, 0x00, 0x00,
0x00, 0x00, 0x00, 0x00, 0x00, 0x00, 0x00, 0x00, 0x00, 0x00, 0x00, 0x00, 0x00, 0x00, 0x00, 0x00,
0x00, 0x00, 0x00, 0x00, 0x00, 0x00, 0x00, 0x00, 0x00, 0x00, 0x00, 0x00, 0x00, 0x00, 0x00, 0x00,
0x00, 0x00, 0x00, 0x00, 0x00, 0x00, 0x00, 0x00, 0x00, 0x00, 0x00, 0x00, 0x00, 0x00, 0x00, 0x00,
0x00, 0x00, 0x00, 0x00, 0x00, 0x00, 0x00, 0x00, 0x00, 0x00, 0x00, 0x00, 0x00, 0x00, 0x00, 0x00,
0x00, 0x00, 0x00, 0x00, 0x00, 0x00, 0x00, 0x00, 0x00, 0x00, 0x00, 0x00, 0x00, 0x00, 0x00, 0x00,
0x00, 0x00, 0x00, 0x00, 0x00, 0x00, 0x00, 0x00, 0x00, 0x00, 0x00, 0x00, 0x00, 0x00, 0x00, 0x00,
0x00, 0x00, 0x00, 0x00, 0x00, 0x00, 0x00, 0x00, 0x00, 0x00, 0x00, 0x00, 0x00, 0x00, 0x00, 0x00,
0x00, 0x00, 0x00, 0x00, 0x00, 0x00, 0x00, 0x00, 0x00, 0x00, 0x00, 0x00, 0x00, 0x00, 0x00, 0x00,
0x00, 0x00, 0x00, 0x00, 0x00, 0x00, 0x00, 0x00, 0x00, 0x00, 0x00, 0x00, 0x00, 0x00, 0x00, 0x00,
0x00, 0x00, 0x00, 0x00, 0x00, 0x00, 0x00, 0x00, 0x00, 0x00, 0x00, 0x00, 0x00, 0x00, 0x00, 0x00,
0x00, 0x00, 0x00, 0x00, 0x00, 0x00, 0x00, 0x00, 0x00, 0x00, 0x00, 0x00, 0x00, 0x00, 0x00, 0x00,
0x00, 0x00, 0x00, 0x00, 0x00, 0x00, 0x00, 0x00, 0x00, 0x00, 0x00, 0x00, 0x00, 0x00, 0x00, 0x00,
0x20, 0x00, 0x00, 0x00, 0x12, 0xad, 0x49, 0x38, 0x44, 0x47, 0x33, 0x39, 0xe0, 0x29, 0x5c, 0x38,
0xd2, 0xed, 0x08, 0x37, 0x43, 0x68, 0xa8, 0x38, 0x22, 0xeb, 0x9c, 0x38, 0x67, 0x1f, 0x92, 0x38,
0x6e, 0x17, 0x85, 0x38, 0xb8, 0xca, 0x16, 0x39, 0x32, 0x65, 0x5e, 0x38, 0x4e, 0x1a, 0x42, 0x38,
0x98, 0xf6, 0xb6, 0x38, 0x4f, 0xe0, 0x4c, 0x38, 0x26, 0xc4, 0xbf, 0x38, 0x45, 0x59, 0x45, 0x38,
0xc8, 0x23, 0x17, 0x37, 0x48, 0x1e, 0x49, 0x38, 0xd9, 0xa2, 0xd5, 0x38, 0x7d, 0x74, 0x48, 0x37,
0xb9, 0x7c, 0xd8, 0x38, 0xd0, 0x2a, 0xa3, 0x38, 0x65, 0xbd, 0x5e, 0x38, 0xfa, 0xed, 0x50, 0x38,
0xae, 0x4d, 0x62, 0x38, 0xca, 0x84, 0x26, 0x37, 0xb0, 0x82, 0x1b, 0x39, 0xa1, 0x70, 0x84, 0x38,
0x52, 0xde, 0xb8, 0x38, 0xec, 0x56, 0xb3, 0x38, 0x8d, 0xb0, 0xd7, 0x38, 0x34, 0xc9, 0x2b, 0x38,
0x9b, 0x2c, 0xb9, 0x38, 0x35, 0x00, 0x00, 0x00, 0x6d, 0x6f, 0x64, 0x65, 0x6c, 0x5f, 0x31, 0x2f,
0x63, 0x6f, 0x6e, 0x76, 0x31, 0x64, 0x2d, 0x73, 0x6d, 0x61, 0x6c, 0x6c, 0x2d, 0x62, 0x61, 0x6c,
0x61, 0x6e, 0x63, 0x65, 0x64, 0x2d, 0x32, 0x2f, 0x6c, 0x61, 0x79, 0x65, 0x72, 0x5f, 0x35, 0x2f,
0x62, 0x61, 0x74, 0x63, 0x68, 0x6e, 0x6f, 0x72, 0x6d, 0x2f, 0x73, 0x75, 0x62, 0x00, 0x00, 0x00,
0x01, 0x00, 0x00, 0x00, 0x20, 0x00, 0x00, 0x00, 0x82, 0xfd, 0xff, 0xff, 0x14, 0x00, 0x00, 0x00,
0x30, 0x00, 0x00, 0x00, 0x07, 0x00, 0x00, 0x00, 0x00, 0x00, 0x00, 0x09, 0x58, 0x00, 0x00, 0x00,
0x74, 0xfd, 0xff, 0xff, 0x08, 0x00, 0x00, 0x00, 0x10, 0x00, 0x00, 0x00, 0x01, 0x00, 0x00, 0x00,
0x00, 0x00, 0x00, 0x00, 0x00, 0x00, 0x00, 0x00, 0x01, 0x00, 0x00, 0x00, 0x5b, 0x7c, 0x0b, 0x3d,
0x2e, 0x00, 0x00, 0x00, 0x6d, 0x6f, 0x64, 0x65, 0x6c, 0x5f, 0x31, 0x2f, 0x63, 0x6f, 0x6e, 0x76,
0x31, 0x64, 0x2d, 0x73, 0x6d, 0x61, 0x6c, 0x6c, 0x2d, 0x62, 0x61, 0x6c, 0x61, 0x6e, 0x63, 0x65,
0x64, 0x2d, 0x32, 0x2f, 0x6c, 0x61, 0x79, 0x65, 0x72, 0x5f, 0x39, 0x2f, 0x4d, 0x61, 0x74, 0x4d,
0x75, 0x6c, 0x00, 0x00, 0x02, 0x00, 0x00, 0x00, 0x02, 0x00, 0x00, 0x00, 0x20, 0x00, 0x00, 0x00,
0xfa, 0xfd, 0xff, 0xff, 0x14, 0x00, 0x00, 0x00, 0x30, 0x00, 0x00, 0x00, 0x06, 0x00, 0x00, 0x00,
0x00, 0x00, 0x00, 0x02, 0x68, 0x00, 0x00, 0x00, 0xec, 0xfd, 0xff, 0xff, 0x08, 0x00, 0x00, 0x00,
0x10, 0x00, 0x00, 0x00, 0x01, 0x00, 0x00, 0x00, 0x00, 0x00, 0x00, 0x00, 0x00, 0x00, 0x00, 0x00,
0x01, 0x00, 0x00, 0x00, 0x7d, 0x8a, 0x15, 0x3a, 0x3e, 0x00, 0x00, 0x00, 0x6d, 0x6f, 0x64, 0x65,
0x6c, 0x5f, 0x31, 0x2f, 0x63, 0x6f, 0x6e, 0x76, 0x31, 0x64, 0x2d, 0x73, 0x6d, 0x61, 0x6c, 0x6c,
0x2d, 0x62, 0x61, 0x6c, 0x61, 0x6e, 0x63, 0x65, 0x64, 0x2d, 0x32, 0x2f, 0x6c, 0x61, 0x79, 0x65,
0x72, 0x5f, 0x39, 0x2f, 0x42, 0x69, 0x61, 0x73, 0x41, 0x64, 0x64, 0x2f, 0x52, 0x65, 0x61, 0x64,
0x56, 0x61, 0x72, 0x69, 0x61, 0x62, 0x6c, 0x65, 0x4f, 0x70, 0x00, 0x00, 0x01, 0x00, 0x00, 0x00,
0x02, 0x00, 0x00, 0x00, 0x7e, 0xfe, 0xff, 0xff, 0x14, 0x00, 0x00, 0x00, 0x14, 0x00, 0x00, 0x00,
0x05, 0x00, 0x00, 0x00, 0x00, 0x00, 0x00, 0x02, 0x4c, 0x00, 0x00, 0x00, 0xe8, 0xfe, 0xff, 0xff,
0x3e, 0x00, 0x00, 0x00, 0x6d, 0x6f, 0x64, 0x65, 0x6c, 0x5f, 0x31, 0x2f, 0x63, 0x6f, 0x6e, 0x76,
0x31, 0x64, 0x2d, 0x73, 0x6d, 0x61, 0x6c, 0x6c, 0x2d, 0x62, 0x61, 0x6c, 0x61, 0x6e, 0x63, 0x65,
0x64, 0x2d, 0x32, 0x2f, 0x6c, 0x61, 0x79, 0x65, 0x72, 0x5f, 0x38, 0x2f, 0x4d, 0x65, 0x61, 0x6e,
0x2f, 0x72, 0x65, 0x64, 0x75, 0x63, 0x74, 0x69, 0x6f, 0x6e, 0x5f, 0x69, 0x6e, 0x64, 0x69, 0x63,
0x65, 0x73, 0x00, 0x00, 0x00, 0x00, 0x00, 0x00, 0xe2, 0xfe, 0xff, 0xff, 0x14, 0x00, 0x00, 0x00,
0x14, 0x00, 0x00, 0x00, 0x04, 0x00, 0x00, 0x00, 0x00, 0x00, 0x00, 0x02, 0x3c, 0x00, 0x00, 0x00,
0x4c, 0xff, 0xff, 0xff, 0x2f, 0x00, 0x00, 0x00, 0x6d, 0x6f, 0x64, 0x65, 0x6c, 0x5f, 0x31, 0x2f,
0x63, 0x6f, 0x6e, 0x76, 0x31, 0x64, 0x2d, 0x73, 0x6d, 0x61, 0x6c, 0x6c, 0x2d, 0x62, 0x61, 0x6c,
0x61, 0x6e, 0x63, 0x65, 0x64, 0x2d, 0x32, 0x2f, 0x6c, 0x61, 0x79, 0x65, 0x72, 0x5f, 0x37, 0x2f,
0x53, 0x71, 0x75, 0x65, 0x65, 0x7a, 0x65, 0x00, 0x01, 0x00, 0x00, 0x00, 0x03, 0x00, 0x00, 0x00,
0x3a, 0xff, 0xff, 0xff, 0x14, 0x00, 0x00, 0x00, 0x14, 0x00, 0x00, 0x00, 0x03, 0x00, 0x00, 0x00,
0x00, 0x00, 0x00, 0x02, 0x40, 0x00, 0x00, 0x00, 0xa4, 0xff, 0xff, 0xff, 0x32, 0x00, 0x00, 0x00,
0x6d, 0x6f, 0x64, 0x65, 0x6c, 0x5f, 0x31, 0x2f, 0x63, 0x6f, 0x6e, 0x76, 0x31, 0x64, 0x2d, 0x73,
0x6d, 0x61, 0x6c, 0x6c, 0x2d, 0x62, 0x61, 0x6c, 0x61, 0x6e, 0x63, 0x65, 0x64, 0x2d, 0x32, 0x2f,
0x6c, 0x61, 0x79, 0x65, 0x72, 0x5f, 0x37, 0x2f, 0x45, 0x78, 0x70, 0x61, 0x6e, 0x64, 0x44, 0x69,
0x6d, 0x73, 0x00, 0x00, 0x01, 0x00, 0x00, 0x00, 0x04, 0x00, 0x00, 0x00, 0x96, 0xff, 0xff, 0xff,
0x18, 0x00, 0x00, 0x00, 0x18, 0x00, 0x00, 0x00, 0x02, 0x00, 0x00, 0x00, 0x00, 0x00, 0x00, 0x02,
0x4c, 0x00, 0x00, 0x00, 0x04, 0x00, 0x04, 0x00, 0x04, 0x00, 0x00, 0x00, 0x39, 0x00, 0x00, 0x00,
0x6d, 0x6f, 0x64, 0x65, 0x6c, 0x5f, 0x31, 0x2f, 0x63, 0x6f, 0x6e, 0x76, 0x31, 0x64, 0x2d, 0x73,
0x6d, 0x61, 0x6c, 0x6c, 0x2d, 0x62, 0x61, 0x6c, 0x61, 0x6e, 0x63, 0x65, 0x64, 0x2d, 0x32, 0x2f,
0x6c, 0x61, 0x79, 0x65, 0x72, 0x5f, 0x30, 0x2f, 0x43, 0x6f, 0x6e, 0x76, 0x31, 0x44, 0x2f, 0x45,
0x78, 0x70, 0x61, 0x6e, 0x64, 0x44, 0x69, 0x6d, 0x73, 0x00, 0x00, 0x00, 0x01, 0x00, 0x00, 0x00,
0x04, 0x00, 0x00, 0x00, 0x00, 0x00, 0x0e, 0x00, 0x18, 0x00, 0x14, 0x00, 0x13, 0x00, 0x0c, 0x00,
0x08, 0x00, 0x04, 0x00, 0x0e, 0x00, 0x00, 0x00, 0x20, 0x00, 0x00, 0x00, 0x40, 0x00, 0x00, 0x00,
0x01, 0x00, 0x00, 0x00, 0x00, 0x00, 0x00, 0x09, 0x54, 0x00, 0x00, 0x00, 0x0c, 0x00, 0x0c, 0x00,
0x00, 0x00, 0x00, 0x00, 0x08, 0x00, 0x04, 0x00, 0x0c, 0x00, 0x00, 0x00, 0x08, 0x00, 0x00, 0x00,
0x14, 0x00, 0x00, 0x00, 0x01, 0x00, 0x00, 0x00, 0x80, 0xff, 0xff, 0xff, 0xff, 0xff, 0xff, 0xff,
0x00, 0x00, 0x00, 0x00, 0x01, 0x00, 0x00, 0x00, 0xfd, 0xfc, 0xbc, 0x40, 0x19, 0x00, 0x00, 0x00,
0x73, 0x65, 0x72, 0x76, 0x69, 0x6e, 0x67, 0x5f, 0x64, 0x65, 0x66, 0x61, 0x75, 0x6c, 0x74, 0x5f,
0x69, 0x6e, 0x70, 0x75, 0x74, 0x5f, 0x32, 0x3a, 0x30, 0x00, 0x00, 0x00, 0x03, 0x00, 0x00, 0x00,
0x01, 0x00, 0x00, 0x00, 0x32, 0x00, 0x00, 0x00, 0x03, 0x00, 0x00, 0x00, 0x06, 0x00, 0x00, 0x00,
0x68, 0x00, 0x00, 0x00, 0x54, 0x00, 0x00, 0x00, 0x3c, 0x00, 0x00, 0x00, 0x2c, 0x00, 0x00, 0x00,
0x14, 0x00, 0x00, 0x00, 0x04, 0x00, 0x00, 0x00, 0xea, 0xff, 0xff, 0xff, 0x02, 0x00, 0x00, 0x00,
0x00, 0x00, 0x00, 0x19, 0xd6, 0xff, 0xff, 0xff, 0x04, 0x00, 0x00, 0x00, 0x00, 0x09, 0x0a, 0x00,
0x0c, 0x00, 0x0b, 0x00, 0x00, 0x00, 0x04, 0x00, 0x0a, 0x00, 0x00, 0x00, 0x02, 0x00, 0x00, 0x00,
0x00, 0x00, 0x00, 0x28, 0xf6, 0xff, 0xff, 0xff, 0x02, 0x00, 0x00, 0x00, 0x00, 0x11, 0x0a, 0x00,
0x0a, 0x00, 0x09, 0x00, 0x00, 0x00, 0x04, 0x00, 0x0a, 0x00, 0x00, 0x00, 0x03, 0x00, 0x00, 0x00,
0x00, 0x03, 0x06, 0x00, 0x08, 0x00, 0x07, 0x00, 0x06, 0x00, 0x00, 0x00, 0x00, 0x00, 0x00, 0x16
};

