/***************************************************************************//**
* \file CAP_MODEL_tflm_model_float.c
*
* \brief
* Autogenerated with ml-coretools, this file contains CAP_MODEL model data.
* Date: 2024-10-30 10:47:11.239834
*******************************************************************************
* \copyright
* Copyright 2024, Cypress Semiconductor Corporation (an Infineon company).
* All rights reserved.
* You may use this file only in accordance with the license, terms, conditions,
* disclaimers, and limitations in the end user license agreement accompanying
* the software package with which this file was provided.
******************************************************************************/


#include "CAP_MODEL_tflm_model_float.h"


#ifdef CY_ML_MODEL_MEM
#include "cy_utils.h"
#define Q(x) #x
#define QUOTE(x) Q(x)
CY_SECTION(QUOTE(CY_ML_MODEL_MEM))
const
#endif

uint8_t CAP_MODEL_model_bin[CAP_MODEL_MODEL_BIN_LEN] __attribute__((aligned(4))) = {
0x24, 0x00, 0x00, 0x00, 0x54, 0x46, 0x4c, 0x33, 0x00, 0x00, 0x00, 0x00, 0x00, 0x00, 0x00, 0x00,
0x00, 0x00, 0x12, 0x00, 0x1c, 0x00, 0x18, 0x00, 0x14, 0x00, 0x10, 0x00, 0x0c, 0x00, 0x08, 0x00,
0x00, 0x00, 0x04, 0x00, 0x12, 0x00, 0x00, 0x00, 0x18, 0x00, 0x00, 0x00, 0x70, 0x00, 0x00, 0x00,
0xec, 0x04, 0x00, 0x00, 0xfc, 0x04, 0x00, 0x00, 0x94, 0x0f, 0x00, 0x00, 0x03, 0x00, 0x00, 0x00,
0x02, 0x00, 0x00, 0x00, 0x34, 0x00, 0x00, 0x00, 0x04, 0x00, 0x00, 0x00, 0xdc, 0xff, 0xff, 0xff,
0x13, 0x00, 0x00, 0x00, 0x04, 0x00, 0x00, 0x00, 0x13, 0x00, 0x00, 0x00, 0x43, 0x4f, 0x4e, 0x56,
0x45, 0x52, 0x53, 0x49, 0x4f, 0x4e, 0x5f, 0x4d, 0x45, 0x54, 0x41, 0x44, 0x41, 0x54, 0x41, 0x00,
0x08, 0x00, 0x0c, 0x00, 0x08, 0x00, 0x04, 0x00, 0x08, 0x00, 0x00, 0x00, 0x12, 0x00, 0x00, 0x00,
0x04, 0x00, 0x00, 0x00, 0x13, 0x00, 0x00, 0x00, 0x6d, 0x69, 0x6e, 0x5f, 0x72, 0x75, 0x6e, 0x74,
0x69, 0x6d, 0x65, 0x5f, 0x76, 0x65, 0x72, 0x73, 0x69, 0x6f, 0x6e, 0x00, 0x14, 0x00, 0x00, 0x00,
0x6c, 0x04, 0x00, 0x00, 0x58, 0x04, 0x00, 0x00, 0x0c, 0x04, 0x00, 0x00, 0x48, 0x02, 0x00, 0x00,
0x24, 0x02, 0x00, 0x00, 0x00, 0x02, 0x00, 0x00, 0xe0, 0x01, 0x00, 0x00, 0xc0, 0x01, 0x00, 0x00,
0xa0, 0x01, 0x00, 0x00, 0x30, 0x01, 0x00, 0x00, 0x24, 0x01, 0x00, 0x00, 0x10, 0x01, 0x00, 0x00,
0xfc, 0x00, 0x00, 0x00, 0xe8, 0x00, 0x00, 0x00, 0xd4, 0x00, 0x00, 0x00, 0xc0, 0x00, 0x00, 0x00,
0xac, 0x00, 0x00, 0x00, 0x98, 0x00, 0x00, 0x00, 0x6c, 0x00, 0x00, 0x00, 0x04, 0x00, 0x00, 0x00,
0x46, 0xfb, 0xff, 0xff, 0x04, 0x00, 0x00, 0x00, 0x54, 0x00, 0x00, 0x00, 0x0c, 0x00, 0x00, 0x00,
0x08, 0x00, 0x0e, 0x00, 0x08, 0x00, 0x04, 0x00, 0x08, 0x00, 0x00, 0x00, 0x10, 0x00, 0x00, 0x00,
0x24, 0x00, 0x00, 0x00, 0x00, 0x00, 0x06, 0x00, 0x08, 0x00, 0x04, 0x00, 0x06, 0x00, 0x00, 0x00,
0x04, 0x00, 0x00, 0x00, 0x00, 0x00, 0x00, 0x00, 0x00, 0x00, 0x0a, 0x00, 0x10, 0x00, 0x0c, 0x00,
0x08, 0x00, 0x04, 0x00, 0x0a, 0x00, 0x00, 0x00, 0x02, 0x00, 0x00, 0x00, 0x02, 0x00, 0x00, 0x00,
0x04, 0x00, 0x00, 0x00, 0x06, 0x00, 0x00, 0x00, 0x32, 0x2e, 0x31, 0x34, 0x2e, 0x31, 0x00, 0x00,
0x00, 0x00, 0x00, 0x00, 0xaa, 0xfb, 0xff, 0xff, 0x04, 0x00, 0x00, 0x00, 0x10, 0x00, 0x00, 0x00,
0x31, 0x2e, 0x36, 0x2e, 0x30, 0x00, 0x00, 0x00, 0x00, 0x00, 0x00, 0x00, 0x00, 0x00, 0x00, 0x00,
0x00, 0x00, 0x00, 0x00, 0x00, 0x00, 0x00, 0x00, 0x00, 0x00, 0x00, 0x00, 0xe8, 0xf1, 0xff, 0xff,
0x00, 0x00, 0x00, 0x00, 0x00, 0x00, 0x00, 0x00, 0x00, 0x00, 0x00, 0x00, 0xf8, 0xf1, 0xff, 0xff,
0x00, 0x00, 0x00, 0x00, 0x00, 0x00, 0x00, 0x00, 0x00, 0x00, 0x00, 0x00, 0x08, 0xf2, 0xff, 0xff,
0x00, 0x00, 0x00, 0x00, 0x00, 0x00, 0x00, 0x00, 0x00, 0x00, 0x00, 0x00, 0x18, 0xf2, 0xff, 0xff,
0x00, 0x00, 0x00, 0x00, 0x00, 0x00, 0x00, 0x00, 0x00, 0x00, 0x00, 0x00, 0x28, 0xf2, 0xff, 0xff,
0x00, 0x00, 0x00, 0x00, 0x00, 0x00, 0x00, 0x00, 0x00, 0x00, 0x00, 0x00, 0x38, 0xf2, 0xff, 0xff,
0x00, 0x00, 0x00, 0x00, 0x00, 0x00, 0x00, 0x00, 0x00, 0x00, 0x00, 0x00, 0x48, 0xf2, 0xff, 0xff,
0x00, 0x00, 0x00, 0x00, 0x00, 0x00, 0x00, 0x00, 0x00, 0x00, 0x00, 0x00, 0x58, 0xf2, 0xff, 0xff,
0x00, 0x00, 0x00, 0x00, 0x4a, 0xfc, 0xff, 0xff, 0x04, 0x00, 0x00, 0x00, 0x60, 0x00, 0x00, 0x00,
0xe1, 0xb4, 0x56, 0x3f, 0x5a, 0x31, 0xb6, 0x3f, 0x83, 0x8a, 0xc9, 0x3f, 0x40, 0xa0, 0x22, 0xc0,
0xb8, 0x0e, 0x2a, 0xbf, 0x48, 0xaa, 0x13, 0xbf, 0x6c, 0xfb, 0x8e, 0x3e, 0x0b, 0xc9, 0x5a, 0x3f,
0x13, 0xeb, 0xe2, 0xbe, 0xe2, 0xc2, 0x77, 0x3f, 0x6f, 0xfc, 0x80, 0x3f, 0x95, 0x4c, 0xd5, 0xbe,
0xbc, 0xd0, 0x6f, 0xbf, 0x05, 0x0c, 0x60, 0xbf, 0x66, 0x7e, 0xad, 0xbf, 0x99, 0x05, 0xfc, 0x3f,
0x22, 0xd3, 0x32, 0x3f, 0x2b, 0x25, 0xda, 0x3d, 0x50, 0xe1, 0xda, 0xbe, 0x49, 0x0f, 0xb6, 0xbf,
0xde, 0xa0, 0x2b, 0x3f, 0xf7, 0x25, 0x3e, 0xbf, 0x7e, 0xc5, 0x14, 0xbf, 0x2d, 0x6a, 0xdb, 0x3e,
0xb6, 0xfc, 0xff, 0xff, 0x04, 0x00, 0x00, 0x00, 0x04, 0x00, 0x00, 0x00, 0x01, 0x00, 0x00, 0x00,
0x00, 0x00, 0x00, 0x00, 0x00, 0x00, 0x00, 0x00, 0x00, 0x00, 0x00, 0x00, 0xd2, 0xfc, 0xff, 0xff,
0x04, 0x00, 0x00, 0x00, 0x08, 0x00, 0x00, 0x00, 0x24, 0xf7, 0x29, 0xbd, 0x1a, 0xf7, 0x29, 0x3d,
0x00, 0x00, 0x00, 0x00, 0x00, 0x00, 0x00, 0x00, 0xee, 0xfc, 0xff, 0xff, 0x04, 0x00, 0x00, 0x00,
0x0c, 0x00, 0x00, 0x00, 0x01, 0x00, 0x00, 0x00, 0x06, 0x00, 0x00, 0x00, 0x0c, 0x00, 0x00, 0x00,
0x00, 0x00, 0x00, 0x00, 0x0a, 0xfd, 0xff, 0xff, 0x04, 0x00, 0x00, 0x00, 0x10, 0x00, 0x00, 0x00,
0x01, 0x00, 0x00, 0x00, 0x0c, 0x00, 0x00, 0x00, 0x01, 0x00, 0x00, 0x00, 0x0c, 0x00, 0x00, 0x00,
0x00, 0x00, 0x00, 0x00, 0x2a, 0xfd, 0xff, 0xff, 0x04, 0x00, 0x00, 0x00, 0x10, 0x00, 0x00, 0x00,
0x01, 0x00, 0x00, 0x00, 0x01, 0x00, 0x00, 0x00, 0x18, 0x00, 0x00, 0x00, 0x03, 0x00, 0x00, 0x00,
0x00, 0x00, 0x00, 0x00, 0x4a, 0xfd, 0xff, 0xff, 0x04, 0x00, 0x00, 0x00, 0xb0, 0x01, 0x00, 0x00,
0x61, 0xa8, 0xee, 0xbc, 0x0f, 0xab, 0x72, 0x3c, 0xa4, 0x88, 0x77, 0xbc, 0xc6, 0x53, 0x2a, 0x3c,
0x6f, 0xf3, 0x34, 0xbc, 0x60, 0xb6, 0xa3, 0xbc, 0xc1, 0x25, 0xd5, 0x3a, 0x47, 0xa1, 0xe9, 0x3a,
0x41, 0x93, 0x10, 0x3d, 0x21, 0x6f, 0x45, 0xba, 0x19, 0xea, 0x1f, 0x3b, 0xd3, 0xbf, 0x4d, 0xbc,
0x2a, 0x39, 0x9c, 0xbb, 0x3f, 0xba, 0x0f, 0x3c, 0x6b, 0x33, 0x94, 0xbc, 0x2c, 0xa7, 0xd6, 0xba,
0x54, 0x2d, 0xb5, 0x3b, 0x6d, 0xb1, 0x0a, 0xbc, 0xc7, 0x72, 0xde, 0x3b, 0xe1, 0xd4, 0x0b, 0xbc,
0x30, 0x8e, 0x7c, 0xbc, 0x80, 0xbc, 0x4f, 0x3b, 0x70, 0x82, 0xca, 0x3b, 0x95, 0xdc, 0xbc, 0xbc,
0x17, 0xdd, 0x61, 0x3a, 0xa4, 0x2e, 0x08, 0x3b, 0x3e, 0x6f, 0x1b, 0xbc, 0x7d, 0xc3, 0x87, 0xbc,
0xbf, 0xe0, 0xe4, 0x3b, 0x3f, 0x27, 0x51, 0xbc, 0xb9, 0x1d, 0x29, 0xbc, 0x17, 0xa4, 0x3d, 0x3d,
0x34, 0xa7, 0x88, 0xbc, 0x69, 0x37, 0x60, 0xbb, 0x4a, 0xa6, 0x0c, 0xbb, 0xc9, 0x73, 0x76, 0x3c,
0x1c, 0x50, 0x62, 0x3b, 0x86, 0xdc, 0x87, 0x39, 0x80, 0x12, 0xac, 0x3b, 0x80, 0xaf, 0x5a, 0x3a,
0x5e, 0x69, 0x38, 0xbb, 0xce, 0xe1, 0x77, 0x3b, 0xc5, 0x11, 0xcd, 0xba, 0x46, 0xfd, 0x95, 0x3b,
0x23, 0x04, 0xbf, 0xb9, 0x8c, 0x2e, 0x59, 0x3b, 0x97, 0x2d, 0x84, 0x39, 0x30, 0xc7, 0x5c, 0x3b,
0x38, 0x51, 0x1f, 0x3a, 0x76, 0x4c, 0xd2, 0xbb, 0x51, 0x03, 0x70, 0x3b, 0x1f, 0x20, 0x58, 0x3a,
0xdd, 0x0f, 0x15, 0x3b, 0xc1, 0x7b, 0x08, 0xbb, 0xfd, 0x2c, 0xa1, 0x3a, 0x66, 0x1b, 0xd6, 0xbb,
0x43, 0xb4, 0xe0, 0xbb, 0x3c, 0x98, 0x5c, 0xbb, 0xfa, 0x92, 0x9d, 0x3b, 0x4c, 0x73, 0x09, 0xbc,
0xdb, 0xce, 0x23, 0x3b, 0x91, 0x86, 0x92, 0xba, 0x5c, 0xe5, 0xa1, 0xbb, 0x9e, 0x00, 0x32, 0x3b,
0x5f, 0xb8, 0xa5, 0x3a, 0xd5, 0x27, 0x36, 0x3b, 0x4c, 0x3a, 0x2b, 0x3b, 0x66, 0x7a, 0x16, 0x3b,
0x92, 0x69, 0xd9, 0x3b, 0x21, 0xed, 0x54, 0x3a, 0xf8, 0xfe, 0x64, 0xbb, 0x52, 0x87, 0x0b, 0x3b,
0x82, 0x5d, 0x88, 0xb8, 0x73, 0x26, 0xb0, 0x3a, 0x7e, 0x98, 0x0a, 0x3b, 0x86, 0xc7, 0xa5, 0x3a,
0xee, 0xb6, 0x0b, 0xbb, 0xac, 0x5a, 0x7f, 0x3b, 0x2e, 0xda, 0x24, 0x3b, 0x5b, 0x9c, 0xec, 0x39,
0xd8, 0x38, 0x01, 0xb9, 0xd5, 0x51, 0x43, 0xbc, 0xda, 0x19, 0x00, 0x3c, 0xab, 0x0f, 0x6a, 0xbc,
0x2b, 0x90, 0xaa, 0xbb, 0x5e, 0x76, 0xa6, 0x3a, 0x3e, 0x43, 0x30, 0xbc, 0x3b, 0x01, 0xf2, 0x3a,
0x7f, 0x78, 0xe1, 0x3a, 0x4e, 0x91, 0x88, 0x3c, 0xc4, 0x5d, 0xc3, 0xbb, 0x3a, 0xcf, 0xa7, 0x3b,
0x24, 0x08, 0x2c, 0xbc, 0x06, 0x78, 0x17, 0xbc, 0xf5, 0xb6, 0xc4, 0x3b, 0x3e, 0x02, 0x5e, 0xbb,
0x38, 0xd9, 0x97, 0xba, 0x42, 0x6f, 0x6d, 0x3b, 0xcf, 0xbc, 0x28, 0x3b, 0xef, 0x39, 0x1f, 0xba,
0x59, 0x55, 0x0d, 0x3b, 0xd3, 0xf4, 0x16, 0x3b, 0x92, 0xb7, 0x83, 0x3a, 0x8a, 0x76, 0x30, 0xbb,
0xb8, 0x27, 0x27, 0x3b, 0x6f, 0xd0, 0xd3, 0x3a, 0xdd, 0xa1, 0xc0, 0x3a, 0x49, 0xa3, 0x27, 0x3a,
0x00, 0x00, 0x00, 0x00, 0x0a, 0xff, 0xff, 0xff, 0x04, 0x00, 0x00, 0x00, 0x30, 0x00, 0x00, 0x00,
0xeb, 0x6b, 0x75, 0x41, 0xc4, 0xb0, 0xf8, 0xc0, 0xf6, 0x5b, 0x1c, 0xc1, 0xd5, 0xd7, 0xc1, 0xc1,
0x94, 0x0a, 0xb2, 0xc0, 0x84, 0x90, 0x62, 0xbf, 0x1c, 0xa9, 0x93, 0x40, 0x89, 0xa3, 0x19, 0xc1,
0x44, 0x75, 0x7e, 0xc0, 0xa0, 0x82, 0xec, 0x40, 0xdf, 0x7c, 0x84, 0x40, 0x0d, 0xc7, 0x38, 0xc0,
0x00, 0x00, 0x00, 0x00, 0x00, 0x00, 0x00, 0x00, 0x00, 0x00, 0x00, 0x00, 0x68, 0xf5, 0xff, 0xff,
0x00, 0x00, 0x00, 0x00, 0x00, 0x00, 0x00, 0x00, 0x00, 0x00, 0x00, 0x00, 0x78, 0xf5, 0xff, 0xff,
0x00, 0x00, 0x00, 0x00, 0x00, 0x00, 0x00, 0x00, 0x00, 0x00, 0x00, 0x00, 0x0f, 0x00, 0x00, 0x00,
0x4d, 0x4c, 0x49, 0x52, 0x20, 0x43, 0x6f, 0x6e, 0x76, 0x65, 0x72, 0x74, 0x65, 0x64, 0x2e, 0x00,
0x01, 0x00, 0x00, 0x00, 0x14, 0x00, 0x00, 0x00, 0x00, 0x00, 0x0e, 0x00, 0x18, 0x00, 0x14, 0x00,
0x10, 0x00, 0x0c, 0x00, 0x08, 0x00, 0x04, 0x00, 0x0e, 0x00, 0x00, 0x00, 0x14, 0x00, 0x00, 0x00,
0x1c, 0x00, 0x00, 0x00, 0xf0, 0x01, 0x00, 0x00, 0xf4, 0x01, 0x00, 0x00, 0xf8, 0x01, 0x00, 0x00,
0x04, 0x00, 0x00, 0x00, 0x6d, 0x61, 0x69, 0x6e, 0x00, 0x00, 0x00, 0x00, 0x08, 0x00, 0x00, 0x00,
0xb4, 0x01, 0x00, 0x00, 0x58, 0x01, 0x00, 0x00, 0x24, 0x01, 0x00, 0x00, 0xd0, 0x00, 0x00, 0x00,
0xac, 0x00, 0x00, 0x00, 0x78, 0x00, 0x00, 0x00, 0x40, 0x00, 0x00, 0x00, 0x04, 0x00, 0x00, 0x00,
0xd2, 0xfe, 0xff, 0xff, 0x1c, 0x00, 0x00, 0x00, 0x00, 0x00, 0x00, 0x09, 0x1c, 0x00, 0x00, 0x00,
0x20, 0x00, 0x00, 0x00, 0x05, 0x00, 0x00, 0x00, 0x00, 0x00, 0x06, 0x00, 0x08, 0x00, 0x04, 0x00,
0x06, 0x00, 0x00, 0x00, 0x00, 0x00, 0x80, 0x3f, 0x01, 0x00, 0x00, 0x00, 0x10, 0x00, 0x00, 0x00,
0x01, 0x00, 0x00, 0x00, 0x0f, 0x00, 0x00, 0x00, 0x0a, 0xff, 0xff, 0xff, 0x14, 0x00, 0x00, 0x00,
0x00, 0x00, 0x00, 0x08, 0x10, 0x00, 0x00, 0x00, 0x14, 0x00, 0x00, 0x00, 0x04, 0x00, 0x00, 0x00,
0x4c, 0xf6, 0xff, 0xff, 0x01, 0x00, 0x00, 0x00, 0x0f, 0x00, 0x00, 0x00, 0x03, 0x00, 0x00, 0x00,
0x0e, 0x00, 0x00, 0x00, 0x08, 0x00, 0x00, 0x00, 0x06, 0x00, 0x00, 0x00, 0x3e, 0xff, 0xff, 0xff,
0x14, 0x00, 0x00, 0x00, 0x00, 0x00, 0x00, 0x1b, 0x10, 0x00, 0x00, 0x00, 0x14, 0x00, 0x00, 0x00,
0x03, 0x00, 0x00, 0x00, 0x80, 0xf6, 0xff, 0xff, 0x01, 0x00, 0x00, 0x00, 0x0e, 0x00, 0x00, 0x00,
0x02, 0x00, 0x00, 0x00, 0x0d, 0x00, 0x00, 0x00, 0x07, 0x00, 0x00, 0x00, 0x12, 0xff, 0xff, 0xff,
0x08, 0x00, 0x00, 0x00, 0x0c, 0x00, 0x00, 0x00, 0x01, 0x00, 0x00, 0x00, 0x0d, 0x00, 0x00, 0x00,
0x02, 0x00, 0x00, 0x00, 0x0c, 0x00, 0x00, 0x00, 0x05, 0x00, 0x00, 0x00, 0x8e, 0xff, 0xff, 0xff,
0x24, 0x00, 0x00, 0x00, 0x00, 0x00, 0x00, 0x05, 0x34, 0x00, 0x00, 0x00, 0x38, 0x00, 0x00, 0x00,
0x02, 0x00, 0x00, 0x00, 0x00, 0x00, 0x0e, 0x00, 0x18, 0x00, 0x17, 0x00, 0x10, 0x00, 0x0c, 0x00,
0x08, 0x00, 0x04, 0x00, 0x0e, 0x00, 0x00, 0x00, 0x02, 0x00, 0x00, 0x00, 0x01, 0x00, 0x00, 0x00,
0x02, 0x00, 0x00, 0x00, 0x01, 0x00, 0x00, 0x00, 0x00, 0x00, 0x00, 0x01, 0x01, 0x00, 0x00, 0x00,
0x0c, 0x00, 0x00, 0x00, 0x01, 0x00, 0x00, 0x00, 0x0b, 0x00, 0x00, 0x00, 0x82, 0xff, 0xff, 0xff,
0x08, 0x00, 0x00, 0x00, 0x0c, 0x00, 0x00, 0x00, 0x01, 0x00, 0x00, 0x00, 0x0b, 0x00, 0x00, 0x00,
0x02, 0x00, 0x00, 0x00, 0x0a, 0x00, 0x00, 0x00, 0x04, 0x00, 0x00, 0x00, 0x00, 0x00, 0x0e, 0x00,
0x18, 0x00, 0x14, 0x00, 0x10, 0x00, 0x0c, 0x00, 0x0b, 0x00, 0x04, 0x00, 0x0e, 0x00, 0x00, 0x00,
0x20, 0x00, 0x00, 0x00, 0x00, 0x00, 0x00, 0x01, 0x28, 0x00, 0x00, 0x00, 0x2c, 0x00, 0x00, 0x00,
0x01, 0x00, 0x00, 0x00, 0x0c, 0x00, 0x10, 0x00, 0x00, 0x00, 0x0c, 0x00, 0x08, 0x00, 0x07, 0x00,
0x0c, 0x00, 0x00, 0x00, 0x00, 0x00, 0x00, 0x01, 0x01, 0x00, 0x00, 0x00, 0x02, 0x00, 0x00, 0x00,
0x01, 0x00, 0x00, 0x00, 0x0a, 0x00, 0x00, 0x00, 0x03, 0x00, 0x00, 0x00, 0x09, 0x00, 0x00, 0x00,
0x02, 0x00, 0x00, 0x00, 0x01, 0x00, 0x00, 0x00, 0x00, 0x00, 0x0a, 0x00, 0x0c, 0x00, 0x00, 0x00,
0x08, 0x00, 0x04, 0x00, 0x0a, 0x00, 0x00, 0x00, 0x08, 0x00, 0x00, 0x00, 0x0c, 0x00, 0x00, 0x00,
0x01, 0x00, 0x00, 0x00, 0x09, 0x00, 0x00, 0x00, 0x02, 0x00, 0x00, 0x00, 0x00, 0x00, 0x00, 0x00,
0x03, 0x00, 0x00, 0x00, 0x01, 0x00, 0x00, 0x00, 0x10, 0x00, 0x00, 0x00, 0x01, 0x00, 0x00, 0x00,
0x00, 0x00, 0x00, 0x00, 0x11, 0x00, 0x00, 0x00, 0x28, 0x08, 0x00, 0x00, 0xbc, 0x07, 0x00, 0x00,
0xbc, 0x06, 0x00, 0x00, 0x58, 0x06, 0x00, 0x00, 0xe8, 0x05, 0x00, 0x00, 0x8c, 0x05, 0x00, 0x00,
0x24, 0x05, 0x00, 0x00, 0xbc, 0x04, 0x00, 0x00, 0x60, 0x04, 0x00, 0x00, 0xf0, 0x03, 0x00, 0x00,
0x58, 0x02, 0x00, 0x00, 0xf0, 0x01, 0x00, 0x00, 0x8c, 0x01, 0x00, 0x00, 0x2c, 0x01, 0x00, 0x00,
0xd4, 0x00, 0x00, 0x00, 0x4c, 0x00, 0x00, 0x00, 0x04, 0x00, 0x00, 0x00, 0x2a, 0xf8, 0xff, 0xff,
0x10, 0x00, 0x00, 0x00, 0x10, 0x00, 0x00, 0x00, 0x11, 0x00, 0x00, 0x00, 0x28, 0x00, 0x00, 0x00,
0x1c, 0xf8, 0xff, 0xff, 0x19, 0x00, 0x00, 0x00, 0x53, 0x74, 0x61, 0x74, 0x65, 0x66, 0x75, 0x6c,
0x50, 0x61, 0x72, 0x74, 0x69, 0x74, 0x69, 0x6f, 0x6e, 0x65, 0x64, 0x43, 0x61, 0x6c, 0x6c, 0x3a,
0x30, 0x00, 0x00, 0x00, 0x02, 0x00, 0x00, 0x00, 0x01, 0x00, 0x00, 0x00, 0x02, 0x00, 0x00, 0x00,
0x6e, 0xf8, 0xff, 0xff, 0x10, 0x00, 0x00, 0x00, 0x10, 0x00, 0x00, 0x00, 0x10, 0x00, 0x00, 0x00,
0x68, 0x00, 0x00, 0x00, 0x60, 0xf8, 0xff, 0xff, 0x5a, 0x00, 0x00, 0x00, 0x6d, 0x6f, 0x64, 0x65,
0x6c, 0x2f, 0x63, 0x6f, 0x6e, 0x76, 0x31, 0x64, 0x2d, 0x73, 0x6d, 0x61, 0x6c, 0x6c, 0x2d, 0x62,
0x61, 0x6c, 0x61, 0x6e, 0x63, 0x65, 0x64, 0x2d, 0x30, 0x2f, 0x6c, 0x61, 0x79, 0x65, 0x72, 0x5f,
0x35, 0x2f, 0x4d, 0x61, 0x74, 0x4d, 0x75, 0x6c, 0x3b, 0x6d, 0x6f, 0x64, 0x65, 0x6c, 0x2f, 0x63,
0x6f, 0x6e, 0x76, 0x31, 0x64, 0x2d, 0x73, 0x6d, 0x61, 0x6c, 0x6c, 0x2d, 0x62, 0x61, 0x6c, 0x61,
0x6e, 0x63, 0x65, 0x64, 0x2d, 0x30, 0x2f, 0x6c, 0x61, 0x79, 0x65, 0x72, 0x5f, 0x35, 0x2f, 0x42,
0x69, 0x61, 0x73, 0x41, 0x64, 0x64, 0x00, 0x00, 0x02, 0x00, 0x00, 0x00, 0x01, 0x00, 0x00, 0x00,
0x02, 0x00, 0x00, 0x00, 0xf2, 0xf8, 0xff, 0xff, 0x10, 0x00, 0x00, 0x00, 0x10, 0x00, 0x00, 0x00,
0x0f, 0x00, 0x00, 0x00, 0x38, 0x00, 0x00, 0x00, 0xe4, 0xf8, 0xff, 0xff, 0x2a, 0x00, 0x00, 0x00,
0x6d, 0x6f, 0x64, 0x65, 0x6c, 0x2f, 0x63, 0x6f, 0x6e, 0x76, 0x31, 0x64, 0x2d, 0x73, 0x6d, 0x61,
0x6c, 0x6c, 0x2d, 0x62, 0x61, 0x6c, 0x61, 0x6e, 0x63, 0x65, 0x64, 0x2d, 0x30, 0x2f, 0x6c, 0x61,
0x79, 0x65, 0x72, 0x5f, 0x34, 0x2f, 0x4d, 0x65, 0x61, 0x6e, 0x00, 0x00, 0x02, 0x00, 0x00, 0x00,
0x01, 0x00, 0x00, 0x00, 0x0c, 0x00, 0x00, 0x00, 0x46, 0xf9, 0xff, 0xff, 0x10, 0x00, 0x00, 0x00,
0x10, 0x00, 0x00, 0x00, 0x0e, 0x00, 0x00, 0x00, 0x3c, 0x00, 0x00, 0x00, 0x38, 0xf9, 0xff, 0xff,
0x2e, 0x00, 0x00, 0x00, 0x6d, 0x6f, 0x64, 0x65, 0x6c, 0x2f, 0x63, 0x6f, 0x6e, 0x76, 0x31, 0x64,
0x2d, 0x73, 0x6d, 0x61, 0x6c, 0x6c, 0x2d, 0x62, 0x61, 0x6c, 0x61, 0x6e, 0x63, 0x65, 0x64, 0x2d,
0x30, 0x2f, 0x6c, 0x61, 0x79, 0x65, 0x72, 0x5f, 0x33, 0x2f, 0x53, 0x71, 0x75, 0x65, 0x65, 0x7a,
0x65, 0x31, 0x00, 0x00, 0x03, 0x00, 0x00, 0x00, 0x01, 0x00, 0x00, 0x00, 0x06, 0x00, 0x00, 0x00,
0x0c, 0x00, 0x00, 0x00, 0xa2, 0xf9, 0xff, 0xff, 0x10, 0x00, 0x00, 0x00, 0x10, 0x00, 0x00, 0x00,
0x0d, 0x00, 0x00, 0x00, 0x3c, 0x00, 0x00, 0x00, 0x94, 0xf9, 0xff, 0xff, 0x2d, 0x00, 0x00, 0x00,
0x6d, 0x6f, 0x64, 0x65, 0x6c, 0x2f, 0x63, 0x6f, 0x6e, 0x76, 0x31, 0x64, 0x2d, 0x73, 0x6d, 0x61,
0x6c, 0x6c, 0x2d, 0x62, 0x61, 0x6c, 0x61, 0x6e, 0x63, 0x65, 0x64, 0x2d, 0x30, 0x2f, 0x6c, 0x61,
0x79, 0x65, 0x72, 0x5f, 0x33, 0x2f, 0x4d, 0x61, 0x78, 0x50, 0x6f, 0x6f, 0x6c, 0x00, 0x00, 0x00,
0x04, 0x00, 0x00, 0x00, 0x01, 0x00, 0x00, 0x00, 0x06, 0x00, 0x00, 0x00, 0x01, 0x00, 0x00, 0x00,
0x0c, 0x00, 0x00, 0x00, 0x02, 0xfa, 0xff, 0xff, 0x10, 0x00, 0x00, 0x00, 0x10, 0x00, 0x00, 0x00,
0x0c, 0x00, 0x00, 0x00, 0x40, 0x00, 0x00, 0x00, 0xf4, 0xf9, 0xff, 0xff, 0x31, 0x00, 0x00, 0x00,
0x6d, 0x6f, 0x64, 0x65, 0x6c, 0x2f, 0x63, 0x6f, 0x6e, 0x76, 0x31, 0x64, 0x2d, 0x73, 0x6d, 0x61,
0x6c, 0x6c, 0x2d, 0x62, 0x61, 0x6c, 0x61, 0x6e, 0x63, 0x65, 0x64, 0x2d, 0x30, 0x2f, 0x6c, 0x61,
0x79, 0x65, 0x72, 0x5f, 0x33, 0x2f, 0x45, 0x78, 0x70, 0x61, 0x6e, 0x64, 0x44, 0x69, 0x6d, 0x73,
0x31, 0x00, 0x00, 0x00, 0x04, 0x00, 0x00, 0x00, 0x01, 0x00, 0x00, 0x00, 0x0c, 0x00, 0x00, 0x00,
0x01, 0x00, 0x00, 0x00, 0x0c, 0x00, 0x00, 0x00, 0x66, 0xfa, 0xff, 0xff, 0x10, 0x00, 0x00, 0x00,
0x10, 0x00, 0x00, 0x00, 0x0b, 0x00, 0x00, 0x00, 0x70, 0x01, 0x00, 0x00, 0x58, 0xfa, 0xff, 0xff,
0x60, 0x01, 0x00, 0x00, 0x6d, 0x6f, 0x64, 0x65, 0x6c, 0x2f, 0x63, 0x6f, 0x6e, 0x76, 0x31, 0x64,
0x2d, 0x73, 0x6d, 0x61, 0x6c, 0x6c, 0x2d, 0x62, 0x61, 0x6c, 0x61, 0x6e, 0x63, 0x65, 0x64, 0x2d,
0x30, 0x2f, 0x6c, 0x61, 0x79, 0x65, 0x72, 0x5f, 0x32, 0x2f, 0x52, 0x65, 0x6c, 0x75, 0x3b, 0x6d,
0x6f, 0x64, 0x65, 0x6c, 0x2f, 0x63, 0x6f, 0x6e, 0x76, 0x31, 0x64, 0x2d, 0x73, 0x6d, 0x61, 0x6c,
0x6c, 0x2d, 0x62, 0x61, 0x6c, 0x61, 0x6e, 0x63, 0x65, 0x64, 0x2d, 0x30, 0x2f, 0x6c, 0x61, 0x79,
0x65, 0x72, 0x5f, 0x31, 0x2f, 0x62, 0x61, 0x74, 0x63, 0x68, 0x6e, 0x6f, 0x72, 0x6d, 0x2f, 0x61,
0x64, 0x64, 0x5f, 0x31, 0x3b, 0x6d, 0x6f, 0x64, 0x65, 0x6c, 0x2f, 0x63, 0x6f, 0x6e, 0x76, 0x31,
0x64, 0x2d, 0x73, 0x6d, 0x61, 0x6c, 0x6c, 0x2d, 0x62, 0x61, 0x6c, 0x61, 0x6e, 0x63, 0x65, 0x64,
0x2d, 0x30, 0x2f, 0x6c, 0x61, 0x79, 0x65, 0x72, 0x5f, 0x30, 0x2f, 0x43, 0x6f, 0x6e, 0x76, 0x31,
0x44, 0x2f, 0x53, 0x71, 0x75, 0x65, 0x65, 0x7a, 0x65, 0x3b, 0x6d, 0x6f, 0x64, 0x65, 0x6c, 0x2f,
0x63, 0x6f, 0x6e, 0x76, 0x31, 0x64, 0x2d, 0x73, 0x6d, 0x61, 0x6c, 0x6c, 0x2d, 0x62, 0x61, 0x6c,
0x61, 0x6e, 0x63, 0x65, 0x64, 0x2d, 0x30, 0x2f, 0x6c, 0x61, 0x79, 0x65, 0x72, 0x5f, 0x31, 0x2f,
0x62, 0x61, 0x74, 0x63, 0x68, 0x6e, 0x6f, 0x72, 0x6d, 0x2f, 0x6d, 0x75, 0x6c, 0x5f, 0x31, 0x3b,
0x6d, 0x6f, 0x64, 0x65, 0x6c, 0x2f, 0x63, 0x6f, 0x6e, 0x76, 0x31, 0x64, 0x2d, 0x73, 0x6d, 0x61,
0x6c, 0x6c, 0x2d, 0x62, 0x61, 0x6c, 0x61, 0x6e, 0x63, 0x65, 0x64, 0x2d, 0x30, 0x2f, 0x6c, 0x61,
0x79, 0x65, 0x72, 0x5f, 0x31, 0x2f, 0x62, 0x61, 0x74, 0x63, 0x68, 0x6e, 0x6f, 0x72, 0x6d, 0x2f,
0x6d, 0x75, 0x6c, 0x3b, 0x6d, 0x6f, 0x64, 0x65, 0x6c, 0x2f, 0x63, 0x6f, 0x6e, 0x76, 0x31, 0x64,
0x2d, 0x73, 0x6d, 0x61, 0x6c, 0x6c, 0x2d, 0x62, 0x61, 0x6c, 0x61, 0x6e, 0x63, 0x65, 0x64, 0x2d,
0x30, 0x2f, 0x6c, 0x61, 0x79, 0x65, 0x72, 0x5f, 0x31, 0x2f, 0x62, 0x61, 0x74, 0x63, 0x68, 0x6e,
0x6f, 0x72, 0x6d, 0x2f, 0x73, 0x75, 0x62, 0x3b, 0x6d, 0x6f, 0x64, 0x65, 0x6c, 0x2f, 0x63, 0x6f,
0x6e, 0x76, 0x31, 0x64, 0x2d, 0x73, 0x6d, 0x61, 0x6c, 0x6c, 0x2d, 0x62, 0x61, 0x6c, 0x61, 0x6e,
0x63, 0x65, 0x64, 0x2d, 0x30, 0x2f, 0x6c, 0x61, 0x79, 0x65, 0x72, 0x5f, 0x30, 0x2f, 0x43, 0x6f,
0x6e, 0x76, 0x31, 0x44, 0x00, 0x00, 0x00, 0x00, 0x04, 0x00, 0x00, 0x00, 0x01, 0x00, 0x00, 0x00,
0x01, 0x00, 0x00, 0x00, 0x0c, 0x00, 0x00, 0x00, 0x0c, 0x00, 0x00, 0x00, 0xfa, 0xfb, 0xff, 0xff,
0x10, 0x00, 0x00, 0x00, 0x10, 0x00, 0x00, 0x00, 0x0a, 0x00, 0x00, 0x00, 0x48, 0x00, 0x00, 0x00,
0xec, 0xfb, 0xff, 0xff, 0x38, 0x00, 0x00, 0x00, 0x6d, 0x6f, 0x64, 0x65, 0x6c, 0x2f, 0x63, 0x6f,
0x6e, 0x76, 0x31, 0x64, 0x2d, 0x73, 0x6d, 0x61, 0x6c, 0x6c, 0x2d, 0x62, 0x61, 0x6c, 0x61, 0x6e,
0x63, 0x65, 0x64, 0x2d, 0x30, 0x2f, 0x6c, 0x61, 0x79, 0x65, 0x72, 0x5f, 0x30, 0x2f, 0x43, 0x6f,
0x6e, 0x76, 0x31, 0x44, 0x2f, 0x45, 0x78, 0x70, 0x61, 0x6e, 0x64, 0x44, 0x69, 0x6d, 0x73, 0x31,
0x00, 0x00, 0x00, 0x00, 0x04, 0x00, 0x00, 0x00, 0x01, 0x00, 0x00, 0x00, 0x01, 0x00, 0x00, 0x00,
0x18, 0x00, 0x00, 0x00, 0x03, 0x00, 0x00, 0x00, 0x66, 0xfc, 0xff, 0xff, 0x10, 0x00, 0x00, 0x00,
0x10, 0x00, 0x00, 0x00, 0x09, 0x00, 0x00, 0x00, 0x3c, 0x00, 0x00, 0x00, 0x58, 0xfc, 0xff, 0xff,
0x2c, 0x00, 0x00, 0x00, 0x6d, 0x6f, 0x64, 0x65, 0x6c, 0x2f, 0x63, 0x6f, 0x6e, 0x76, 0x31, 0x64,
0x2d, 0x73, 0x6d, 0x61, 0x6c, 0x6c, 0x2d, 0x62, 0x61, 0x6c, 0x61, 0x6e, 0x63, 0x65, 0x64, 0x2d,
0x30, 0x2f, 0x6c, 0x61, 0x79, 0x65, 0x72, 0x5f, 0x35, 0x2f, 0x4d, 0x61, 0x74, 0x4d, 0x75, 0x6c,
0x00, 0x00, 0x00, 0x00, 0x02, 0x00, 0x00, 0x00, 0x02, 0x00, 0x00, 0x00, 0x0c, 0x00, 0x00, 0x00,
0x82, 0xfe, 0xff, 0xff, 0x14, 0x00, 0x00, 0x00, 0x14, 0x00, 0x00, 0x00, 0x08, 0x00, 0x00, 0x00,
0x00, 0x00, 0x00, 0x02, 0x4c, 0x00, 0x00, 0x00, 0xb4, 0xfc, 0xff, 0xff, 0x3c, 0x00, 0x00, 0x00,
0x6d, 0x6f, 0x64, 0x65, 0x6c, 0x2f, 0x63, 0x6f, 0x6e, 0x76, 0x31, 0x64, 0x2d, 0x73, 0x6d, 0x61,
0x6c, 0x6c, 0x2d, 0x62, 0x61, 0x6c, 0x61, 0x6e, 0x63, 0x65, 0x64, 0x2d, 0x30, 0x2f, 0x6c, 0x61,
0x79, 0x65, 0x72, 0x5f, 0x34, 0x2f, 0x4d, 0x65, 0x61, 0x6e, 0x2f, 0x72, 0x65, 0x64, 0x75, 0x63,
0x74, 0x69, 0x6f, 0x6e, 0x5f, 0x69, 0x6e, 0x64, 0x69, 0x63, 0x65, 0x73, 0x00, 0x00, 0x00, 0x00,
0x00, 0x00, 0x00, 0x00, 0x22, 0xfd, 0xff, 0xff, 0x10, 0x00, 0x00, 0x00, 0x10, 0x00, 0x00, 0x00,
0x07, 0x00, 0x00, 0x00, 0x4c, 0x00, 0x00, 0x00, 0x14, 0xfd, 0xff, 0xff, 0x3c, 0x00, 0x00, 0x00,
0x6d, 0x6f, 0x64, 0x65, 0x6c, 0x2f, 0x63, 0x6f, 0x6e, 0x76, 0x31, 0x64, 0x2d, 0x73, 0x6d, 0x61,
0x6c, 0x6c, 0x2d, 0x62, 0x61, 0x6c, 0x61, 0x6e, 0x63, 0x65, 0x64, 0x2d, 0x30, 0x2f, 0x6c, 0x61,
0x79, 0x65, 0x72, 0x5f, 0x35, 0x2f, 0x42, 0x69, 0x61, 0x73, 0x41, 0x64, 0x64, 0x2f, 0x52, 0x65,
0x61, 0x64, 0x56, 0x61, 0x72, 0x69, 0x61, 0x62, 0x6c, 0x65, 0x4f, 0x70, 0x00, 0x00, 0x00, 0x00,
0x01, 0x00, 0x00, 0x00, 0x02, 0x00, 0x00, 0x00, 0x4a, 0xff, 0xff, 0xff, 0x14, 0x00, 0x00, 0x00,
0x14, 0x00, 0x00, 0x00, 0x06, 0x00, 0x00, 0x00, 0x00, 0x00, 0x00, 0x02, 0x3c, 0x00, 0x00, 0x00,
0x7c, 0xfd, 0xff, 0xff, 0x2d, 0x00, 0x00, 0x00, 0x6d, 0x6f, 0x64, 0x65, 0x6c, 0x2f, 0x63, 0x6f,
0x6e, 0x76, 0x31, 0x64, 0x2d, 0x73, 0x6d, 0x61, 0x6c, 0x6c, 0x2d, 0x62, 0x61, 0x6c, 0x61, 0x6e,
0x63, 0x65, 0x64, 0x2d, 0x30, 0x2f, 0x6c, 0x61, 0x79, 0x65, 0x72, 0x5f, 0x33, 0x2f, 0x53, 0x71,
0x75, 0x65, 0x65, 0x7a, 0x65, 0x00, 0x00, 0x00, 0x01, 0x00, 0x00, 0x00, 0x03, 0x00, 0x00, 0x00,
0xa2, 0xff, 0xff, 0xff, 0x14, 0x00, 0x00, 0x00, 0x14, 0x00, 0x00, 0x00, 0x05, 0x00, 0x00, 0x00,
0x00, 0x00, 0x00, 0x02, 0x40, 0x00, 0x00, 0x00, 0xd4, 0xfd, 0xff, 0xff, 0x30, 0x00, 0x00, 0x00,
0x6d, 0x6f, 0x64, 0x65, 0x6c, 0x2f, 0x63, 0x6f, 0x6e, 0x76, 0x31, 0x64, 0x2d, 0x73, 0x6d, 0x61,
0x6c, 0x6c, 0x2d, 0x62, 0x61, 0x6c, 0x61, 0x6e, 0x63, 0x65, 0x64, 0x2d, 0x30, 0x2f, 0x6c, 0x61,
0x79, 0x65, 0x72, 0x5f, 0x33, 0x2f, 0x45, 0x78, 0x70, 0x61, 0x6e, 0x64, 0x44, 0x69, 0x6d, 0x73,
0x00, 0x00, 0x00, 0x00, 0x01, 0x00, 0x00, 0x00, 0x04, 0x00, 0x00, 0x00, 0x00, 0x00, 0x0e, 0x00,
0x18, 0x00, 0x14, 0x00, 0x13, 0x00, 0x0c, 0x00, 0x08, 0x00, 0x04, 0x00, 0x0e, 0x00, 0x00, 0x00,
0x14, 0x00, 0x00, 0x00, 0x14, 0x00, 0x00, 0x00, 0x04, 0x00, 0x00, 0x00, 0x00, 0x00, 0x00, 0x02,
0x44, 0x00, 0x00, 0x00, 0x40, 0xfe, 0xff, 0xff, 0x37, 0x00, 0x00, 0x00, 0x6d, 0x6f, 0x64, 0x65,
0x6c, 0x2f, 0x63, 0x6f, 0x6e, 0x76, 0x31, 0x64, 0x2d, 0x73, 0x6d, 0x61, 0x6c, 0x6c, 0x2d, 0x62,
0x61, 0x6c, 0x61, 0x6e, 0x63, 0x65, 0x64, 0x2d, 0x30, 0x2f, 0x6c, 0x61, 0x79, 0x65, 0x72, 0x5f,
0x30, 0x2f, 0x43, 0x6f, 0x6e, 0x76, 0x31, 0x44, 0x2f, 0x45, 0x78, 0x70, 0x61, 0x6e, 0x64, 0x44,
0x69, 0x6d, 0x73, 0x00, 0x01, 0x00, 0x00, 0x00, 0x04, 0x00, 0x00, 0x00, 0xaa, 0xfe, 0xff, 0xff,
0x10, 0x00, 0x00, 0x00, 0x10, 0x00, 0x00, 0x00, 0x03, 0x00, 0x00, 0x00, 0xd8, 0x00, 0x00, 0x00,
0x9c, 0xfe, 0xff, 0xff, 0xcb, 0x00, 0x00, 0x00, 0x6d, 0x6f, 0x64, 0x65, 0x6c, 0x2f, 0x63, 0x6f,
0x6e, 0x76, 0x31, 0x64, 0x2d, 0x73, 0x6d, 0x61, 0x6c, 0x6c, 0x2d, 0x62, 0x61, 0x6c, 0x61, 0x6e,
0x63, 0x65, 0x64, 0x2d, 0x30, 0x2f, 0x6c, 0x61, 0x79, 0x65, 0x72, 0x5f, 0x31, 0x2f, 0x62, 0x61,
0x74, 0x63, 0x68, 0x6e, 0x6f, 0x72, 0x6d, 0x2f, 0x6d, 0x75, 0x6c, 0x5f, 0x31, 0x3b, 0x6d, 0x6f,
0x64, 0x65, 0x6c, 0x2f, 0x63, 0x6f, 0x6e, 0x76, 0x31, 0x64, 0x2d, 0x73, 0x6d, 0x61, 0x6c, 0x6c,
0x2d, 0x62, 0x61, 0x6c, 0x61, 0x6e, 0x63, 0x65, 0x64, 0x2d, 0x30, 0x2f, 0x6c, 0x61, 0x79, 0x65,
0x72, 0x5f, 0x30, 0x2f, 0x43, 0x6f, 0x6e, 0x76, 0x31, 0x44, 0x2f, 0x53, 0x71, 0x75, 0x65, 0x65,
0x7a, 0x65, 0x3b, 0x6d, 0x6f, 0x64, 0x65, 0x6c, 0x2f, 0x63, 0x6f, 0x6e, 0x76, 0x31, 0x64, 0x2d,
0x73, 0x6d, 0x61, 0x6c, 0x6c, 0x2d, 0x62, 0x61, 0x6c, 0x61, 0x6e, 0x63, 0x65, 0x64, 0x2d, 0x30,
0x2f, 0x6c, 0x61, 0x79, 0x65, 0x72, 0x5f, 0x31, 0x2f, 0x62, 0x61, 0x74, 0x63, 0x68, 0x6e, 0x6f,
0x72, 0x6d, 0x2f, 0x6d, 0x75, 0x6c, 0x3b, 0x6d, 0x6f, 0x64, 0x65, 0x6c, 0x2f, 0x63, 0x6f, 0x6e,
0x76, 0x31, 0x64, 0x2d, 0x73, 0x6d, 0x61, 0x6c, 0x6c, 0x2d, 0x62, 0x61, 0x6c, 0x61, 0x6e, 0x63,
0x65, 0x64, 0x2d, 0x30, 0x2f, 0x6c, 0x61, 0x79, 0x65, 0x72, 0x5f, 0x30, 0x2f, 0x43, 0x6f, 0x6e,
0x76, 0x31, 0x44, 0x00, 0x04, 0x00, 0x00, 0x00, 0x0c, 0x00, 0x00, 0x00, 0x01, 0x00, 0x00, 0x00,
0x03, 0x00, 0x00, 0x00, 0x03, 0x00, 0x00, 0x00, 0xa6, 0xff, 0xff, 0xff, 0x10, 0x00, 0x00, 0x00,
0x10, 0x00, 0x00, 0x00, 0x02, 0x00, 0x00, 0x00, 0x40, 0x00, 0x00, 0x00, 0x98, 0xff, 0xff, 0xff,
0x33, 0x00, 0x00, 0x00, 0x6d, 0x6f, 0x64, 0x65, 0x6c, 0x2f, 0x63, 0x6f, 0x6e, 0x76, 0x31, 0x64,
0x2d, 0x73, 0x6d, 0x61, 0x6c, 0x6c, 0x2d, 0x62, 0x61, 0x6c, 0x61, 0x6e, 0x63, 0x65, 0x64, 0x2d,
0x30, 0x2f, 0x6c, 0x61, 0x79, 0x65, 0x72, 0x5f, 0x31, 0x2f, 0x62, 0x61, 0x74, 0x63, 0x68, 0x6e,
0x6f, 0x72, 0x6d, 0x2f, 0x73, 0x75, 0x62, 0x00, 0x01, 0x00, 0x00, 0x00, 0x0c, 0x00, 0x00, 0x00,
0x00, 0x00, 0x0e, 0x00, 0x14, 0x00, 0x10, 0x00, 0x00, 0x00, 0x0c, 0x00, 0x08, 0x00, 0x04, 0x00,
0x0e, 0x00, 0x00, 0x00, 0x14, 0x00, 0x00, 0x00, 0x14, 0x00, 0x00, 0x00, 0x01, 0x00, 0x00, 0x00,
0x2c, 0x00, 0x00, 0x00, 0x04, 0x00, 0x04, 0x00, 0x04, 0x00, 0x00, 0x00, 0x19, 0x00, 0x00, 0x00,
0x73, 0x65, 0x72, 0x76, 0x69, 0x6e, 0x67, 0x5f, 0x64, 0x65, 0x66, 0x61, 0x75, 0x6c, 0x74, 0x5f,
0x69, 0x6e, 0x70, 0x75, 0x74, 0x5f, 0x31, 0x3a, 0x30, 0x00, 0x00, 0x00, 0x03, 0x00, 0x00, 0x00,
0x01, 0x00, 0x00, 0x00, 0x18, 0x00, 0x00, 0x00, 0x03, 0x00, 0x00, 0x00, 0x06, 0x00, 0x00, 0x00,
0x48, 0x00, 0x00, 0x00, 0x38, 0x00, 0x00, 0x00, 0x28, 0x00, 0x00, 0x00, 0x1c, 0x00, 0x00, 0x00,
0x10, 0x00, 0x00, 0x00, 0x04, 0x00, 0x00, 0x00, 0xd6, 0xff, 0xff, 0xff, 0x00, 0x00, 0x00, 0x19,
0xde, 0xff, 0xff, 0xff, 0x00, 0x00, 0x00, 0x09, 0xe6, 0xff, 0xff, 0xff, 0x00, 0x00, 0x00, 0x28,
0xfa, 0xff, 0xff, 0xff, 0x00, 0x11, 0x06, 0x00, 0x06, 0x00, 0x05, 0x00, 0x06, 0x00, 0x00, 0x00,
0x00, 0x03, 0x06, 0x00, 0x08, 0x00, 0x07, 0x00, 0x06, 0x00, 0x00, 0x00, 0x00, 0x00, 0x00, 0x16
};

