/***************************************************************************//**
* \file CAP_MODEL_tflm_model_int8x8.c
*
* \brief
* Autogenerated with ml-coretools, this file contains CAP_MODEL model data.
* Date: 2024-10-30 10:47:11.686885
*******************************************************************************
* \copyright
* Copyright 2024, Cypress Semiconductor Corporation (an Infineon company).
* All rights reserved.
* You may use this file only in accordance with the license, terms, conditions,
* disclaimers, and limitations in the end user license agreement accompanying
* the software package with which this file was provided.
******************************************************************************/


#include "CAP_MODEL_tflm_model_int8x8.h"


#ifdef CY_ML_MODEL_MEM
#include "cy_utils.h"
#define Q(x) #x
#define QUOTE(x) Q(x)
CY_SECTION(QUOTE(CY_ML_MODEL_MEM))
const
#endif

uint8_t CAP_MODEL_model_bin[CAP_MODEL_MODEL_BIN_LEN] __attribute__((aligned(4))) = {
0x20, 0x00, 0x00, 0x00, 0x54, 0x46, 0x4c, 0x33, 0x00, 0x00, 0x00, 0x00, 0x00, 0x00, 0x12, 0x00,
0x1c, 0x00, 0x18, 0x00, 0x14, 0x00, 0x10, 0x00, 0x0c, 0x00, 0x08, 0x00, 0x00, 0x00, 0x04, 0x00,
0x12, 0x00, 0x00, 0x00, 0x18, 0x00, 0x00, 0x00, 0x70, 0x00, 0x00, 0x00, 0x64, 0x03, 0x00, 0x00,
0x74, 0x03, 0x00, 0x00, 0xe8, 0x10, 0x00, 0x00, 0x03, 0x00, 0x00, 0x00, 0x02, 0x00, 0x00, 0x00,
0x34, 0x00, 0x00, 0x00, 0x04, 0x00, 0x00, 0x00, 0xdc, 0xff, 0xff, 0xff, 0x13, 0x00, 0x00, 0x00,
0x04, 0x00, 0x00, 0x00, 0x13, 0x00, 0x00, 0x00, 0x43, 0x4f, 0x4e, 0x56, 0x45, 0x52, 0x53, 0x49,
0x4f, 0x4e, 0x5f, 0x4d, 0x45, 0x54, 0x41, 0x44, 0x41, 0x54, 0x41, 0x00, 0x08, 0x00, 0x0c, 0x00,
0x08, 0x00, 0x04, 0x00, 0x08, 0x00, 0x00, 0x00, 0x12, 0x00, 0x00, 0x00, 0x04, 0x00, 0x00, 0x00,
0x13, 0x00, 0x00, 0x00, 0x6d, 0x69, 0x6e, 0x5f, 0x72, 0x75, 0x6e, 0x74, 0x69, 0x6d, 0x65, 0x5f,
0x76, 0x65, 0x72, 0x73, 0x69, 0x6f, 0x6e, 0x00, 0x14, 0x00, 0x00, 0x00, 0xf0, 0x02, 0x00, 0x00,
0xdc, 0x02, 0x00, 0x00, 0xb0, 0x02, 0x00, 0x00, 0x8c, 0x02, 0x00, 0x00, 0x6c, 0x02, 0x00, 0x00,
0x50, 0x02, 0x00, 0x00, 0x38, 0x02, 0x00, 0x00, 0x04, 0x02, 0x00, 0x00, 0xb8, 0x01, 0x00, 0x00,
0x38, 0x01, 0x00, 0x00, 0x28, 0x01, 0x00, 0x00, 0x14, 0x01, 0x00, 0x00, 0x00, 0x01, 0x00, 0x00,
0xec, 0x00, 0x00, 0x00, 0xd8, 0x00, 0x00, 0x00, 0xc4, 0x00, 0x00, 0x00, 0xb0, 0x00, 0x00, 0x00,
0x9c, 0x00, 0x00, 0x00, 0x70, 0x00, 0x00, 0x00, 0x04, 0x00, 0x00, 0x00, 0xce, 0xfc, 0xff, 0xff,
0x04, 0x00, 0x00, 0x00, 0x58, 0x00, 0x00, 0x00, 0x0c, 0x00, 0x00, 0x00, 0x08, 0x00, 0x0e, 0x00,
0x08, 0x00, 0x04, 0x00, 0x08, 0x00, 0x00, 0x00, 0x10, 0x00, 0x00, 0x00, 0x28, 0x00, 0x00, 0x00,
0x00, 0x00, 0x06, 0x00, 0x08, 0x00, 0x04, 0x00, 0x06, 0x00, 0x00, 0x00, 0x04, 0x00, 0x00, 0x00,
0x01, 0x00, 0x00, 0x00, 0xeb, 0x03, 0x00, 0x00, 0x00, 0x00, 0x0a, 0x00, 0x10, 0x00, 0x0c, 0x00,
0x08, 0x00, 0x04, 0x00, 0x0a, 0x00, 0x00, 0x00, 0x02, 0x00, 0x00, 0x00, 0x02, 0x00, 0x00, 0x00,
0x04, 0x00, 0x00, 0x00, 0x06, 0x00, 0x00, 0x00, 0x32, 0x2e, 0x31, 0x34, 0x2e, 0x31, 0x00, 0x00,
0x00, 0x00, 0x00, 0x00, 0x36, 0xfd, 0xff, 0xff, 0x04, 0x00, 0x00, 0x00, 0x10, 0x00, 0x00, 0x00,
0x31, 0x2e, 0x31, 0x34, 0x2e, 0x30, 0x00, 0x00, 0x00, 0x00, 0x00, 0x00, 0x00, 0x00, 0x00, 0x00,
0x00, 0x00, 0x00, 0x00, 0x00, 0x00, 0x00, 0x00, 0x00, 0x00, 0x00, 0x00, 0x38, 0xf1, 0xff, 0xff,
0x00, 0x00, 0x00, 0x00, 0x00, 0x00, 0x00, 0x00, 0x00, 0x00, 0x00, 0x00, 0x48, 0xf1, 0xff, 0xff,
0x00, 0x00, 0x00, 0x00, 0x00, 0x00, 0x00, 0x00, 0x00, 0x00, 0x00, 0x00, 0x58, 0xf1, 0xff, 0xff,
0x00, 0x00, 0x00, 0x00, 0x00, 0x00, 0x00, 0x00, 0x00, 0x00, 0x00, 0x00, 0x68, 0xf1, 0xff, 0xff,
0x00, 0x00, 0x00, 0x00, 0x00, 0x00, 0x00, 0x00, 0x00, 0x00, 0x00, 0x00, 0x78, 0xf1, 0xff, 0xff,
0x00, 0x00, 0x00, 0x00, 0x00, 0x00, 0x00, 0x00, 0x00, 0x00, 0x00, 0x00, 0x88, 0xf1, 0xff, 0xff,
0x00, 0x00, 0x00, 0x00, 0x00, 0x00, 0x00, 0x00, 0x00, 0x00, 0x00, 0x00, 0x98, 0xf1, 0xff, 0xff,
0x00, 0x00, 0x00, 0x00, 0x00, 0x00, 0x00, 0x00, 0x00, 0x00, 0x00, 0x00, 0xa8, 0xf1, 0xff, 0xff,
0x00, 0x00, 0x00, 0x00, 0x00, 0x00, 0x00, 0x00, 0xda, 0xfd, 0xff, 0xff, 0x04, 0x00, 0x00, 0x00,
0x6c, 0x00, 0x00, 0x00, 0x97, 0x35, 0xca, 0x25, 0xd8, 0xb8, 0x06, 0x06, 0x7f, 0xfb, 0x11, 0xa8,
0xdf, 0x3e, 0x81, 0xf5, 0x27, 0xc5, 0x25, 0xd1, 0xab, 0x11, 0x22, 0x81, 0x05, 0x0b, 0xcc, 0xd3,
0x13, 0xdd, 0xe4, 0x7f, 0xd2, 0xf7, 0xfa, 0x29, 0x54, 0x06, 0x7f, 0x14, 0xbc, 0x5b, 0xda, 0x6f,
0xf7, 0x42, 0x05, 0x43, 0x0c, 0x81, 0x48, 0x10, 0x2d, 0xd7, 0x13, 0x9d, 0x98, 0xcd, 0x49, 0x81,
0x26, 0xef, 0xb5, 0x34, 0x18, 0x35, 0x32, 0x2c, 0x7f, 0x10, 0xbd, 0x29, 0xfe, 0x2c, 0x45, 0x29,
0xbb, 0x7f, 0x52, 0x0f, 0xfc, 0xa5, 0x3c, 0x93, 0xd8, 0x0a, 0xae, 0x0e, 0x0d, 0x7f, 0xb8, 0x3e,
0x81, 0x90, 0x49, 0xd7, 0xf2, 0x2c, 0x1f, 0xe3, 0x66, 0x6d, 0x2f, 0x81, 0x78, 0x4c, 0x45, 0x1e,
0x00, 0x00, 0x00, 0x00, 0x56, 0xfe, 0xff, 0xff, 0x04, 0x00, 0x00, 0x00, 0x30, 0x00, 0x00, 0x00,
0x81, 0x24, 0x00, 0x00, 0xea, 0xdb, 0xff, 0xff, 0x65, 0xdc, 0xff, 0xff, 0x0a, 0xd4, 0xff, 0xff,
0x00, 0xa7, 0xff, 0xff, 0x6b, 0xf4, 0xff, 0xff, 0x34, 0x2e, 0x00, 0x00, 0x6e, 0x86, 0xff, 0xff,
0x49, 0xaa, 0xff, 0xff, 0x3e, 0x25, 0x00, 0x00, 0x1f, 0x21, 0x00, 0x00, 0xee, 0xa5, 0xff, 0xff,
0x00, 0x00, 0x00, 0x00, 0x00, 0x00, 0x00, 0x00, 0x00, 0x00, 0x00, 0x00, 0x9e, 0xfe, 0xff, 0xff,
0x04, 0x00, 0x00, 0x00, 0x18, 0x00, 0x00, 0x00, 0x2a, 0x47, 0x4f, 0x81, 0xdf, 0xe3, 0x0e, 0x2b,
0xea, 0x30, 0x32, 0xeb, 0xd1, 0xd4, 0xbc, 0x62, 0x23, 0x05, 0xeb, 0xb9, 0x22, 0xdb, 0xe3, 0x15,
0x00, 0x00, 0x00, 0x00, 0x00, 0x00, 0x00, 0x00, 0x00, 0x00, 0x00, 0x00, 0xce, 0xfe, 0xff, 0xff,
0x04, 0x00, 0x00, 0x00, 0x08, 0x00, 0x00, 0x00, 0x75, 0xff, 0xff, 0xff, 0x8b, 0x00, 0x00, 0x00,
0xe2, 0xfe, 0xff, 0xff, 0x04, 0x00, 0x00, 0x00, 0x04, 0x00, 0x00, 0x00, 0x01, 0x00, 0x00, 0x00,
0x00, 0x00, 0x00, 0x00, 0x00, 0x00, 0x00, 0x00, 0xfa, 0xfe, 0xff, 0xff, 0x04, 0x00, 0x00, 0x00,
0x0c, 0x00, 0x00, 0x00, 0x01, 0x00, 0x00, 0x00, 0x06, 0x00, 0x00, 0x00, 0x0c, 0x00, 0x00, 0x00,
0x00, 0x00, 0x00, 0x00, 0x16, 0xff, 0xff, 0xff, 0x04, 0x00, 0x00, 0x00, 0x10, 0x00, 0x00, 0x00,
0x01, 0x00, 0x00, 0x00, 0x0c, 0x00, 0x00, 0x00, 0x01, 0x00, 0x00, 0x00, 0x0c, 0x00, 0x00, 0x00,
0x00, 0x00, 0x00, 0x00, 0x36, 0xff, 0xff, 0xff, 0x04, 0x00, 0x00, 0x00, 0x10, 0x00, 0x00, 0x00,
0x01, 0x00, 0x00, 0x00, 0x01, 0x00, 0x00, 0x00, 0x18, 0x00, 0x00, 0x00, 0x03, 0x00, 0x00, 0x00,
0x00, 0x00, 0x00, 0x00, 0x00, 0x00, 0x00, 0x00, 0x00, 0x00, 0x00, 0x00, 0x38, 0xf3, 0xff, 0xff,
0x00, 0x00, 0x00, 0x00, 0x00, 0x00, 0x00, 0x00, 0x00, 0x00, 0x00, 0x00, 0x48, 0xf3, 0xff, 0xff,
0x0f, 0x00, 0x00, 0x00, 0x4d, 0x4c, 0x49, 0x52, 0x20, 0x43, 0x6f, 0x6e, 0x76, 0x65, 0x72, 0x74,
0x65, 0x64, 0x2e, 0x00, 0x01, 0x00, 0x00, 0x00, 0x14, 0x00, 0x00, 0x00, 0x00, 0x00, 0x0e, 0x00,
0x18, 0x00, 0x14, 0x00, 0x10, 0x00, 0x0c, 0x00, 0x08, 0x00, 0x04, 0x00, 0x0e, 0x00, 0x00, 0x00,
0x14, 0x00, 0x00, 0x00, 0x1c, 0x00, 0x00, 0x00, 0xf0, 0x01, 0x00, 0x00, 0xf4, 0x01, 0x00, 0x00,
0xf8, 0x01, 0x00, 0x00, 0x04, 0x00, 0x00, 0x00, 0x6d, 0x61, 0x69, 0x6e, 0x00, 0x00, 0x00, 0x00,
0x08, 0x00, 0x00, 0x00, 0xb4, 0x01, 0x00, 0x00, 0x58, 0x01, 0x00, 0x00, 0x24, 0x01, 0x00, 0x00,
0xd0, 0x00, 0x00, 0x00, 0xac, 0x00, 0x00, 0x00, 0x78, 0x00, 0x00, 0x00, 0x40, 0x00, 0x00, 0x00,
0x04, 0x00, 0x00, 0x00, 0xd2, 0xfe, 0xff, 0xff, 0x1c, 0x00, 0x00, 0x00, 0x00, 0x00, 0x00, 0x09,
0x1c, 0x00, 0x00, 0x00, 0x20, 0x00, 0x00, 0x00, 0x05, 0x00, 0x00, 0x00, 0x00, 0x00, 0x06, 0x00,
0x08, 0x00, 0x04, 0x00, 0x06, 0x00, 0x00, 0x00, 0x00, 0x00, 0x80, 0x3f, 0x01, 0x00, 0x00, 0x00,
0x10, 0x00, 0x00, 0x00, 0x01, 0x00, 0x00, 0x00, 0x0f, 0x00, 0x00, 0x00, 0x0a, 0xff, 0xff, 0xff,
0x14, 0x00, 0x00, 0x00, 0x00, 0x00, 0x00, 0x08, 0x10, 0x00, 0x00, 0x00, 0x14, 0x00, 0x00, 0x00,
0x04, 0x00, 0x00, 0x00, 0x10, 0xf4, 0xff, 0xff, 0x01, 0x00, 0x00, 0x00, 0x0f, 0x00, 0x00, 0x00,
0x03, 0x00, 0x00, 0x00, 0x0e, 0x00, 0x00, 0x00, 0x06, 0x00, 0x00, 0x00, 0x05, 0x00, 0x00, 0x00,
0x3e, 0xff, 0xff, 0xff, 0x14, 0x00, 0x00, 0x00, 0x00, 0x00, 0x00, 0x1b, 0x10, 0x00, 0x00, 0x00,
0x14, 0x00, 0x00, 0x00, 0x03, 0x00, 0x00, 0x00, 0x44, 0xf4, 0xff, 0xff, 0x01, 0x00, 0x00, 0x00,
0x0e, 0x00, 0x00, 0x00, 0x02, 0x00, 0x00, 0x00, 0x0d, 0x00, 0x00, 0x00, 0x04, 0x00, 0x00, 0x00,
0x12, 0xff, 0xff, 0xff, 0x08, 0x00, 0x00, 0x00, 0x0c, 0x00, 0x00, 0x00, 0x01, 0x00, 0x00, 0x00,
0x0d, 0x00, 0x00, 0x00, 0x02, 0x00, 0x00, 0x00, 0x0c, 0x00, 0x00, 0x00, 0x03, 0x00, 0x00, 0x00,
0x8e, 0xff, 0xff, 0xff, 0x24, 0x00, 0x00, 0x00, 0x00, 0x00, 0x00, 0x05, 0x34, 0x00, 0x00, 0x00,
0x38, 0x00, 0x00, 0x00, 0x02, 0x00, 0x00, 0x00, 0x00, 0x00, 0x0e, 0x00, 0x18, 0x00, 0x17, 0x00,
0x10, 0x00, 0x0c, 0x00, 0x08, 0x00, 0x04, 0x00, 0x0e, 0x00, 0x00, 0x00, 0x02, 0x00, 0x00, 0x00,
0x01, 0x00, 0x00, 0x00, 0x02, 0x00, 0x00, 0x00, 0x01, 0x00, 0x00, 0x00, 0x00, 0x00, 0x00, 0x01,
0x01, 0x00, 0x00, 0x00, 0x0c, 0x00, 0x00, 0x00, 0x01, 0x00, 0x00, 0x00, 0x0b, 0x00, 0x00, 0x00,
0x82, 0xff, 0xff, 0xff, 0x08, 0x00, 0x00, 0x00, 0x0c, 0x00, 0x00, 0x00, 0x01, 0x00, 0x00, 0x00,
0x0b, 0x00, 0x00, 0x00, 0x02, 0x00, 0x00, 0x00, 0x0a, 0x00, 0x00, 0x00, 0x02, 0x00, 0x00, 0x00,
0x00, 0x00, 0x0e, 0x00, 0x18, 0x00, 0x14, 0x00, 0x10, 0x00, 0x0c, 0x00, 0x0b, 0x00, 0x04, 0x00,
0x0e, 0x00, 0x00, 0x00, 0x20, 0x00, 0x00, 0x00, 0x00, 0x00, 0x00, 0x01, 0x28, 0x00, 0x00, 0x00,
0x2c, 0x00, 0x00, 0x00, 0x01, 0x00, 0x00, 0x00, 0x0c, 0x00, 0x10, 0x00, 0x00, 0x00, 0x0c, 0x00,
0x08, 0x00, 0x07, 0x00, 0x0c, 0x00, 0x00, 0x00, 0x00, 0x00, 0x00, 0x01, 0x01, 0x00, 0x00, 0x00,
0x02, 0x00, 0x00, 0x00, 0x01, 0x00, 0x00, 0x00, 0x0a, 0x00, 0x00, 0x00, 0x03, 0x00, 0x00, 0x00,
0x09, 0x00, 0x00, 0x00, 0x08, 0x00, 0x00, 0x00, 0x07, 0x00, 0x00, 0x00, 0x00, 0x00, 0x0a, 0x00,
0x0c, 0x00, 0x00, 0x00, 0x08, 0x00, 0x04, 0x00, 0x0a, 0x00, 0x00, 0x00, 0x08, 0x00, 0x00, 0x00,
0x0c, 0x00, 0x00, 0x00, 0x01, 0x00, 0x00, 0x00, 0x09, 0x00, 0x00, 0x00, 0x02, 0x00, 0x00, 0x00,
0x00, 0x00, 0x00, 0x00, 0x01, 0x00, 0x00, 0x00, 0x01, 0x00, 0x00, 0x00, 0x10, 0x00, 0x00, 0x00,
0x01, 0x00, 0x00, 0x00, 0x00, 0x00, 0x00, 0x00, 0x11, 0x00, 0x00, 0x00, 0xd8, 0x0a, 0x00, 0x00,
0x5c, 0x0a, 0x00, 0x00, 0xfc, 0x09, 0x00, 0x00, 0xa0, 0x09, 0x00, 0x00, 0x38, 0x09, 0x00, 0x00,
0xb0, 0x08, 0x00, 0x00, 0x34, 0x08, 0x00, 0x00, 0x30, 0x07, 0x00, 0x00, 0x84, 0x05, 0x00, 0x00,
0xf0, 0x04, 0x00, 0x00, 0x2c, 0x03, 0x00, 0x00, 0xa0, 0x02, 0x00, 0x00, 0x1c, 0x02, 0x00, 0x00,
0x98, 0x01, 0x00, 0x00, 0x1c, 0x01, 0x00, 0x00, 0x70, 0x00, 0x00, 0x00, 0x04, 0x00, 0x00, 0x00,
0x7a, 0xf5, 0xff, 0xff, 0x14, 0x00, 0x00, 0x00, 0x34, 0x00, 0x00, 0x00, 0x11, 0x00, 0x00, 0x00,
0x00, 0x00, 0x00, 0x09, 0x48, 0x00, 0x00, 0x00, 0x6c, 0xf5, 0xff, 0xff, 0x08, 0x00, 0x00, 0x00,
0x14, 0x00, 0x00, 0x00, 0x01, 0x00, 0x00, 0x00, 0x80, 0xff, 0xff, 0xff, 0xff, 0xff, 0xff, 0xff,
0x00, 0x00, 0x00, 0x00, 0x01, 0x00, 0x00, 0x00, 0x00, 0x00, 0x80, 0x3b, 0x19, 0x00, 0x00, 0x00,
0x53, 0x74, 0x61, 0x74, 0x65, 0x66, 0x75, 0x6c, 0x50, 0x61, 0x72, 0x74, 0x69, 0x74, 0x69, 0x6f,
0x6e, 0x65, 0x64, 0x43, 0x61, 0x6c, 0x6c, 0x3a, 0x30, 0x00, 0x00, 0x00, 0x02, 0x00, 0x00, 0x00,
0x01, 0x00, 0x00, 0x00, 0x02, 0x00, 0x00, 0x00, 0xe2, 0xf5, 0xff, 0xff, 0x14, 0x00, 0x00, 0x00,
0x30, 0x00, 0x00, 0x00, 0x10, 0x00, 0x00, 0x00, 0x00, 0x00, 0x00, 0x09, 0x88, 0x00, 0x00, 0x00,
0xd4, 0xf5, 0xff, 0xff, 0x08, 0x00, 0x00, 0x00, 0x10, 0x00, 0x00, 0x00, 0x01, 0x00, 0x00, 0x00,
0xf1, 0xff, 0xff, 0xff, 0xff, 0xff, 0xff, 0xff, 0x01, 0x00, 0x00, 0x00, 0x77, 0x2f, 0xd6, 0x3d,
0x5e, 0x00, 0x00, 0x00, 0x6d, 0x6f, 0x64, 0x65, 0x6c, 0x5f, 0x31, 0x2f, 0x63, 0x6f, 0x6e, 0x76,
0x31, 0x64, 0x2d, 0x73, 0x6d, 0x61, 0x6c, 0x6c, 0x2d, 0x62, 0x61, 0x6c, 0x61, 0x6e, 0x63, 0x65,
0x64, 0x2d, 0x30, 0x2f, 0x6c, 0x61, 0x79, 0x65, 0x72, 0x5f, 0x35, 0x2f, 0x4d, 0x61, 0x74, 0x4d,
0x75, 0x6c, 0x3b, 0x6d, 0x6f, 0x64, 0x65, 0x6c, 0x5f, 0x31, 0x2f, 0x63, 0x6f, 0x6e, 0x76, 0x31,
0x64, 0x2d, 0x73, 0x6d, 0x61, 0x6c, 0x6c, 0x2d, 0x62, 0x61, 0x6c, 0x61, 0x6e, 0x63, 0x65, 0x64,
0x2d, 0x30, 0x2f, 0x6c, 0x61, 0x79, 0x65, 0x72, 0x5f, 0x35, 0x2f, 0x42, 0x69, 0x61, 0x73, 0x41,
0x64, 0x64, 0x00, 0x00, 0x02, 0x00, 0x00, 0x00, 0x01, 0x00, 0x00, 0x00, 0x02, 0x00, 0x00, 0x00,
0x8a, 0xf6, 0xff, 0xff, 0x14, 0x00, 0x00, 0x00, 0x30, 0x00, 0x00, 0x00, 0x0f, 0x00, 0x00, 0x00,
0x00, 0x00, 0x00, 0x09, 0x58, 0x00, 0x00, 0x00, 0x7c, 0xf6, 0xff, 0xff, 0x08, 0x00, 0x00, 0x00,
0x10, 0x00, 0x00, 0x00, 0x01, 0x00, 0x00, 0x00, 0x80, 0xff, 0xff, 0xff, 0xff, 0xff, 0xff, 0xff,
0x01, 0x00, 0x00, 0x00, 0xc8, 0x53, 0x75, 0x3c, 0x2c, 0x00, 0x00, 0x00, 0x6d, 0x6f, 0x64, 0x65,
0x6c, 0x5f, 0x31, 0x2f, 0x63, 0x6f, 0x6e, 0x76, 0x31, 0x64, 0x2d, 0x73, 0x6d, 0x61, 0x6c, 0x6c,
0x2d, 0x62, 0x61, 0x6c, 0x61, 0x6e, 0x63, 0x65, 0x64, 0x2d, 0x30, 0x2f, 0x6c, 0x61, 0x79, 0x65,
0x72, 0x5f, 0x34, 0x2f, 0x4d, 0x65, 0x61, 0x6e, 0x00, 0x00, 0x00, 0x00, 0x02, 0x00, 0x00, 0x00,
0x01, 0x00, 0x00, 0x00, 0x0c, 0x00, 0x00, 0x00, 0x02, 0xf7, 0xff, 0xff, 0x14, 0x00, 0x00, 0x00,
0x30, 0x00, 0x00, 0x00, 0x0e, 0x00, 0x00, 0x00, 0x00, 0x00, 0x00, 0x09, 0x5c, 0x00, 0x00, 0x00,
0xf4, 0xf6, 0xff, 0xff, 0x08, 0x00, 0x00, 0x00, 0x10, 0x00, 0x00, 0x00, 0x01, 0x00, 0x00, 0x00,
0x80, 0xff, 0xff, 0xff, 0xff, 0xff, 0xff, 0xff, 0x01, 0x00, 0x00, 0x00, 0xa3, 0xc5, 0x2e, 0x3d,
0x30, 0x00, 0x00, 0x00, 0x6d, 0x6f, 0x64, 0x65, 0x6c, 0x5f, 0x31, 0x2f, 0x63, 0x6f, 0x6e, 0x76,
0x31, 0x64, 0x2d, 0x73, 0x6d, 0x61, 0x6c, 0x6c, 0x2d, 0x62, 0x61, 0x6c, 0x61, 0x6e, 0x63, 0x65,
0x64, 0x2d, 0x30, 0x2f, 0x6c, 0x61, 0x79, 0x65, 0x72, 0x5f, 0x33, 0x2f, 0x53, 0x71, 0x75, 0x65,
0x65, 0x7a, 0x65, 0x31, 0x00, 0x00, 0x00, 0x00, 0x03, 0x00, 0x00, 0x00, 0x01, 0x00, 0x00, 0x00,
0x06, 0x00, 0x00, 0x00, 0x0c, 0x00, 0x00, 0x00, 0x82, 0xf7, 0xff, 0xff, 0x14, 0x00, 0x00, 0x00,
0x30, 0x00, 0x00, 0x00, 0x0d, 0x00, 0x00, 0x00, 0x00, 0x00, 0x00, 0x09, 0x58, 0x00, 0x00, 0x00,
0x74, 0xf7, 0xff, 0xff, 0x08, 0x00, 0x00, 0x00, 0x10, 0x00, 0x00, 0x00, 0x01, 0x00, 0x00, 0x00,
0x80, 0xff, 0xff, 0xff, 0xff, 0xff, 0xff, 0xff, 0x01, 0x00, 0x00, 0x00, 0xa3, 0xc5, 0x2e, 0x3d,
0x2f, 0x00, 0x00, 0x00, 0x6d, 0x6f, 0x64, 0x65, 0x6c, 0x5f, 0x31, 0x2f, 0x63, 0x6f, 0x6e, 0x76,
0x31, 0x64, 0x2d, 0x73, 0x6d, 0x61, 0x6c, 0x6c, 0x2d, 0x62, 0x61, 0x6c, 0x61, 0x6e, 0x63, 0x65,
0x64, 0x2d, 0x30, 0x2f, 0x6c, 0x61, 0x79, 0x65, 0x72, 0x5f, 0x33, 0x2f, 0x4d, 0x61, 0x78, 0x50,
0x6f, 0x6f, 0x6c, 0x00, 0x04, 0x00, 0x00, 0x00, 0x01, 0x00, 0x00, 0x00, 0x06, 0x00, 0x00, 0x00,
0x01, 0x00, 0x00, 0x00, 0x0c, 0x00, 0x00, 0x00, 0x02, 0xf8, 0xff, 0xff, 0x14, 0x00, 0x00, 0x00,
0x34, 0x00, 0x00, 0x00, 0x0c, 0x00, 0x00, 0x00, 0x00, 0x00, 0x00, 0x09, 0x60, 0x00, 0x00, 0x00,
0xf4, 0xf7, 0xff, 0xff, 0x08, 0x00, 0x00, 0x00, 0x14, 0x00, 0x00, 0x00, 0x01, 0x00, 0x00, 0x00,
0x80, 0xff, 0xff, 0xff, 0xff, 0xff, 0xff, 0xff, 0x00, 0x00, 0x00, 0x00, 0x01, 0x00, 0x00, 0x00,
0xa3, 0xc5, 0x2e, 0x3d, 0x33, 0x00, 0x00, 0x00, 0x6d, 0x6f, 0x64, 0x65, 0x6c, 0x5f, 0x31, 0x2f,
0x63, 0x6f, 0x6e, 0x76, 0x31, 0x64, 0x2d, 0x73, 0x6d, 0x61, 0x6c, 0x6c, 0x2d, 0x62, 0x61, 0x6c,
0x61, 0x6e, 0x63, 0x65, 0x64, 0x2d, 0x30, 0x2f, 0x6c, 0x61, 0x79, 0x65, 0x72, 0x5f, 0x33, 0x2f,
0x45, 0x78, 0x70, 0x61, 0x6e, 0x64, 0x44, 0x69, 0x6d, 0x73, 0x31, 0x00, 0x04, 0x00, 0x00, 0x00,
0x01, 0x00, 0x00, 0x00, 0x0c, 0x00, 0x00, 0x00, 0x01, 0x00, 0x00, 0x00, 0x0c, 0x00, 0x00, 0x00,
0x8a, 0xf8, 0xff, 0xff, 0x14, 0x00, 0x00, 0x00, 0x30, 0x00, 0x00, 0x00, 0x0b, 0x00, 0x00, 0x00,
0x00, 0x00, 0x00, 0x09, 0x98, 0x01, 0x00, 0x00, 0x7c, 0xf8, 0xff, 0xff, 0x08, 0x00, 0x00, 0x00,
0x10, 0x00, 0x00, 0x00, 0x01, 0x00, 0x00, 0x00, 0x80, 0xff, 0xff, 0xff, 0xff, 0xff, 0xff, 0xff,
0x01, 0x00, 0x00, 0x00, 0xa3, 0xc5, 0x2e, 0x3d, 0x6e, 0x01, 0x00, 0x00, 0x6d, 0x6f, 0x64, 0x65,
0x6c, 0x5f, 0x31, 0x2f, 0x63, 0x6f, 0x6e, 0x76, 0x31, 0x64, 0x2d, 0x73, 0x6d, 0x61, 0x6c, 0x6c,
0x2d, 0x62, 0x61, 0x6c, 0x61, 0x6e, 0x63, 0x65, 0x64, 0x2d, 0x30, 0x2f, 0x6c, 0x61, 0x79, 0x65,
0x72, 0x5f, 0x32, 0x2f, 0x52, 0x65, 0x6c, 0x75, 0x3b, 0x6d, 0x6f, 0x64, 0x65, 0x6c, 0x5f, 0x31,
0x2f, 0x63, 0x6f, 0x6e, 0x76, 0x31, 0x64, 0x2d, 0x73, 0x6d, 0x61, 0x6c, 0x6c, 0x2d, 0x62, 0x61,
0x6c, 0x61, 0x6e, 0x63, 0x65, 0x64, 0x2d, 0x30, 0x2f, 0x6c, 0x61, 0x79, 0x65, 0x72, 0x5f, 0x31,
0x2f, 0x62, 0x61, 0x74, 0x63, 0x68, 0x6e, 0x6f, 0x72, 0x6d, 0x2f, 0x61, 0x64, 0x64, 0x5f, 0x31,
0x3b, 0x6d, 0x6f, 0x64, 0x65, 0x6c, 0x5f, 0x31, 0x2f, 0x63, 0x6f, 0x6e, 0x76, 0x31, 0x64, 0x2d,
0x73, 0x6d, 0x61, 0x6c, 0x6c, 0x2d, 0x62, 0x61, 0x6c, 0x61, 0x6e, 0x63, 0x65, 0x64, 0x2d, 0x30,
0x2f, 0x6c, 0x61, 0x79, 0x65, 0x72, 0x5f, 0x30, 0x2f, 0x43, 0x6f, 0x6e, 0x76, 0x31, 0x44, 0x2f,
0x53, 0x71, 0x75, 0x65, 0x65, 0x7a, 0x65, 0x3b, 0x6d, 0x6f, 0x64, 0x65, 0x6c, 0x5f, 0x31, 0x2f,
0x63, 0x6f, 0x6e, 0x76, 0x31, 0x64, 0x2d, 0x73, 0x6d, 0x61, 0x6c, 0x6c, 0x2d, 0x62, 0x61, 0x6c,
0x61, 0x6e, 0x63, 0x65, 0x64, 0x2d, 0x30, 0x2f, 0x6c, 0x61, 0x79, 0x65, 0x72, 0x5f, 0x31, 0x2f,
0x62, 0x61, 0x74, 0x63, 0x68, 0x6e, 0x6f, 0x72, 0x6d, 0x2f, 0x6d, 0x75, 0x6c, 0x5f, 0x31, 0x3b,
0x6d, 0x6f, 0x64, 0x65, 0x6c, 0x5f, 0x31, 0x2f, 0x63, 0x6f, 0x6e, 0x76, 0x31, 0x64, 0x2d, 0x73,
0x6d, 0x61, 0x6c, 0x6c, 0x2d, 0x62, 0x61, 0x6c, 0x61, 0x6e, 0x63, 0x65, 0x64, 0x2d, 0x30, 0x2f,
0x6c, 0x61, 0x79, 0x65, 0x72, 0x5f, 0x31, 0x2f, 0x62, 0x61, 0x74, 0x63, 0x68, 0x6e, 0x6f, 0x72,
0x6d, 0x2f, 0x6d, 0x75, 0x6c, 0x3b, 0x6d, 0x6f, 0x64, 0x65, 0x6c, 0x5f, 0x31, 0x2f, 0x63, 0x6f,
0x6e, 0x76, 0x31, 0x64, 0x2d, 0x73, 0x6d, 0x61, 0x6c, 0x6c, 0x2d, 0x62, 0x61, 0x6c, 0x61, 0x6e,
0x63, 0x65, 0x64, 0x2d, 0x30, 0x2f, 0x6c, 0x61, 0x79, 0x65, 0x72, 0x5f, 0x31, 0x2f, 0x62, 0x61,
0x74, 0x63, 0x68, 0x6e, 0x6f, 0x72, 0x6d, 0x2f, 0x73, 0x75, 0x62, 0x3b, 0x6d, 0x6f, 0x64, 0x65,
0x6c, 0x5f, 0x31, 0x2f, 0x63, 0x6f, 0x6e, 0x76, 0x31, 0x64, 0x2d, 0x73, 0x6d, 0x61, 0x6c, 0x6c,
0x2d, 0x62, 0x61, 0x6c, 0x61, 0x6e, 0x63, 0x65, 0x64, 0x2d, 0x30, 0x2f, 0x6c, 0x61, 0x79, 0x65,
0x72, 0x5f, 0x30, 0x2f, 0x43, 0x6f, 0x6e, 0x76, 0x31, 0x44, 0x00, 0x00, 0x04, 0x00, 0x00, 0x00,
0x01, 0x00, 0x00, 0x00, 0x01, 0x00, 0x00, 0x00, 0x0c, 0x00, 0x00, 0x00, 0x0c, 0x00, 0x00, 0x00,
0x4a, 0xfa, 0xff, 0xff, 0x14, 0x00, 0x00, 0x00, 0x34, 0x00, 0x00, 0x00, 0x0a, 0x00, 0x00, 0x00,
0x00, 0x00, 0x00, 0x09, 0x68, 0x00, 0x00, 0x00, 0x3c, 0xfa, 0xff, 0xff, 0x08, 0x00, 0x00, 0x00,
0x14, 0x00, 0x00, 0x00, 0x01, 0x00, 0x00, 0x00, 0x80, 0xff, 0xff, 0xff, 0xff, 0xff, 0xff, 0xff,
0x00, 0x00, 0x00, 0x00, 0x01, 0x00, 0x00, 0x00, 0xfd, 0xfc, 0xbc, 0x40, 0x3a, 0x00, 0x00, 0x00,
0x6d, 0x6f, 0x64, 0x65, 0x6c, 0x5f, 0x31, 0x2f, 0x63, 0x6f, 0x6e, 0x76, 0x31, 0x64, 0x2d, 0x73,
0x6d, 0x61, 0x6c, 0x6c, 0x2d, 0x62, 0x61, 0x6c, 0x61, 0x6e, 0x63, 0x65, 0x64, 0x2d, 0x30, 0x2f,
0x6c, 0x61, 0x79, 0x65, 0x72, 0x5f, 0x30, 0x2f, 0x43, 0x6f, 0x6e, 0x76, 0x31, 0x44, 0x2f, 0x45,
0x78, 0x70, 0x61, 0x6e, 0x64, 0x44, 0x69, 0x6d, 0x73, 0x31, 0x00, 0x00, 0x04, 0x00, 0x00, 0x00,
0x01, 0x00, 0x00, 0x00, 0x01, 0x00, 0x00, 0x00, 0x18, 0x00, 0x00, 0x00, 0x03, 0x00, 0x00, 0x00,
0xda, 0xfa, 0xff, 0xff, 0x14, 0x00, 0x00, 0x00, 0xb4, 0x00, 0x00, 0x00, 0x09, 0x00, 0x00, 0x00,
0x00, 0x00, 0x00, 0x09, 0x80, 0x01, 0x00, 0x00, 0xcc, 0xfa, 0xff, 0xff, 0x08, 0x00, 0x00, 0x00,
0x68, 0x00, 0x00, 0x00, 0x0c, 0x00, 0x00, 0x00, 0x00, 0x00, 0x00, 0x00, 0x00, 0x00, 0x00, 0x00,
0x00, 0x00, 0x00, 0x00, 0x00, 0x00, 0x00, 0x00, 0x00, 0x00, 0x00, 0x00, 0x00, 0x00, 0x00, 0x00,
0x00, 0x00, 0x00, 0x00, 0x00, 0x00, 0x00, 0x00, 0x00, 0x00, 0x00, 0x00, 0x00, 0x00, 0x00, 0x00,
0x00, 0x00, 0x00, 0x00, 0x00, 0x00, 0x00, 0x00, 0x00, 0x00, 0x00, 0x00, 0x00, 0x00, 0x00, 0x00,
0x00, 0x00, 0x00, 0x00, 0x00, 0x00, 0x00, 0x00, 0x00, 0x00, 0x00, 0x00, 0x00, 0x00, 0x00, 0x00,
0x00, 0x00, 0x00, 0x00, 0x00, 0x00, 0x00, 0x00, 0x00, 0x00, 0x00, 0x00, 0x00, 0x00, 0x00, 0x00,
0x00, 0x00, 0x00, 0x00, 0x00, 0x00, 0x00, 0x00, 0x0c, 0x00, 0x00, 0x00, 0xae, 0xb6, 0x91, 0x39,
0x27, 0x5e, 0x15, 0x39, 0x48, 0x59, 0x3e, 0x39, 0x5c, 0x22, 0xbf, 0x39, 0x5b, 0x6d, 0x2d, 0x38,
0x5f, 0xf4, 0x53, 0x38, 0x5d, 0x88, 0x8a, 0x38, 0xd2, 0x1f, 0x5b, 0x38, 0xb3, 0xae, 0x00, 0x38,
0x97, 0xa4, 0x09, 0x39, 0xea, 0x62, 0xad, 0x38, 0x3e, 0xda, 0xb1, 0x37, 0xd3, 0x00, 0x00, 0x00,
0x6d, 0x6f, 0x64, 0x65, 0x6c, 0x5f, 0x31, 0x2f, 0x63, 0x6f, 0x6e, 0x76, 0x31, 0x64, 0x2d, 0x73,
0x6d, 0x61, 0x6c, 0x6c, 0x2d, 0x62, 0x61, 0x6c, 0x61, 0x6e, 0x63, 0x65, 0x64, 0x2d, 0x30, 0x2f,
0x6c, 0x61, 0x79, 0x65, 0x72, 0x5f, 0x31, 0x2f, 0x62, 0x61, 0x74, 0x63, 0x68, 0x6e, 0x6f, 0x72,
0x6d, 0x2f, 0x6d, 0x75, 0x6c, 0x5f, 0x31, 0x3b, 0x6d, 0x6f, 0x64, 0x65, 0x6c, 0x5f, 0x31, 0x2f,
0x63, 0x6f, 0x6e, 0x76, 0x31, 0x64, 0x2d, 0x73, 0x6d, 0x61, 0x6c, 0x6c, 0x2d, 0x62, 0x61, 0x6c,
0x61, 0x6e, 0x63, 0x65, 0x64, 0x2d, 0x30, 0x2f, 0x6c, 0x61, 0x79, 0x65, 0x72, 0x5f, 0x30, 0x2f,
0x43, 0x6f, 0x6e, 0x76, 0x31, 0x44, 0x2f, 0x53, 0x71, 0x75, 0x65, 0x65, 0x7a, 0x65, 0x3b, 0x6d,
0x6f, 0x64, 0x65, 0x6c, 0x5f, 0x31, 0x2f, 0x63, 0x6f, 0x6e, 0x76, 0x31, 0x64, 0x2d, 0x73, 0x6d,
0x61, 0x6c, 0x6c, 0x2d, 0x62, 0x61, 0x6c, 0x61, 0x6e, 0x63, 0x65, 0x64, 0x2d, 0x30, 0x2f, 0x6c,
0x61, 0x79, 0x65, 0x72, 0x5f, 0x31, 0x2f, 0x62, 0x61, 0x74, 0x63, 0x68, 0x6e, 0x6f, 0x72, 0x6d,
0x2f, 0x6d, 0x75, 0x6c, 0x3b, 0x6d, 0x6f, 0x64, 0x65, 0x6c, 0x5f, 0x31, 0x2f, 0x63, 0x6f, 0x6e,
0x76, 0x31, 0x64, 0x2d, 0x73, 0x6d, 0x61, 0x6c, 0x6c, 0x2d, 0x62, 0x61, 0x6c, 0x61, 0x6e, 0x63,
0x65, 0x64, 0x2d, 0x30, 0x2f, 0x6c, 0x61, 0x79, 0x65, 0x72, 0x5f, 0x30, 0x2f, 0x43, 0x6f, 0x6e,
0x76, 0x31, 0x44, 0x00, 0x04, 0x00, 0x00, 0x00, 0x0c, 0x00, 0x00, 0x00, 0x01, 0x00, 0x00, 0x00,
0x03, 0x00, 0x00, 0x00, 0x03, 0x00, 0x00, 0x00, 0x82, 0xfc, 0xff, 0xff, 0x14, 0x00, 0x00, 0x00,
0xb4, 0x00, 0x00, 0x00, 0x08, 0x00, 0x00, 0x00, 0x00, 0x00, 0x00, 0x02, 0xe4, 0x00, 0x00, 0x00,
0x74, 0xfc, 0xff, 0xff, 0x08, 0x00, 0x00, 0x00, 0x68, 0x00, 0x00, 0x00, 0x0c, 0x00, 0x00, 0x00,
0x00, 0x00, 0x00, 0x00, 0x00, 0x00, 0x00, 0x00, 0x00, 0x00, 0x00, 0x00, 0x00, 0x00, 0x00, 0x00,
0x00, 0x00, 0x00, 0x00, 0x00, 0x00, 0x00, 0x00, 0x00, 0x00, 0x00, 0x00, 0x00, 0x00, 0x00, 0x00,
0x00, 0x00, 0x00, 0x00, 0x00, 0x00, 0x00, 0x00, 0x00, 0x00, 0x00, 0x00, 0x00, 0x00, 0x00, 0x00,
0x00, 0x00, 0x00, 0x00, 0x00, 0x00, 0x00, 0x00, 0x00, 0x00, 0x00, 0x00, 0x00, 0x00, 0x00, 0x00,
0x00, 0x00, 0x00, 0x00, 0x00, 0x00, 0x00, 0x00, 0x00, 0x00, 0x00, 0x00, 0x00, 0x00, 0x00, 0x00,
0x00, 0x00, 0x00, 0x00, 0x00, 0x00, 0x00, 0x00, 0x00, 0x00, 0x00, 0x00, 0x00, 0x00, 0x00, 0x00,
0x0c, 0x00, 0x00, 0x00, 0x4f, 0x24, 0xd7, 0x3a, 0x82, 0x89, 0x5c, 0x3a, 0xad, 0x85, 0x8c, 0x3a,
0x1e, 0x1a, 0x0d, 0x3b, 0xb2, 0x07, 0x80, 0x39, 0xec, 0x78, 0x9c, 0x39, 0x17, 0x8a, 0xcc, 0x39,
0xea, 0xc3, 0xa1, 0x39, 0xed, 0xfe, 0x3d, 0x39, 0xca, 0x39, 0x4b, 0x3a, 0xf9, 0xff, 0xff, 0x39,
0x08, 0x4c, 0x03, 0x39, 0x35, 0x00, 0x00, 0x00, 0x6d, 0x6f, 0x64, 0x65, 0x6c, 0x5f, 0x31, 0x2f,
0x63, 0x6f, 0x6e, 0x76, 0x31, 0x64, 0x2d, 0x73, 0x6d, 0x61, 0x6c, 0x6c, 0x2d, 0x62, 0x61, 0x6c,
0x61, 0x6e, 0x63, 0x65, 0x64, 0x2d, 0x30, 0x2f, 0x6c, 0x61, 0x79, 0x65, 0x72, 0x5f, 0x31, 0x2f,
0x62, 0x61, 0x74, 0x63, 0x68, 0x6e, 0x6f, 0x72, 0x6d, 0x2f, 0x73, 0x75, 0x62, 0x00, 0x00, 0x00,
0x01, 0x00, 0x00, 0x00, 0x0c, 0x00, 0x00, 0x00, 0x82, 0xfd, 0xff, 0xff, 0x14, 0x00, 0x00, 0x00,
0x30, 0x00, 0x00, 0x00, 0x07, 0x00, 0x00, 0x00, 0x00, 0x00, 0x00, 0x09, 0x58, 0x00, 0x00, 0x00,
0x74, 0xfd, 0xff, 0xff, 0x08, 0x00, 0x00, 0x00, 0x10, 0x00, 0x00, 0x00, 0x01, 0x00, 0x00, 0x00,
0x00, 0x00, 0x00, 0x00, 0x00, 0x00, 0x00, 0x00, 0x01, 0x00, 0x00, 0x00, 0x10, 0xe8, 0xa3, 0x3c,
0x2e, 0x00, 0x00, 0x00, 0x6d, 0x6f, 0x64, 0x65, 0x6c, 0x5f, 0x31, 0x2f, 0x63, 0x6f, 0x6e, 0x76,
0x31, 0x64, 0x2d, 0x73, 0x6d, 0x61, 0x6c, 0x6c, 0x2d, 0x62, 0x61, 0x6c, 0x61, 0x6e, 0x63, 0x65,
0x64, 0x2d, 0x30, 0x2f, 0x6c, 0x61, 0x79, 0x65, 0x72, 0x5f, 0x35, 0x2f, 0x4d, 0x61, 0x74, 0x4d,
0x75, 0x6c, 0x00, 0x00, 0x02, 0x00, 0x00, 0x00, 0x02, 0x00, 0x00, 0x00, 0x0c, 0x00, 0x00, 0x00,
0xfa, 0xfd, 0xff, 0xff, 0x14, 0x00, 0x00, 0x00, 0x30, 0x00, 0x00, 0x00, 0x06, 0x00, 0x00, 0x00,
0x00, 0x00, 0x00, 0x02, 0x68, 0x00, 0x00, 0x00, 0xec, 0xfd, 0xff, 0xff, 0x08, 0x00, 0x00, 0x00,
0x10, 0x00, 0x00, 0x00, 0x01, 0x00, 0x00, 0x00, 0x00, 0x00, 0x00, 0x00, 0x00, 0x00, 0x00, 0x00,
0x01, 0x00, 0x00, 0x00, 0xbc, 0x12, 0x9d, 0x39, 0x3e, 0x00, 0x00, 0x00, 0x6d, 0x6f, 0x64, 0x65,
0x6c, 0x5f, 0x31, 0x2f, 0x63, 0x6f, 0x6e, 0x76, 0x31, 0x64, 0x2d, 0x73, 0x6d, 0x61, 0x6c, 0x6c,
0x2d, 0x62, 0x61, 0x6c, 0x61, 0x6e, 0x63, 0x65, 0x64, 0x2d, 0x30, 0x2f, 0x6c, 0x61, 0x79, 0x65,
0x72, 0x5f, 0x35, 0x2f, 0x42, 0x69, 0x61, 0x73, 0x41, 0x64, 0x64, 0x2f, 0x52, 0x65, 0x61, 0x64,
0x56, 0x61, 0x72, 0x69, 0x61, 0x62, 0x6c, 0x65, 0x4f, 0x70, 0x00, 0x00, 0x01, 0x00, 0x00, 0x00,
0x02, 0x00, 0x00, 0x00, 0x7e, 0xfe, 0xff, 0xff, 0x14, 0x00, 0x00, 0x00, 0x14, 0x00, 0x00, 0x00,
0x05, 0x00, 0x00, 0x00, 0x00, 0x00, 0x00, 0x02, 0x4c, 0x00, 0x00, 0x00, 0xe8, 0xfe, 0xff, 0xff,
0x3e, 0x00, 0x00, 0x00, 0x6d, 0x6f, 0x64, 0x65, 0x6c, 0x5f, 0x31, 0x2f, 0x63, 0x6f, 0x6e, 0x76,
0x31, 0x64, 0x2d, 0x73, 0x6d, 0x61, 0x6c, 0x6c, 0x2d, 0x62, 0x61, 0x6c, 0x61, 0x6e, 0x63, 0x65,
0x64, 0x2d, 0x30, 0x2f, 0x6c, 0x61, 0x79, 0x65, 0x72, 0x5f, 0x34, 0x2f, 0x4d, 0x65, 0x61, 0x6e,
0x2f, 0x72, 0x65, 0x64, 0x75, 0x63, 0x74, 0x69, 0x6f, 0x6e, 0x5f, 0x69, 0x6e, 0x64, 0x69, 0x63,
0x65, 0x73, 0x00, 0x00, 0x00, 0x00, 0x00, 0x00, 0xe2, 0xfe, 0xff, 0xff, 0x14, 0x00, 0x00, 0x00,
0x14, 0x00, 0x00, 0x00, 0x04, 0x00, 0x00, 0x00, 0x00, 0x00, 0x00, 0x02, 0x3c, 0x00, 0x00, 0x00,
0x4c, 0xff, 0xff, 0xff, 0x2f, 0x00, 0x00, 0x00, 0x6d, 0x6f, 0x64, 0x65, 0x6c, 0x5f, 0x31, 0x2f,
0x63, 0x6f, 0x6e, 0x76, 0x31, 0x64, 0x2d, 0x73, 0x6d, 0x61, 0x6c, 0x6c, 0x2d, 0x62, 0x61, 0x6c,
0x61, 0x6e, 0x63, 0x65, 0x64, 0x2d, 0x30, 0x2f, 0x6c, 0x61, 0x79, 0x65, 0x72, 0x5f, 0x33, 0x2f,
0x53, 0x71, 0x75, 0x65, 0x65, 0x7a, 0x65, 0x00, 0x01, 0x00, 0x00, 0x00, 0x03, 0x00, 0x00, 0x00,
0x3a, 0xff, 0xff, 0xff, 0x14, 0x00, 0x00, 0x00, 0x14, 0x00, 0x00, 0x00, 0x03, 0x00, 0x00, 0x00,
0x00, 0x00, 0x00, 0x02, 0x40, 0x00, 0x00, 0x00, 0xa4, 0xff, 0xff, 0xff, 0x32, 0x00, 0x00, 0x00,
0x6d, 0x6f, 0x64, 0x65, 0x6c, 0x5f, 0x31, 0x2f, 0x63, 0x6f, 0x6e, 0x76, 0x31, 0x64, 0x2d, 0x73,
0x6d, 0x61, 0x6c, 0x6c, 0x2d, 0x62, 0x61, 0x6c, 0x61, 0x6e, 0x63, 0x65, 0x64, 0x2d, 0x30, 0x2f,
0x6c, 0x61, 0x79, 0x65, 0x72, 0x5f, 0x33, 0x2f, 0x45, 0x78, 0x70, 0x61, 0x6e, 0x64, 0x44, 0x69,
0x6d, 0x73, 0x00, 0x00, 0x01, 0x00, 0x00, 0x00, 0x04, 0x00, 0x00, 0x00, 0x96, 0xff, 0xff, 0xff,
0x18, 0x00, 0x00, 0x00, 0x18, 0x00, 0x00, 0x00, 0x02, 0x00, 0x00, 0x00, 0x00, 0x00, 0x00, 0x02,
0x4c, 0x00, 0x00, 0x00, 0x04, 0x00, 0x04, 0x00, 0x04, 0x00, 0x00, 0x00, 0x39, 0x00, 0x00, 0x00,
0x6d, 0x6f, 0x64, 0x65, 0x6c, 0x5f, 0x31, 0x2f, 0x63, 0x6f, 0x6e, 0x76, 0x31, 0x64, 0x2d, 0x73,
0x6d, 0x61, 0x6c, 0x6c, 0x2d, 0x62, 0x61, 0x6c, 0x61, 0x6e, 0x63, 0x65, 0x64, 0x2d, 0x30, 0x2f,
0x6c, 0x61, 0x79, 0x65, 0x72, 0x5f, 0x30, 0x2f, 0x43, 0x6f, 0x6e, 0x76, 0x31, 0x44, 0x2f, 0x45,
0x78, 0x70, 0x61, 0x6e, 0x64, 0x44, 0x69, 0x6d, 0x73, 0x00, 0x00, 0x00, 0x01, 0x00, 0x00, 0x00,
0x04, 0x00, 0x00, 0x00, 0x00, 0x00, 0x0e, 0x00, 0x18, 0x00, 0x14, 0x00, 0x13, 0x00, 0x0c, 0x00,
0x08, 0x00, 0x04, 0x00, 0x0e, 0x00, 0x00, 0x00, 0x20, 0x00, 0x00, 0x00, 0x40, 0x00, 0x00, 0x00,
0x01, 0x00, 0x00, 0x00, 0x00, 0x00, 0x00, 0x09, 0x54, 0x00, 0x00, 0x00, 0x0c, 0x00, 0x0c, 0x00,
0x00, 0x00, 0x00, 0x00, 0x08, 0x00, 0x04, 0x00, 0x0c, 0x00, 0x00, 0x00, 0x08, 0x00, 0x00, 0x00,
0x14, 0x00, 0x00, 0x00, 0x01, 0x00, 0x00, 0x00, 0x80, 0xff, 0xff, 0xff, 0xff, 0xff, 0xff, 0xff,
0x00, 0x00, 0x00, 0x00, 0x01, 0x00, 0x00, 0x00, 0xfd, 0xfc, 0xbc, 0x40, 0x19, 0x00, 0x00, 0x00,
0x73, 0x65, 0x72, 0x76, 0x69, 0x6e, 0x67, 0x5f, 0x64, 0x65, 0x66, 0x61, 0x75, 0x6c, 0x74, 0x5f,
0x69, 0x6e, 0x70, 0x75, 0x74, 0x5f, 0x32, 0x3a, 0x30, 0x00, 0x00, 0x00, 0x03, 0x00, 0x00, 0x00,
0x01, 0x00, 0x00, 0x00, 0x18, 0x00, 0x00, 0x00, 0x03, 0x00, 0x00, 0x00, 0x06, 0x00, 0x00, 0x00,
0x68, 0x00, 0x00, 0x00, 0x54, 0x00, 0x00, 0x00, 0x3c, 0x00, 0x00, 0x00, 0x2c, 0x00, 0x00, 0x00,
0x14, 0x00, 0x00, 0x00, 0x04, 0x00, 0x00, 0x00, 0xea, 0xff, 0xff, 0xff, 0x02, 0x00, 0x00, 0x00,
0x00, 0x00, 0x00, 0x19, 0xd6, 0xff, 0xff, 0xff, 0x04, 0x00, 0x00, 0x00, 0x00, 0x09, 0x0a, 0x00,
0x0c, 0x00, 0x0b, 0x00, 0x00, 0x00, 0x04, 0x00, 0x0a, 0x00, 0x00, 0x00, 0x02, 0x00, 0x00, 0x00,
0x00, 0x00, 0x00, 0x28, 0xf6, 0xff, 0xff, 0xff, 0x02, 0x00, 0x00, 0x00, 0x00, 0x11, 0x0a, 0x00,
0x0a, 0x00, 0x09, 0x00, 0x00, 0x00, 0x04, 0x00, 0x0a, 0x00, 0x00, 0x00, 0x03, 0x00, 0x00, 0x00,
0x00, 0x03, 0x06, 0x00, 0x08, 0x00, 0x07, 0x00, 0x06, 0x00, 0x00, 0x00, 0x00, 0x00, 0x00, 0x16
};

