/***************************************************************************//**
* \file MODEL_tflm_model_float.c
*
* \brief
* Autogenerated with ml-coretools, this file contains MODEL model data.
* Date: 2024-09-20 13:44:21.874121
*******************************************************************************
* \copyright
* Copyright 2024, Cypress Semiconductor Corporation (an Infineon company).
* All rights reserved.
* You may use this file only in accordance with the license, terms, conditions,
* disclaimers, and limitations in the end user license agreement accompanying
* the software package with which this file was provided.
******************************************************************************/


#include "MODEL_tflm_model_float.h"


#ifdef CY_ML_MODEL_MEM
#include "cy_utils.h"
#define Q(x) #x
#define QUOTE(x) Q(x)
CY_SECTION(QUOTE(CY_ML_MODEL_MEM))
const
#endif

uint8_t MODEL_model_bin[MODEL_MODEL_BIN_LEN] __attribute__((aligned(4))) = {
0x1c, 0x00, 0x00, 0x00, 0x54, 0x46, 0x4c, 0x33, 0x14, 0x00, 0x20, 0x00, 0x1c, 0x00, 0x18, 0x00,
0x14, 0x00, 0x10, 0x00, 0x0c, 0x00, 0x00, 0x00, 0x08, 0x00, 0x04, 0x00, 0x14, 0x00, 0x00, 0x00,
0x1c, 0x00, 0x00, 0x00, 0xa0, 0x00, 0x00, 0x00, 0xf8, 0x00, 0x00, 0x00, 0x54, 0x1e, 0x00, 0x00,
0x64, 0x1e, 0x00, 0x00, 0x08, 0x2f, 0x00, 0x00, 0x03, 0x00, 0x00, 0x00, 0x01, 0x00, 0x00, 0x00,
0x10, 0x00, 0x00, 0x00, 0x00, 0x00, 0x0a, 0x00, 0x10, 0x00, 0x0c, 0x00, 0x08, 0x00, 0x04, 0x00,
0x0a, 0x00, 0x00, 0x00, 0x0c, 0x00, 0x00, 0x00, 0x1c, 0x00, 0x00, 0x00, 0x4c, 0x00, 0x00, 0x00,
0x0f, 0x00, 0x00, 0x00, 0x73, 0x65, 0x72, 0x76, 0x69, 0x6e, 0x67, 0x5f, 0x64, 0x65, 0x66, 0x61,
0x75, 0x6c, 0x74, 0x00, 0x01, 0x00, 0x00, 0x00, 0x04, 0x00, 0x00, 0x00, 0x88, 0xff, 0xff, 0xff,
0x16, 0x00, 0x00, 0x00, 0x04, 0x00, 0x00, 0x00, 0x1b, 0x00, 0x00, 0x00, 0x66, 0x61, 0x6e, 0x2d,
0x61, 0x64, 0x2d, 0x63, 0x6f, 0x6e, 0x76, 0x31, 0x64, 0x2d, 0x73, 0x6d, 0x61, 0x6c, 0x6c, 0x2d,
0x73, 0x70, 0x65, 0x65, 0x64, 0x2d, 0x31, 0x00, 0x01, 0x00, 0x00, 0x00, 0x04, 0x00, 0x00, 0x00,
0x9a, 0xe1, 0xff, 0xff, 0x04, 0x00, 0x00, 0x00, 0x07, 0x00, 0x00, 0x00, 0x69, 0x6e, 0x70, 0x75,
0x74, 0x5f, 0x31, 0x00, 0x02, 0x00, 0x00, 0x00, 0x34, 0x00, 0x00, 0x00, 0x04, 0x00, 0x00, 0x00,
0xdc, 0xff, 0xff, 0xff, 0x19, 0x00, 0x00, 0x00, 0x04, 0x00, 0x00, 0x00, 0x13, 0x00, 0x00, 0x00,
0x43, 0x4f, 0x4e, 0x56, 0x45, 0x52, 0x53, 0x49, 0x4f, 0x4e, 0x5f, 0x4d, 0x45, 0x54, 0x41, 0x44,
0x41, 0x54, 0x41, 0x00, 0x08, 0x00, 0x0c, 0x00, 0x08, 0x00, 0x04, 0x00, 0x08, 0x00, 0x00, 0x00,
0x18, 0x00, 0x00, 0x00, 0x04, 0x00, 0x00, 0x00, 0x13, 0x00, 0x00, 0x00, 0x6d, 0x69, 0x6e, 0x5f,
0x72, 0x75, 0x6e, 0x74, 0x69, 0x6d, 0x65, 0x5f, 0x76, 0x65, 0x72, 0x73, 0x69, 0x6f, 0x6e, 0x00,
0x1a, 0x00, 0x00, 0x00, 0x58, 0x1d, 0x00, 0x00, 0x50, 0x1d, 0x00, 0x00, 0x00, 0x1d, 0x00, 0x00,
0xb0, 0x1c, 0x00, 0x00, 0x60, 0x1a, 0x00, 0x00, 0x10, 0x1a, 0x00, 0x00, 0x00, 0x0e, 0x00, 0x00,
0xe0, 0x0d, 0x00, 0x00, 0xc0, 0x0d, 0x00, 0x00, 0xa4, 0x0d, 0x00, 0x00, 0x94, 0x01, 0x00, 0x00,
0x7c, 0x01, 0x00, 0x00, 0x68, 0x01, 0x00, 0x00, 0xd8, 0x00, 0x00, 0x00, 0xd0, 0x00, 0x00, 0x00,
0xc8, 0x00, 0x00, 0x00, 0xc0, 0x00, 0x00, 0x00, 0xb8, 0x00, 0x00, 0x00, 0xb0, 0x00, 0x00, 0x00,
0xa8, 0x00, 0x00, 0x00, 0xa0, 0x00, 0x00, 0x00, 0x98, 0x00, 0x00, 0x00, 0x90, 0x00, 0x00, 0x00,
0x88, 0x00, 0x00, 0x00, 0x68, 0x00, 0x00, 0x00, 0x04, 0x00, 0x00, 0x00, 0x76, 0xe2, 0xff, 0xff,
0x04, 0x00, 0x00, 0x00, 0x54, 0x00, 0x00, 0x00, 0x0c, 0x00, 0x00, 0x00, 0x08, 0x00, 0x0e, 0x00,
0x08, 0x00, 0x04, 0x00, 0x08, 0x00, 0x00, 0x00, 0x10, 0x00, 0x00, 0x00, 0x24, 0x00, 0x00, 0x00,
0x00, 0x00, 0x06, 0x00, 0x08, 0x00, 0x04, 0x00, 0x06, 0x00, 0x00, 0x00, 0x04, 0x00, 0x00, 0x00,
0x00, 0x00, 0x00, 0x00, 0x00, 0x00, 0x0a, 0x00, 0x10, 0x00, 0x0c, 0x00, 0x08, 0x00, 0x04, 0x00,
0x0a, 0x00, 0x00, 0x00, 0x02, 0x00, 0x00, 0x00, 0x02, 0x00, 0x00, 0x00, 0x04, 0x00, 0x00, 0x00,
0x06, 0x00, 0x00, 0x00, 0x32, 0x2e, 0x31, 0x34, 0x2e, 0x31, 0x00, 0x00, 0xd6, 0xe2, 0xff, 0xff,
0x04, 0x00, 0x00, 0x00, 0x10, 0x00, 0x00, 0x00, 0x31, 0x2e, 0x36, 0x2e, 0x30, 0x00, 0x00, 0x00,
0x00, 0x00, 0x00, 0x00, 0x00, 0x00, 0x00, 0x00, 0x04, 0xd3, 0xff, 0xff, 0x08, 0xd3, 0xff, 0xff,
0x0c, 0xd3, 0xff, 0xff, 0x10, 0xd3, 0xff, 0xff, 0x14, 0xd3, 0xff, 0xff, 0x18, 0xd3, 0xff, 0xff,
0x1c, 0xd3, 0xff, 0xff, 0x20, 0xd3, 0xff, 0xff, 0x24, 0xd3, 0xff, 0xff, 0x28, 0xd3, 0xff, 0xff,
0x1a, 0xe3, 0xff, 0xff, 0x04, 0x00, 0x00, 0x00, 0x80, 0x00, 0x00, 0x00, 0xe8, 0x8e, 0x83, 0xbf,
0xd2, 0xa6, 0x6d, 0xbf, 0x2d, 0x82, 0xf1, 0xbe, 0xb4, 0x28, 0x35, 0x3f, 0x03, 0x49, 0x81, 0x3f,
0x2f, 0x32, 0x6f, 0x3f, 0x9c, 0xb7, 0x41, 0xbf, 0x78, 0x58, 0x3e, 0xbf, 0x1f, 0x6e, 0x9f, 0xbf,
0x86, 0x41, 0x6e, 0x3f, 0xfd, 0x8d, 0x97, 0xbf, 0xb2, 0x74, 0x46, 0xbf, 0x6c, 0x7a, 0x75, 0xbf,
0x90, 0xfb, 0x6b, 0x3f, 0x86, 0x27, 0x5d, 0x3f, 0x3b, 0xbd, 0x9a, 0xbf, 0xa3, 0xce, 0xb4, 0x3e,
0x6e, 0xc9, 0x56, 0x3f, 0x12, 0x7c, 0x9c, 0x3f, 0x4f, 0x6d, 0x67, 0xbf, 0xc5, 0xb1, 0x1b, 0xbf,
0x20, 0x6d, 0x36, 0xbf, 0x4a, 0x9e, 0x6e, 0x3f, 0xd2, 0x8f, 0xff, 0x3e, 0x75, 0x33, 0x29, 0x3f,
0x6d, 0xe3, 0x66, 0xbf, 0xc2, 0x43, 0x7a, 0x3f, 0x5f, 0xac, 0x3f, 0x3f, 0x51, 0x50, 0x70, 0x3f,
0x48, 0x2f, 0x4b, 0xbf, 0x71, 0x2a, 0x3b, 0xbf, 0xec, 0x93, 0x8b, 0x3f, 0xa6, 0xe3, 0xff, 0xff,
0x04, 0x00, 0x00, 0x00, 0x04, 0x00, 0x00, 0x00, 0x01, 0x00, 0x00, 0x00, 0xb6, 0xe3, 0xff, 0xff,
0x04, 0x00, 0x00, 0x00, 0x08, 0x00, 0x00, 0x00, 0xf6, 0x56, 0x3f, 0x3e, 0xf1, 0x56, 0x3f, 0xbe,
0xca, 0xe3, 0xff, 0xff, 0x04, 0x00, 0x00, 0x00, 0x00, 0x0c, 0x00, 0x00, 0x3e, 0x8f, 0x14, 0x3f,
0x6a, 0x67, 0xc2, 0x3d, 0xdd, 0xa0, 0xf6, 0x3d, 0x3d, 0x16, 0x5d, 0x3e, 0x1e, 0x91, 0x17, 0x3e,
0xf5, 0x3f, 0x43, 0x3e, 0x5f, 0xf8, 0x87, 0xbe, 0xef, 0x99, 0xc9, 0xbc, 0x75, 0x3c, 0xbe, 0xbe,
0x02, 0xfa, 0x07, 0x3e, 0xbb, 0x80, 0xda, 0xbe, 0x3e, 0x84, 0x8d, 0xbd, 0x6b, 0xf0, 0xf3, 0xbd,
0x27, 0x64, 0x36, 0xbe, 0x6e, 0x31, 0xe3, 0x3d, 0x4e, 0x28, 0xb1, 0x3d, 0x0b, 0x6a, 0x44, 0x3e,
0xb3, 0x76, 0xa5, 0xbe, 0x7a, 0x3e, 0x26, 0x3d, 0x45, 0xa2, 0xc0, 0xbc, 0x23, 0x9f, 0xd4, 0xbd,
0x42, 0x3b, 0x95, 0x3e, 0x7f, 0x7e, 0xa1, 0xbc, 0xa9, 0x65, 0x89, 0xbe, 0xb7, 0x67, 0xb5, 0x3e,
0x61, 0x3c, 0x7d, 0x3e, 0xdc, 0x32, 0x81, 0x3e, 0xf3, 0x36, 0xbd, 0xbe, 0x98, 0x20, 0x0b, 0x3e,
0x02, 0xfb, 0xae, 0xbe, 0x3f, 0x18, 0x9a, 0xbe, 0x6b, 0x52, 0x67, 0xbe, 0x1d, 0xd4, 0xf6, 0x3d,
0xe8, 0xc9, 0xfa, 0xbd, 0x5c, 0x92, 0xcc, 0xbe, 0xf5, 0xc1, 0x17, 0xbe, 0xb0, 0xaf, 0xb8, 0xbd,
0x60, 0x24, 0xf2, 0x3d, 0xb3, 0x1c, 0xbb, 0xbd, 0xcc, 0x4f, 0xa2, 0x3e, 0xc1, 0xfb, 0x13, 0xbd,
0x47, 0x87, 0x3e, 0x3e, 0x72, 0x67, 0x8d, 0xbd, 0x57, 0xb7, 0x0f, 0xbe, 0x7f, 0xe8, 0x7d, 0x3e,
0x9f, 0xa6, 0x15, 0x3e, 0x32, 0x2f, 0xdb, 0x3e, 0x96, 0xa6, 0x2c, 0x3e, 0xc5, 0xdc, 0x89, 0xbe,
0xba, 0xd4, 0x28, 0xbe, 0x71, 0xf2, 0x27, 0xbd, 0xb2, 0x53, 0x84, 0x3d, 0x8d, 0xef, 0xf6, 0x3e,
0x26, 0x14, 0x32, 0xbe, 0x32, 0x1f, 0x6c, 0x3f, 0xa3, 0xcd, 0x49, 0xbe, 0x9a, 0xc5, 0x98, 0xbb,
0x07, 0x8a, 0x84, 0x3e, 0x14, 0x3e, 0x98, 0xbd, 0x8b, 0xae, 0x68, 0x3c, 0x52, 0x22, 0x2b, 0xbe,
0x54, 0x3b, 0x85, 0xbd, 0xa9, 0xcb, 0xe3, 0x3d, 0x92, 0xa1, 0x1e, 0xbe, 0x54, 0xde, 0x69, 0x3d,
0x49, 0x7b, 0xda, 0xbd, 0x30, 0x59, 0x8b, 0x3d, 0xa6, 0x6d, 0x1a, 0x3d, 0x7a, 0x77, 0xa3, 0xbd,
0x8d, 0xeb, 0xfc, 0xbd, 0x9c, 0xad, 0x4b, 0x3c, 0xb6, 0x30, 0x98, 0x3e, 0x2e, 0x6e, 0x77, 0xbe,
0x63, 0xa0, 0xa2, 0x3d, 0x45, 0xf3, 0x50, 0x3e, 0xda, 0x0c, 0xe6, 0x3d, 0xa0, 0xee, 0xa4, 0xbe,
0x7f, 0xcd, 0xb5, 0xbc, 0x16, 0x79, 0x91, 0xbe, 0x90, 0xc2, 0x29, 0x3e, 0x70, 0x14, 0x7e, 0xbe,
0xe8, 0xdc, 0xaf, 0xbe, 0x55, 0xde, 0xa3, 0x3d, 0x4f, 0x81, 0x15, 0x3f, 0x4e, 0x8f, 0xa1, 0x3e,
0x0b, 0xc7, 0xa3, 0xbd, 0xf5, 0x09, 0x09, 0x3f, 0x1d, 0x16, 0x82, 0xbe, 0x5a, 0x98, 0x8d, 0x3e,
0x93, 0xe7, 0x3f, 0xbe, 0x58, 0x38, 0x90, 0x3e, 0xa2, 0x19, 0x2d, 0x3f, 0x29, 0xdf, 0xdb, 0xbe,
0xfa, 0x30, 0xf9, 0xbb, 0xd3, 0xad, 0x96, 0x3c, 0xde, 0x97, 0xbf, 0xbd, 0xbc, 0xa5, 0xe0, 0x3d,
0x6a, 0x63, 0x94, 0xbd, 0xc1, 0x1b, 0xab, 0xbe, 0xfb, 0xe3, 0x13, 0x3f, 0xc3, 0xfe, 0x5a, 0x3e,
0x83, 0xa9, 0x5c, 0x3e, 0x01, 0x43, 0x33, 0xbd, 0xb1, 0x16, 0x18, 0xbf, 0x5f, 0x04, 0x4d, 0x3f,
0x3c, 0x15, 0xab, 0x3e, 0x6b, 0x62, 0x20, 0x3e, 0xc5, 0x45, 0x6d, 0x3e, 0xbe, 0xfc, 0x33, 0xbf,
0xb8, 0x34, 0x38, 0xbe, 0x93, 0x18, 0xd7, 0xbd, 0xf9, 0xfd, 0x27, 0xbf, 0x69, 0x6c, 0x1c, 0xbd,
0x2b, 0x7d, 0x26, 0xbe, 0x7a, 0xe0, 0xc1, 0x3d, 0xa8, 0xda, 0x27, 0x3a, 0xb2, 0x9f, 0xe7, 0xbc,
0x12, 0x89, 0xb4, 0x3e, 0x1f, 0x8e, 0x3b, 0x3e, 0x35, 0xee, 0x99, 0xbe, 0xd8, 0x3a, 0x3f, 0x3d,
0x1c, 0xda, 0x67, 0x3e, 0xef, 0xa0, 0x0a, 0xbe, 0xe2, 0x45, 0x00, 0xbf, 0x15, 0xab, 0x08, 0xbc,
0x77, 0x69, 0x76, 0xbe, 0x55, 0x9e, 0x83, 0xbe, 0x95, 0xd3, 0x9e, 0x3e, 0x3e, 0x5c, 0x1c, 0x3e,
0x07, 0x7b, 0x1d, 0xbd, 0x14, 0x33, 0xdb, 0x3e, 0xc9, 0xca, 0x93, 0xbe, 0x0f, 0x2a, 0x86, 0x3e,
0x1a, 0xfc, 0x7b, 0xbe, 0xb6, 0xea, 0xcd, 0x3c, 0x04, 0xb3, 0x82, 0xbd, 0x52, 0x6f, 0x7d, 0xbf,
0xec, 0x81, 0x08, 0x3f, 0x34, 0xfc, 0x65, 0xbe, 0x42, 0xb9, 0xb0, 0x3d, 0x2b, 0x5d, 0xdd, 0x3d,
0x81, 0x77, 0x35, 0x3d, 0x79, 0x7d, 0x25, 0xbf, 0x7e, 0x4b, 0x01, 0x3e, 0x3f, 0x8a, 0xd4, 0x3b,
0x61, 0xef, 0x08, 0x3f, 0x90, 0x82, 0x5e, 0xbd, 0x02, 0x5d, 0xc6, 0x3e, 0x12, 0x51, 0x1a, 0xbf,
0x52, 0x1e, 0x75, 0x3d, 0x8a, 0x77, 0x0b, 0xbd, 0x0d, 0x44, 0xcb, 0xbe, 0x18, 0xff, 0x08, 0x3e,
0x7d, 0x0f, 0xfb, 0xbd, 0x95, 0x15, 0x52, 0x3e, 0x15, 0x2a, 0x8d, 0xbd, 0xa6, 0xd8, 0xf0, 0x3e,
0x69, 0x0d, 0x2c, 0xbe, 0xce, 0x71, 0x90, 0xbe, 0x20, 0x91, 0xa2, 0x3c, 0x60, 0x95, 0xdf, 0xbe,
0x5a, 0x88, 0x00, 0x3e, 0x83, 0x7d, 0x37, 0x3e, 0xd1, 0x1f, 0x01, 0xbf, 0x02, 0xec, 0x17, 0x3e,
0xb0, 0xdf, 0x89, 0x3e, 0x32, 0xe3, 0x18, 0xbf, 0xd2, 0x23, 0xba, 0x3d, 0x0b, 0xb6, 0x08, 0xbe,
0xde, 0x44, 0x06, 0xbf, 0x01, 0xd6, 0x1d, 0xbf, 0x81, 0x20, 0x86, 0xbe, 0x70, 0x12, 0x46, 0x3d,
0x18, 0x1d, 0xf8, 0x3d, 0xb0, 0x74, 0xef, 0xbd, 0xa2, 0x4c, 0x5c, 0xbe, 0x4b, 0x67, 0x35, 0x3e,
0x80, 0xfc, 0x23, 0x3f, 0x7e, 0x61, 0x70, 0x3d, 0x1a, 0x55, 0xe7, 0xba, 0xf7, 0x1f, 0x1e, 0xbd,
0xc7, 0x18, 0x05, 0xbe, 0x30, 0x2d, 0x43, 0x3e, 0xd3, 0xd8, 0xb4, 0x3e, 0x11, 0x7f, 0x09, 0xbe,
0x27, 0x28, 0x0f, 0xbf, 0x9b, 0x45, 0x88, 0x3e, 0x45, 0x7f, 0xa8, 0x3d, 0xa9, 0xb9, 0x9c, 0x3e,
0xf8, 0x30, 0x74, 0xbe, 0xa6, 0x34, 0x13, 0x3b, 0x96, 0x23, 0x81, 0xbe, 0xc0, 0x07, 0xf1, 0xbe,
0x52, 0x73, 0x5b, 0x3e, 0x6c, 0x93, 0x20, 0xbf, 0xfc, 0x74, 0xf3, 0x3d, 0x96, 0xd6, 0x90, 0xbd,
0xca, 0x92, 0x76, 0xbe, 0xde, 0xc7, 0xdd, 0xbc, 0x11, 0x36, 0x79, 0xbe, 0xf8, 0xb7, 0x79, 0x3e,
0x46, 0xca, 0x05, 0x3e, 0x71, 0x80, 0x9c, 0xbe, 0xf0, 0x84, 0x01, 0x3f, 0xcc, 0x15, 0x9d, 0x3e,
0x0b, 0xfa, 0x52, 0xbe, 0xa8, 0x28, 0x87, 0x3e, 0x5b, 0x92, 0xb8, 0xbe, 0xd4, 0x78, 0x44, 0xbe,
0xe2, 0xc2, 0x1b, 0x3d, 0x5a, 0x36, 0xec, 0x3e, 0x9f, 0x06, 0x0f, 0x3e, 0xc4, 0x11, 0xd5, 0xbe,
0xd2, 0x7d, 0x1e, 0xbd, 0xd1, 0xc1, 0x59, 0xbd, 0x86, 0x16, 0x81, 0xbe, 0xa8, 0x0b, 0x18, 0xbe,
0x9c, 0xee, 0xa8, 0xbe, 0xa0, 0xc0, 0x3a, 0x3e, 0x26, 0x3f, 0x6a, 0x3d, 0x34, 0x15, 0x21, 0xbf,
0xe5, 0x41, 0xf6, 0xbd, 0x95, 0x7b, 0xb7, 0xbe, 0x18, 0xea, 0x0a, 0x3e, 0x7c, 0x08, 0x39, 0xbd,
0x82, 0x43, 0xe3, 0x3e, 0x55, 0x03, 0x9e, 0x3d, 0x4c, 0x2a, 0x04, 0xbe, 0x08, 0x20, 0xd5, 0x3e,
0x36, 0x53, 0x1c, 0x3e, 0x30, 0x80, 0x07, 0xbe, 0x2d, 0x3a, 0xe9, 0xbc, 0x18, 0x8c, 0x1b, 0xbd,
0x6f, 0x16, 0xe8, 0x3e, 0xa9, 0x1a, 0xac, 0xbe, 0x17, 0x84, 0x44, 0xbd, 0xe6, 0x68, 0x48, 0x3f,
0xb0, 0x4b, 0xd2, 0xbe, 0x52, 0x52, 0xec, 0x3d, 0x88, 0x53, 0x99, 0xbe, 0x2b, 0x30, 0x77, 0xbe,
0x60, 0x43, 0xdd, 0x3d, 0xd7, 0xa3, 0xbd, 0x3c, 0x29, 0x5f, 0xd5, 0x3c, 0xaf, 0x23, 0x14, 0x3e,
0xe8, 0x5c, 0x1f, 0xbf, 0x95, 0x31, 0x39, 0x3e, 0xcc, 0xde, 0xde, 0x3e, 0x09, 0xc6, 0x9c, 0xbe,
0x7e, 0xb0, 0x60, 0xbe, 0x46, 0x22, 0x90, 0x3e, 0x4c, 0xe1, 0x53, 0x3e, 0x9b, 0x43, 0xa9, 0x3e,
0x79, 0xcc, 0x83, 0xbd, 0x6e, 0x0d, 0x7c, 0xbe, 0x16, 0x09, 0x14, 0x3f, 0x0c, 0x31, 0x7d, 0x3e,
0xa7, 0xcd, 0x17, 0x3e, 0x4a, 0x27, 0x49, 0x3e, 0x11, 0xfa, 0xc4, 0x3d, 0x92, 0xd1, 0x4f, 0xbe,
0x0a, 0xb7, 0x7c, 0x3b, 0x8f, 0x8e, 0x60, 0x3e, 0x6a, 0xad, 0x0e, 0xbe, 0xb8, 0xe9, 0x91, 0xbe,
0x0b, 0x5d, 0xc9, 0xbe, 0xc6, 0x23, 0x10, 0x3f, 0xb8, 0x6b, 0xe5, 0xbc, 0x1f, 0x93, 0xca, 0x3b,
0x21, 0xff, 0xf3, 0x3d, 0x74, 0x92, 0xb2, 0xbe, 0xa2, 0x7d, 0x72, 0x3e, 0x32, 0x27, 0xe7, 0xbe,
0x25, 0x19, 0x07, 0x3e, 0xc9, 0xf3, 0x14, 0xbe, 0xbd, 0xd1, 0xe2, 0xbe, 0x06, 0x9f, 0x18, 0x3e,
0xeb, 0xcc, 0x46, 0xbe, 0x88, 0xa2, 0xb6, 0x3d, 0xc1, 0xce, 0xc2, 0x3e, 0x5f, 0x4f, 0x87, 0x3e,
0x1a, 0x55, 0x2b, 0xbe, 0x68, 0xb9, 0xfb, 0xbe, 0x4e, 0xfa, 0xa7, 0xbe, 0x81, 0xd5, 0x9e, 0xbd,
0x32, 0x6e, 0xa9, 0x3e, 0x64, 0xdb, 0x2b, 0x3d, 0xef, 0x0c, 0xea, 0x3e, 0xc3, 0x4d, 0xa9, 0xbe,
0x81, 0xae, 0xc1, 0x3e, 0xb3, 0x6b, 0x99, 0xbe, 0x49, 0x0c, 0xe9, 0xbe, 0xba, 0xb0, 0x78, 0x3e,
0xdc, 0x9a, 0xed, 0xbd, 0x43, 0xcd, 0x62, 0x3e, 0x9f, 0x5e, 0x70, 0x3e, 0xc4, 0x62, 0xd2, 0xbd,
0x37, 0x65, 0xab, 0xbe, 0x5b, 0xee, 0xa9, 0xbd, 0xa9, 0x3a, 0xcc, 0xbe, 0xb4, 0x0b, 0x22, 0xbd,
0x0e, 0xfa, 0x99, 0xbd, 0x98, 0x71, 0x29, 0x3e, 0x1f, 0xfa, 0x19, 0x3e, 0x8f, 0x93, 0x0e, 0x3f,
0x79, 0xa2, 0x99, 0x3e, 0xb6, 0x56, 0xca, 0xbe, 0xb7, 0x3e, 0x65, 0x3e, 0xdd, 0xec, 0x9d, 0xbd,
0xaf, 0xfe, 0x39, 0x3e, 0x81, 0x57, 0x4b, 0xbe, 0x3d, 0x69, 0xd2, 0x3d, 0xe4, 0x22, 0xc5, 0xbd,
0x40, 0x80, 0x62, 0xbd, 0x34, 0x18, 0x24, 0x3e, 0x11, 0xfe, 0xf4, 0x3d, 0x7c, 0x1e, 0x8b, 0x3e,
0xe3, 0x18, 0x85, 0x3e, 0x12, 0x1d, 0xfb, 0x3c, 0xce, 0x10, 0xb3, 0xbe, 0x8c, 0x38, 0x15, 0x3e,
0x39, 0x7f, 0x16, 0x3e, 0x2d, 0xe6, 0x06, 0x3d, 0x16, 0xa6, 0x66, 0xbe, 0x2c, 0x02, 0x7b, 0xbd,
0x97, 0x89, 0xe9, 0x3d, 0x1b, 0x23, 0x9f, 0x3d, 0xab, 0xa4, 0x79, 0xbf, 0x9e, 0x3c, 0x07, 0xbe,
0xe3, 0x5c, 0xb1, 0xbe, 0xc0, 0xd1, 0xc4, 0xbd, 0xc2, 0x8e, 0xc8, 0x3c, 0xa4, 0x78, 0x0b, 0x3e,
0x82, 0xf2, 0xcd, 0x3e, 0xa5, 0x98, 0x0a, 0xbe, 0x61, 0xb2, 0x00, 0x3f, 0x75, 0x9e, 0x96, 0xbc,
0x99, 0x40, 0x83, 0x3d, 0x05, 0x5b, 0x4e, 0xbe, 0x4a, 0x91, 0x53, 0x3e, 0x53, 0x6f, 0x2e, 0x3e,
0x59, 0x9b, 0x8a, 0xbe, 0xc6, 0x17, 0x02, 0xbe, 0x77, 0x87, 0xd1, 0x3d, 0x7a, 0x81, 0xd7, 0xbd,
0x9c, 0x10, 0x14, 0x3e, 0xb6, 0xb9, 0x50, 0x3d, 0xed, 0xc9, 0x97, 0x3e, 0x7e, 0xbc, 0xc1, 0xbe,
0xfa, 0x9a, 0xb0, 0x3e, 0x5b, 0x3b, 0x0d, 0x3e, 0x3b, 0xbe, 0x1c, 0xbf, 0xa5, 0x69, 0x09, 0x3e,
0x2b, 0x11, 0x01, 0xbf, 0x1d, 0x79, 0xf8, 0xbd, 0xa2, 0x19, 0xc3, 0x3e, 0x37, 0x25, 0xd4, 0xbc,
0x6d, 0xa7, 0x9c, 0x3d, 0x8e, 0x1c, 0xca, 0x3d, 0x4f, 0x24, 0xb9, 0xbe, 0xab, 0x8d, 0x2e, 0x3d,
0xec, 0x4f, 0xcd, 0xbe, 0xc5, 0x55, 0x0d, 0x3f, 0x03, 0x09, 0x91, 0x3e, 0x93, 0x42, 0x5b, 0xbe,
0xad, 0x91, 0xc8, 0x3e, 0x41, 0xdc, 0x6c, 0x3e, 0x58, 0x6d, 0x25, 0x3e, 0x72, 0xfb, 0xbe, 0xbe,
0x33, 0x90, 0x3b, 0xbd, 0xed, 0x3c, 0x86, 0xbd, 0xd0, 0x22, 0x8c, 0xbd, 0xa0, 0xef, 0xe5, 0xbb,
0xbb, 0x16, 0x6d, 0x3e, 0xd6, 0x24, 0x20, 0xbe, 0xeb, 0xa7, 0x0a, 0xbf, 0xff, 0x6f, 0x33, 0xbd,
0xbe, 0x39, 0x9c, 0x3d, 0xf4, 0x46, 0xcd, 0xbe, 0xa8, 0xd2, 0xc1, 0x3c, 0x66, 0x2d, 0xb5, 0x3d,
0x61, 0xe0, 0xf7, 0xbd, 0xe2, 0xad, 0xdf, 0xbe, 0xa8, 0xf9, 0x87, 0xbd, 0x9d, 0xfa, 0xdb, 0xbe,
0x59, 0x69, 0x9e, 0xbe, 0x89, 0xce, 0x56, 0xbe, 0xff, 0xc1, 0x95, 0x3e, 0x18, 0xba, 0x56, 0x3e,
0x95, 0x05, 0x91, 0xbe, 0x30, 0xc7, 0xe2, 0x3e, 0x8c, 0x92, 0xd7, 0x3e, 0x45, 0xd8, 0x54, 0xbe,
0xfc, 0xd9, 0x5a, 0x3b, 0x46, 0xd7, 0x83, 0xbe, 0x2e, 0x10, 0xd3, 0x3e, 0x00, 0x32, 0x85, 0xbd,
0x20, 0xa8, 0x8f, 0x3e, 0x9d, 0x07, 0x2a, 0x3e, 0x94, 0xa7, 0xea, 0xbd, 0x1c, 0x4d, 0xf7, 0x3d,
0xa3, 0x41, 0x31, 0xbe, 0x03, 0x00, 0x69, 0x3d, 0xeb, 0xdf, 0xd0, 0x3d, 0xae, 0x31, 0x8d, 0xbe,
0x5a, 0x6e, 0xc7, 0x3d, 0xed, 0x4a, 0x60, 0x3d, 0x69, 0x2f, 0x13, 0xbf, 0xc3, 0x15, 0xc1, 0x3d,
0x8a, 0x91, 0x5c, 0x3e, 0xb5, 0x6d, 0xbc, 0x3e, 0x00, 0x5b, 0xb1, 0xbc, 0xa7, 0x71, 0x1e, 0xbe,
0x9d, 0x64, 0xa6, 0x3e, 0x4e, 0xcc, 0xac, 0xbe, 0x74, 0xa7, 0xc1, 0xbc, 0xd3, 0x62, 0xc4, 0xbd,
0xe6, 0x1b, 0x91, 0xbe, 0xc4, 0x9f, 0xef, 0xbe, 0x66, 0x3d, 0x56, 0xbe, 0x9a, 0x92, 0xc0, 0x3e,
0x0c, 0x51, 0xf4, 0xbe, 0x34, 0x8c, 0x82, 0xbe, 0x8b, 0xf4, 0x02, 0x3f, 0x08, 0xe1, 0x0a, 0xbe,
0xb8, 0xff, 0xc3, 0xbc, 0x1b, 0xf9, 0xac, 0x3c, 0xd8, 0x36, 0xfc, 0xbe, 0x3e, 0x65, 0x17, 0xbe,
0x9c, 0x64, 0x1f, 0x3d, 0xe3, 0x39, 0xb5, 0x3e, 0xbc, 0x55, 0x4a, 0xbe, 0xab, 0x90, 0x4f, 0xbe,
0x79, 0x5e, 0x66, 0xbe, 0xae, 0x41, 0x18, 0x3d, 0x4a, 0x39, 0x46, 0xbe, 0x74, 0xa3, 0x1b, 0x3e,
0x31, 0x6d, 0x90, 0xbd, 0x44, 0x7d, 0x18, 0x3f, 0x1d, 0xf0, 0x01, 0x3d, 0x54, 0x0c, 0xed, 0xbe,
0x16, 0xd0, 0x14, 0x3e, 0x8a, 0x14, 0x4e, 0xbe, 0x33, 0x37, 0xe0, 0xbe, 0xd7, 0x58, 0x16, 0x3d,
0xac, 0xd1, 0x7a, 0xbd, 0x28, 0x5e, 0x6e, 0x3e, 0x0b, 0x38, 0x51, 0x3b, 0xc4, 0xb8, 0xe5, 0xbc,
0xaa, 0xdc, 0x4e, 0x3f, 0x46, 0xd8, 0x1e, 0xbe, 0x41, 0x8a, 0xb3, 0xbe, 0x2e, 0xd7, 0x2f, 0x3d,
0xcc, 0x35, 0x27, 0xbf, 0xd2, 0x99, 0xba, 0x3c, 0x3d, 0xc8, 0x17, 0x3f, 0x24, 0x71, 0x02, 0xbd,
0x24, 0xae, 0x8c, 0x3e, 0xef, 0xe1, 0xf1, 0xbe, 0xdc, 0xb1, 0xfc, 0xb9, 0xbb, 0xc3, 0x84, 0x3e,
0x1f, 0xa3, 0x6e, 0x3e, 0x2a, 0xc6, 0x22, 0xbd, 0xda, 0x47, 0xad, 0x3e, 0xc3, 0xb4, 0xc1, 0xbc,
0xab, 0xee, 0x01, 0xbf, 0x82, 0x33, 0x8b, 0xbe, 0xf8, 0xb9, 0xbd, 0x3e, 0xb3, 0xb1, 0xb6, 0xbe,
0xec, 0x6a, 0xc1, 0x3e, 0x3d, 0x55, 0x09, 0xbe, 0x0e, 0xdd, 0x36, 0x3d, 0xb1, 0x56, 0x73, 0x3e,
0x6d, 0x92, 0x41, 0x3d, 0x57, 0x75, 0xba, 0x3e, 0x2d, 0xf6, 0x27, 0x3e, 0xde, 0x5d, 0x92, 0xbe,
0x50, 0xda, 0xbc, 0xbd, 0x58, 0x27, 0xd8, 0x3d, 0x65, 0xbc, 0xdc, 0xbe, 0x40, 0xb2, 0x5f, 0x3e,
0x45, 0x49, 0x35, 0x3e, 0xb0, 0x88, 0x1d, 0x3c, 0xad, 0x25, 0xa6, 0x3e, 0x38, 0x44, 0x17, 0x3f,
0x86, 0x0b, 0x91, 0x3e, 0x4b, 0x67, 0x09, 0xbf, 0x20, 0xd4, 0xba, 0x3d, 0xb6, 0x58, 0x0e, 0x3d,
0xc3, 0x78, 0x15, 0xbe, 0x8f, 0xe8, 0xa3, 0x3d, 0x12, 0x6e, 0x7d, 0xbe, 0x34, 0xd3, 0xcb, 0xbd,
0x50, 0x64, 0x83, 0xbd, 0x50, 0x90, 0x85, 0x3c, 0x16, 0xfb, 0xbc, 0x3e, 0x3a, 0xa5, 0x37, 0x3e,
0x3c, 0xa4, 0x99, 0xbd, 0xbb, 0x4c, 0x84, 0xbe, 0x7f, 0xfb, 0x11, 0xbe, 0xb6, 0x31, 0x8e, 0xbd,
0x71, 0xbd, 0x22, 0xbe, 0x32, 0x46, 0xd5, 0x3e, 0x16, 0x20, 0xb3, 0x3e, 0x54, 0xc2, 0xae, 0xbd,
0x06, 0xfa, 0x13, 0x3e, 0xe9, 0x55, 0x62, 0xbe, 0xfd, 0x37, 0x22, 0xbf, 0x17, 0xc6, 0xc4, 0x3d,
0xc7, 0x2d, 0xed, 0xbe, 0xdd, 0x0d, 0x9a, 0xbc, 0xac, 0xd2, 0x08, 0xbe, 0xdc, 0x2b, 0x04, 0x3e,
0xe8, 0x86, 0xef, 0x3d, 0xbd, 0x20, 0xa7, 0x3e, 0x31, 0x50, 0x8b, 0x3e, 0x4d, 0x11, 0x19, 0x3f,
0xf4, 0x3d, 0x45, 0xbe, 0xe8, 0x35, 0x8d, 0xbe, 0x20, 0x39, 0x0b, 0x3c, 0x54, 0x37, 0x4e, 0xbe,
0xb4, 0xeb, 0x04, 0x3f, 0xaa, 0xac, 0x67, 0xbe, 0x4c, 0x6f, 0x89, 0xbc, 0xba, 0x4f, 0x8f, 0xbe,
0x3d, 0x8e, 0xa1, 0xbc, 0xea, 0xf2, 0xdf, 0xbe, 0x35, 0x93, 0xa8, 0xbe, 0x01, 0xc7, 0xcf, 0x3e,
0xa5, 0xed, 0x52, 0x3d, 0x15, 0x20, 0x1f, 0xbf, 0xbc, 0x63, 0x4c, 0x3e, 0x1f, 0x0f, 0x7c, 0xbe,
0x85, 0x08, 0xc1, 0x3d, 0x71, 0x3c, 0xcc, 0xbd, 0x02, 0x35, 0x83, 0x3e, 0xc1, 0xbc, 0x02, 0x3d,
0xac, 0x76, 0x96, 0x3e, 0xd5, 0x6d, 0x09, 0xbe, 0x51, 0xfc, 0x8c, 0x3e, 0xa8, 0x4f, 0x74, 0xbe,
0xa6, 0xc9, 0x09, 0x3e, 0x2c, 0x29, 0x56, 0xbd, 0xf1, 0x22, 0x08, 0xbf, 0x65, 0xfc, 0xe4, 0xbe,
0xb0, 0x46, 0x02, 0xbe, 0xbc, 0x46, 0x5e, 0x3c, 0xc8, 0x03, 0x71, 0x3e, 0xed, 0x60, 0x1d, 0xbe,
0xb7, 0x5a, 0xa7, 0x3e, 0x46, 0x4c, 0x8c, 0xbe, 0x1b, 0xd9, 0x65, 0xbe, 0x62, 0xfd, 0x0c, 0x3f,
0xfe, 0x65, 0x1c, 0x3f, 0x80, 0x04, 0xe9, 0xbe, 0xca, 0xb5, 0x65, 0x3e, 0x7d, 0x5b, 0x32, 0xbf,
0x35, 0xb0, 0x94, 0x3d, 0xf4, 0x41, 0x80, 0x3e, 0xc8, 0x8b, 0xc9, 0xbd, 0x4c, 0x6c, 0xf7, 0x3e,
0xd9, 0xdf, 0xce, 0xbe, 0xcb, 0xfe, 0xd1, 0xbd, 0x52, 0x6f, 0x35, 0xbe, 0x04, 0x81, 0x05, 0x3e,
0x89, 0x3a, 0x98, 0x3a, 0xef, 0x43, 0x5e, 0xbe, 0xb3, 0x90, 0xea, 0x3e, 0x69, 0xfe, 0x4b, 0xbf,
0x38, 0x51, 0x42, 0xbc, 0xe6, 0x91, 0x19, 0x3e, 0xc3, 0xe0, 0x96, 0xbe, 0x33, 0x73, 0x8f, 0x3e,
0xba, 0xf5, 0x67, 0xbe, 0xad, 0x49, 0x71, 0x3e, 0x92, 0x34, 0x6f, 0xbd, 0xaf, 0x09, 0x50, 0x3e,
0xff, 0x18, 0x5f, 0xbd, 0x8b, 0x20, 0x5c, 0xbd, 0xb2, 0x35, 0x44, 0xbe, 0xa8, 0x3b, 0xab, 0x3d,
0xe4, 0xc5, 0x7e, 0x3d, 0xaf, 0x17, 0x64, 0x3e, 0x00, 0x90, 0xd2, 0xbd, 0x59, 0xb9, 0x1f, 0x3e,
0xa8, 0x4a, 0x51, 0x3e, 0xe0, 0xde, 0xe5, 0xbd, 0x6d, 0xc4, 0xe0, 0xbe, 0xa7, 0x97, 0x08, 0x3f,
0x36, 0xd9, 0xed, 0xbe, 0xac, 0x4a, 0x55, 0x3d, 0xe2, 0xc1, 0xc9, 0x3d, 0xf5, 0x10, 0x50, 0xbe,
0x95, 0xec, 0xb4, 0x3e, 0x48, 0x14, 0xa3, 0x3e, 0xc1, 0x09, 0x94, 0xbe, 0x6a, 0x5a, 0xc1, 0xbd,
0xb8, 0x8e, 0x38, 0x3e, 0xb6, 0x90, 0x23, 0x3d, 0x15, 0x5b, 0xaf, 0x3d, 0xca, 0x21, 0x12, 0xbe,
0xec, 0x76, 0x4f, 0x3e, 0x3d, 0xa4, 0x48, 0xbf, 0x30, 0xa5, 0x45, 0xbd, 0xca, 0x12, 0x66, 0xbe,
0xa7, 0x5f, 0x6d, 0xbe, 0xa4, 0xd7, 0x6c, 0xbe, 0xf4, 0xf0, 0x88, 0xbe, 0x2f, 0xd8, 0x36, 0x3e,
0x4c, 0xad, 0x23, 0x3f, 0x1e, 0xe6, 0x72, 0xbe, 0xcf, 0xee, 0x07, 0xbf, 0x37, 0x64, 0xed, 0x3d,
0x00, 0x33, 0x51, 0x3e, 0xb1, 0x81, 0xe5, 0xbe, 0x44, 0x47, 0x1a, 0x3e, 0x0d, 0x81, 0xef, 0xbc,
0x9d, 0x19, 0x93, 0xbd, 0xfd, 0x08, 0x07, 0x3f, 0x5e, 0x06, 0xca, 0xbc, 0x52, 0xf8, 0x28, 0x3f,
0xe7, 0x36, 0xc4, 0xbe, 0x02, 0x13, 0x4d, 0x3e, 0xf3, 0xf1, 0xb4, 0x3d, 0x9c, 0x9b, 0x40, 0xbd,
0xc8, 0xe1, 0xf3, 0xbe, 0x14, 0xb1, 0x7e, 0xbe, 0x44, 0xe9, 0xbc, 0x3e, 0x15, 0x50, 0xa0, 0x3d,
0xe8, 0xa3, 0x34, 0xbd, 0xc7, 0x10, 0x5c, 0x3e, 0x9d, 0x8b, 0x46, 0x3d, 0x0b, 0xd7, 0xa8, 0x3c,
0xc7, 0x44, 0x6e, 0x3e, 0x65, 0x2b, 0x83, 0xbe, 0x33, 0xc0, 0x66, 0x3e, 0x6e, 0xc5, 0x1f, 0xbf,
0x9f, 0xce, 0xd5, 0x3e, 0xea, 0xc5, 0x1d, 0xbe, 0x74, 0x82, 0x17, 0xbf, 0x69, 0xb7, 0xaa, 0xbe,
0xa0, 0x5d, 0xca, 0xbe, 0xac, 0xb4, 0x28, 0xbe, 0x7f, 0xef, 0xb3, 0xbd, 0x3a, 0x9c, 0xda, 0x3d,
0xed, 0x64, 0xb7, 0xbc, 0xdd, 0xc1, 0x98, 0x3c, 0x8f, 0xab, 0x0e, 0x3d, 0xcf, 0xde, 0x6f, 0x3d,
0x2f, 0xbf, 0x44, 0x3e, 0x0f, 0xa4, 0xd2, 0xbe, 0xe8, 0xf1, 0xa2, 0xbd, 0x50, 0x76, 0xa0, 0xbe,
0x51, 0xe4, 0xb7, 0x3e, 0xd4, 0x26, 0x41, 0xbd, 0xc2, 0xf9, 0xd9, 0xbe, 0xd4, 0x0e, 0x20, 0x3e,
0xad, 0x8d, 0x3d, 0xbf, 0x9a, 0xb1, 0x96, 0xbd, 0x76, 0xe2, 0x11, 0x3e, 0x7c, 0xf0, 0xf0, 0xbe,
0x0d, 0xe5, 0xc8, 0xbe, 0x56, 0x21, 0x67, 0x3e, 0x4f, 0xda, 0xaf, 0xbd, 0xdc, 0x36, 0x6f, 0xbe,
0xf5, 0xde, 0x6e, 0xbe, 0x22, 0x8e, 0xba, 0x3e, 0x9b, 0x7b, 0x99, 0x3e, 0x00, 0x88, 0x34, 0xbe,
0xb7, 0x22, 0xa1, 0x3e, 0x50, 0xd9, 0x38, 0x3e, 0xd7, 0x06, 0x22, 0xbd, 0xfd, 0x96, 0x11, 0x3e,
0x3d, 0x59, 0x8c, 0x3e, 0x8c, 0x42, 0xcc, 0x3e, 0x71, 0xf0, 0x82, 0x3e, 0x4b, 0x1a, 0xc3, 0x3e,
0xf9, 0x94, 0x9a, 0x3e, 0x3d, 0x21, 0xe8, 0x3e, 0x56, 0x20, 0xd1, 0x3c, 0x10, 0xff, 0x91, 0x3e,
0xbf, 0x77, 0xdf, 0x3e, 0x45, 0x40, 0x8c, 0x3e, 0xd2, 0x50, 0x9a, 0x3e, 0xeb, 0xf2, 0xcc, 0x3d,
0xb8, 0x12, 0xf0, 0x3d, 0x78, 0x85, 0xf4, 0x3e, 0x7e, 0xa2, 0x65, 0x3e, 0x25, 0xf3, 0xf5, 0x3e,
0x7d, 0xbd, 0x12, 0xbe, 0x14, 0xfb, 0x3a, 0x3f, 0xff, 0x27, 0xbf, 0x3e, 0x2b, 0xe0, 0x05, 0xbd,
0xa5, 0x0d, 0xde, 0x3e, 0xb8, 0xaa, 0xa9, 0x3e, 0x13, 0x66, 0x18, 0xbe, 0x02, 0x22, 0x3f, 0x3d,
0xcd, 0x7b, 0x98, 0x3e, 0xbf, 0x11, 0x58, 0x3b, 0x5d, 0xe1, 0x12, 0x3e, 0x96, 0xe9, 0x15, 0xbf,
0x64, 0x2a, 0xce, 0xbd, 0xa8, 0x07, 0x1c, 0xbe, 0x1f, 0x41, 0xb7, 0xbd, 0x9b, 0xe3, 0xea, 0x3d,
0x84, 0xc3, 0xd0, 0x3e, 0xbc, 0x57, 0xab, 0x3e, 0xa0, 0xdf, 0xbb, 0x3e, 0xf7, 0x14, 0x1d, 0x3f,
0xc0, 0x80, 0x4c, 0x3d, 0xa9, 0xf1, 0x0b, 0x3e, 0xd5, 0xdd, 0xda, 0xbc, 0x25, 0xa4, 0xa7, 0x3e,
0xd0, 0x4f, 0xc5, 0x3e, 0xcc, 0x6f, 0x5b, 0x3e, 0x30, 0x3d, 0x38, 0x3d, 0x62, 0x00, 0xf5, 0xbc,
0xaa, 0x09, 0x3f, 0x3d, 0xad, 0xfc, 0xaf, 0x3e, 0x54, 0xeb, 0xa8, 0xbd, 0xa2, 0xa5, 0xeb, 0x3e,
0x04, 0xbb, 0xd9, 0xbe, 0x46, 0xad, 0xea, 0x3e, 0x91, 0xbc, 0x91, 0xbe, 0x4d, 0x7a, 0xa2, 0xbe,
0x3a, 0x5f, 0x08, 0xbf, 0x01, 0x29, 0x22, 0x3e, 0x5f, 0xc4, 0xf5, 0x3d, 0xd1, 0x72, 0x6d, 0x3e,
0x78, 0xff, 0xa0, 0x3e, 0x07, 0xb4, 0x73, 0xbe, 0x1a, 0xc2, 0xbd, 0x3e, 0x98, 0xdd, 0x07, 0x3d,
0xf0, 0x3e, 0x47, 0x3d, 0xb1, 0xd4, 0x05, 0xbf, 0x31, 0xca, 0x2e, 0xbb, 0x90, 0x3e, 0x52, 0x3e,
0x22, 0x99, 0x3e, 0xbe, 0xb4, 0xb0, 0xb2, 0xbb, 0x50, 0x77, 0x4d, 0x3e, 0x5b, 0xa2, 0x27, 0xbe,
0x2c, 0x24, 0x7c, 0x3e, 0xa3, 0x38, 0x97, 0xbc, 0x6b, 0xde, 0x85, 0xbd, 0x77, 0x78, 0x49, 0xbe,
0xab, 0x86, 0xb2, 0x3e, 0x53, 0x03, 0xf1, 0x3e, 0x56, 0x90, 0xd3, 0x3e, 0xe5, 0x9b, 0x40, 0x3e,
0xe7, 0xd6, 0xb3, 0x3d, 0x8c, 0x00, 0x42, 0xbe, 0x49, 0x77, 0x29, 0xbe, 0x7d, 0xc3, 0xc6, 0xbe,
0x15, 0xa6, 0xeb, 0xbe, 0xcf, 0xce, 0x80, 0xbe, 0xa5, 0x66, 0xd1, 0xbe, 0xb0, 0x79, 0x24, 0xbf,
0x26, 0xf5, 0x85, 0xbe, 0xfe, 0x59, 0x00, 0x3f, 0x39, 0x7f, 0x30, 0x3f, 0xac, 0xf6, 0xd4, 0xbc,
0xac, 0xb6, 0x28, 0x3e, 0xf9, 0xd8, 0xb7, 0xbe, 0x39, 0x02, 0x12, 0x3d, 0x0a, 0x6e, 0xa8, 0xbd,
0xc7, 0xe4, 0x81, 0x3e, 0xff, 0x9a, 0x94, 0x3e, 0x79, 0x5a, 0xef, 0xbd, 0xd6, 0xef, 0xff, 0xff,
0x04, 0x00, 0x00, 0x00, 0x0c, 0x00, 0x00, 0x00, 0x01, 0x00, 0x00, 0x00, 0x0c, 0x00, 0x00, 0x00,
0x10, 0x00, 0x00, 0x00, 0xee, 0xef, 0xff, 0xff, 0x04, 0x00, 0x00, 0x00, 0x10, 0x00, 0x00, 0x00,
0x01, 0x00, 0x00, 0x00, 0x19, 0x00, 0x00, 0x00, 0x01, 0x00, 0x00, 0x00, 0x10, 0x00, 0x00, 0x00,
0x0a, 0xf0, 0xff, 0xff, 0x04, 0x00, 0x00, 0x00, 0x10, 0x00, 0x00, 0x00, 0x01, 0x00, 0x00, 0x00,
0x01, 0x00, 0x00, 0x00, 0x32, 0x00, 0x00, 0x00, 0x03, 0x00, 0x00, 0x00, 0x26, 0xf0, 0xff, 0xff,
0x04, 0x00, 0x00, 0x00, 0x00, 0x0c, 0x00, 0x00, 0x55, 0x2b, 0x10, 0x3d, 0x43, 0x72, 0x03, 0xbe,
0x25, 0x93, 0x4c, 0xbc, 0xdb, 0xce, 0x0c, 0x3e, 0x7b, 0x85, 0x96, 0xbc, 0xa5, 0xce, 0xa2, 0x3e,
0x06, 0xec, 0x96, 0xbd, 0x54, 0x4a, 0xd9, 0xbd, 0xc4, 0xd5, 0x82, 0x3e, 0x90, 0x33, 0x45, 0xbe,
0x40, 0x7a, 0x79, 0xbd, 0x01, 0xd7, 0xb7, 0x3d, 0x41, 0x0d, 0xaa, 0x3d, 0x15, 0x91, 0x33, 0x3e,
0xfe, 0x26, 0x2f, 0xbc, 0x31, 0xe5, 0x93, 0x3e, 0xbd, 0x93, 0x67, 0xbc, 0x0b, 0xc6, 0xed, 0xbd,
0x4a, 0x9a, 0xa7, 0xbd, 0xf3, 0xaf, 0xd4, 0x3c, 0x99, 0xe0, 0xb0, 0xbe, 0xa8, 0xd8, 0x79, 0x3c,
0xe6, 0x9b, 0x87, 0xbc, 0x5f, 0xfc, 0xda, 0x3d, 0x79, 0xbb, 0x95, 0xbe, 0x1d, 0x9a, 0xe8, 0xbd,
0x67, 0xa4, 0xc9, 0xbd, 0xb2, 0xcb, 0xe7, 0xbd, 0x52, 0xb4, 0x80, 0xbe, 0xcf, 0x78, 0xf4, 0xbc,
0x2d, 0x64, 0x94, 0xbe, 0xf8, 0x48, 0x2a, 0x3e, 0xde, 0x37, 0xd5, 0xbd, 0x0d, 0xcb, 0xa6, 0x3c,
0x6c, 0x50, 0xcd, 0xbd, 0xd1, 0x62, 0x41, 0x3c, 0xf4, 0x8e, 0xbc, 0x3e, 0x9f, 0x87, 0x8f, 0x3d,
0x4c, 0xd1, 0xa4, 0xbc, 0x54, 0xe8, 0x25, 0x3e, 0x65, 0x6e, 0x53, 0x3e, 0xbd, 0x9f, 0x8b, 0xbc,
0x2c, 0x80, 0x1e, 0x3e, 0x42, 0xf7, 0x96, 0x3d, 0xa5, 0x4f, 0xd2, 0x3d, 0x5a, 0x07, 0x23, 0xbd,
0xdd, 0x17, 0xcd, 0x3c, 0x26, 0xc5, 0x80, 0xbe, 0x49, 0x9d, 0x7d, 0x3e, 0xb1, 0x73, 0x2f, 0xbe,
0x1c, 0xf1, 0xb3, 0x3d, 0x6d, 0x22, 0xd6, 0x3d, 0x7e, 0x27, 0xf2, 0xbd, 0xa4, 0x93, 0xd1, 0xbe,
0xa7, 0x75, 0xe8, 0xbd, 0xff, 0xaf, 0x5e, 0xbd, 0x3d, 0x04, 0x8c, 0xbe, 0xa8, 0x62, 0xc4, 0xbd,
0x6c, 0xbf, 0x84, 0x3d, 0xd2, 0x34, 0x85, 0x3e, 0x53, 0xa5, 0x4b, 0x3e, 0x63, 0xb4, 0x8f, 0x3e,
0xfb, 0x5b, 0x86, 0xbd, 0x49, 0x99, 0xce, 0x3d, 0xd1, 0xd8, 0x08, 0xbc, 0xe3, 0xef, 0x24, 0xbd,
0x43, 0xd8, 0x0f, 0xbd, 0xb9, 0x8e, 0xf7, 0xbd, 0xb4, 0x03, 0x4a, 0xbd, 0xeb, 0x50, 0x32, 0x3e,
0x2b, 0xfd, 0xf4, 0x3d, 0x73, 0x12, 0x6b, 0xbc, 0x8e, 0xff, 0x42, 0xbc, 0x73, 0xd1, 0xc0, 0x3c,
0x4e, 0x5a, 0x89, 0x3c, 0x40, 0xfd, 0x2f, 0xbe, 0x09, 0x4d, 0x0c, 0x3e, 0xc4, 0x27, 0x2a, 0xbd,
0xb0, 0xd1, 0xdf, 0x3c, 0x4e, 0xe7, 0xa8, 0xbd, 0xe7, 0x3a, 0x8f, 0x3d, 0x7d, 0x28, 0x3f, 0x3d,
0x01, 0x6d, 0x1b, 0xbe, 0x83, 0x99, 0xa0, 0x3c, 0x81, 0x73, 0x5c, 0x3c, 0x15, 0x6d, 0xaa, 0x3d,
0xc0, 0xe3, 0xfd, 0xbd, 0x15, 0xb4, 0x7d, 0xbd, 0xcd, 0x1e, 0x35, 0x3e, 0xe6, 0x81, 0x87, 0x3e,
0x0f, 0x12, 0x83, 0xbe, 0x71, 0x13, 0x4c, 0x3e, 0x5b, 0x06, 0x30, 0xbe, 0xb1, 0xa4, 0x4c, 0x3e,
0xc7, 0xfd, 0x23, 0xbe, 0x16, 0x84, 0xb5, 0x3e, 0x0a, 0xa2, 0xb3, 0xbd, 0x3e, 0x09, 0xa5, 0x3d,
0x70, 0x7a, 0x86, 0xbd, 0xaf, 0x7d, 0x04, 0x3e, 0xc6, 0x3e, 0x93, 0xbd, 0x46, 0x8b, 0x0e, 0xbe,
0x82, 0x2d, 0x1d, 0xbd, 0x31, 0x64, 0xe6, 0xbb, 0x5c, 0xbe, 0x89, 0xbd, 0xc5, 0x86, 0xdd, 0x3d,
0xb1, 0x0f, 0x34, 0x3d, 0x99, 0x93, 0xdf, 0xbd, 0x4f, 0x72, 0xa1, 0xbc, 0xdc, 0x23, 0x96, 0x3e,
0x21, 0x87, 0x13, 0xbe, 0xc8, 0x19, 0xe9, 0xbe, 0xe2, 0x9a, 0x6a, 0x3d, 0x38, 0xc4, 0xb4, 0x3c,
0x53, 0x4e, 0x32, 0x3e, 0x52, 0x47, 0x09, 0xbe, 0x7a, 0x9c, 0x83, 0xbd, 0x91, 0x5c, 0xa0, 0x3e,
0x58, 0x6d, 0xa0, 0x3e, 0xda, 0x5a, 0x88, 0x3e, 0xa0, 0x79, 0xaf, 0x3d, 0xcb, 0x72, 0x73, 0xbe,
0x5e, 0x40, 0xec, 0xbd, 0x1b, 0x7c, 0x3f, 0xbe, 0xff, 0x7a, 0x37, 0xbe, 0x56, 0xc2, 0x25, 0xbe,
0xb1, 0x92, 0x9b, 0xbd, 0x09, 0xaa, 0xca, 0x3c, 0x47, 0x8d, 0x37, 0xbe, 0x37, 0x64, 0xc9, 0x3d,
0x92, 0x1c, 0xce, 0x3e, 0xa4, 0x36, 0x25, 0x3e, 0xec, 0x15, 0xfc, 0x3c, 0xd4, 0xa8, 0xa6, 0x3d,
0x82, 0x9f, 0x11, 0xbe, 0x03, 0xcb, 0xa5, 0x3d, 0x59, 0xfa, 0xdd, 0xbc, 0xd9, 0x1f, 0xa6, 0x3d,
0xe5, 0x3c, 0xb0, 0x3c, 0xc2, 0xf9, 0xcf, 0x3b, 0x29, 0xa7, 0x2b, 0xbd, 0xb7, 0x64, 0x9c, 0x3d,
0xe8, 0xc1, 0x3b, 0xbe, 0x70, 0x43, 0xd8, 0xbd, 0xcc, 0x6e, 0x85, 0xbd, 0x8c, 0xb4, 0xdf, 0xbb,
0x00, 0x1d, 0x0c, 0xbe, 0x57, 0x76, 0x39, 0x3e, 0xa8, 0x51, 0x63, 0x3d, 0x27, 0x84, 0xb3, 0x3d,
0xd5, 0x40, 0x3e, 0xbe, 0x79, 0x6b, 0xa1, 0xbc, 0x16, 0xfd, 0xf4, 0xbb, 0xc3, 0x70, 0x58, 0x3c,
0x43, 0x3b, 0x66, 0x3e, 0xf1, 0x54, 0x19, 0xbe, 0x97, 0xc4, 0xeb, 0xbd, 0x36, 0x93, 0x80, 0xbe,
0xd0, 0x2b, 0x46, 0xbd, 0xf6, 0xa1, 0xe8, 0xbd, 0x10, 0x6e, 0x60, 0xbd, 0xcb, 0x41, 0x0c, 0xbe,
0x67, 0x92, 0x91, 0x3d, 0x09, 0x3c, 0xa2, 0x3d, 0xaa, 0x5f, 0x4c, 0x3e, 0x69, 0x6b, 0x33, 0xbd,
0x58, 0x2d, 0xab, 0x3d, 0x6f, 0xed, 0xa2, 0x3d, 0xea, 0xa3, 0xc7, 0xbd, 0x47, 0x3a, 0x88, 0xbd,
0x63, 0x44, 0x74, 0x3c, 0x2d, 0x4d, 0xa4, 0x3d, 0x2e, 0xef, 0x8d, 0x3e, 0x28, 0x65, 0x63, 0xbd,
0xaf, 0xb7, 0x87, 0xbe, 0x4f, 0x6f, 0xb9, 0x3d, 0x98, 0xd0, 0x11, 0x3e, 0x36, 0xa5, 0x87, 0xbe,
0xe3, 0x79, 0xa4, 0xbd, 0xad, 0xba, 0xbe, 0x3e, 0x01, 0x02, 0xa5, 0xbc, 0x88, 0xe1, 0xec, 0x3a,
0xf0, 0x1e, 0xe0, 0x3d, 0xe1, 0x0e, 0x9d, 0xbd, 0xf8, 0xf3, 0x7e, 0x3c, 0x61, 0x9b, 0x74, 0xbd,
0xc9, 0x09, 0x58, 0xbe, 0xd8, 0x6e, 0x35, 0x3e, 0x79, 0xa0, 0xbb, 0x3d, 0x41, 0x14, 0xaf, 0x3d,
0xce, 0xf4, 0x2c, 0xbe, 0x90, 0xe3, 0x33, 0xbe, 0x57, 0xa3, 0xb5, 0xbd, 0x36, 0x43, 0x25, 0x3d,
0xf4, 0xaf, 0x2c, 0xbb, 0x21, 0x14, 0x13, 0x3e, 0xc3, 0x9b, 0x19, 0x3d, 0x45, 0x15, 0xf5, 0xbd,
0xc0, 0x33, 0x9e, 0xbd, 0xba, 0x75, 0x0d, 0x3e, 0x63, 0x9f, 0x25, 0xbe, 0x38, 0x00, 0x77, 0xbe,
0x9e, 0x1b, 0xcc, 0xbe, 0x77, 0xcd, 0x05, 0xbe, 0x8d, 0x40, 0xac, 0x3c, 0x00, 0xfd, 0x95, 0x3d,
0x63, 0x6f, 0x9d, 0x3e, 0x9b, 0x7e, 0x1e, 0x3e, 0x37, 0xb4, 0x29, 0x3e, 0xb3, 0xfe, 0x77, 0x3d,
0xe5, 0x82, 0xa3, 0x3c, 0x4c, 0xb0, 0x14, 0xbe, 0x4c, 0xa8, 0x00, 0xbe, 0x45, 0xae, 0xc0, 0xbd,
0xd6, 0xa7, 0x85, 0xbe, 0x44, 0xf3, 0x62, 0x3d, 0x15, 0xbb, 0x40, 0x3e, 0xa3, 0x1f, 0x20, 0x3e,
0xab, 0x85, 0x9b, 0x3d, 0x49, 0xc5, 0xb2, 0xbd, 0xea, 0xd0, 0xda, 0xbd, 0x03, 0x0d, 0xaf, 0x3e,
0x20, 0x95, 0xfd, 0x3d, 0x77, 0xb9, 0x48, 0x3d, 0x9b, 0x38, 0x0f, 0xbe, 0xf1, 0xf4, 0xdb, 0x3e,
0x05, 0xd4, 0xa9, 0x3d, 0x70, 0xc8, 0x4a, 0xbd, 0xa4, 0x7a, 0xf2, 0x3d, 0x99, 0xfb, 0x80, 0xbe,
0xd5, 0x7e, 0x27, 0x3e, 0x7e, 0x26, 0x06, 0x3c, 0x6e, 0xb6, 0x52, 0xbe, 0x53, 0xb1, 0x72, 0xbd,
0x4a, 0x61, 0x09, 0xbd, 0xab, 0x41, 0x1d, 0xbd, 0x46, 0xc0, 0xce, 0xbd, 0x7d, 0xd2, 0x09, 0x3e,
0x4e, 0xec, 0x50, 0x3e, 0xb0, 0x5c, 0x1e, 0x3b, 0x71, 0x70, 0xa0, 0x3d, 0xaf, 0x62, 0x8e, 0x3d,
0x6a, 0xb5, 0x0e, 0xbc, 0xcf, 0xed, 0xcf, 0xbc, 0xad, 0x73, 0xe0, 0x3d, 0x73, 0xa7, 0x99, 0xbc,
0xb4, 0x13, 0xc1, 0xbd, 0x57, 0xd2, 0x2a, 0xbe, 0x46, 0x28, 0x83, 0xbd, 0xc7, 0xa2, 0x6b, 0x3e,
0xd4, 0x5e, 0x50, 0x3d, 0x35, 0x99, 0x27, 0xbe, 0x8d, 0x06, 0xda, 0xbd, 0x24, 0xf6, 0x42, 0xbe,
0xf4, 0x7c, 0x80, 0xbe, 0x94, 0x1a, 0x46, 0xbd, 0xde, 0xaf, 0x2c, 0xbe, 0x01, 0x6a, 0x32, 0xbd,
0x33, 0x24, 0x0c, 0x3e, 0x3e, 0xf9, 0xe8, 0x3d, 0x33, 0x0a, 0xc1, 0xbd, 0xe9, 0x76, 0x3e, 0xbd,
0xfb, 0x81, 0x3d, 0x3e, 0x5b, 0x84, 0xfd, 0xbd, 0x61, 0x29, 0x84, 0x3d, 0x2c, 0x2b, 0xc1, 0xbd,
0xb1, 0xe4, 0x17, 0x3d, 0xc1, 0x8c, 0xcc, 0x3d, 0xb6, 0x7e, 0x22, 0x3e, 0xae, 0xf1, 0xf6, 0x3d,
0x64, 0x3e, 0x78, 0xbe, 0x6a, 0xa3, 0xb8, 0x3c, 0x33, 0x68, 0xa6, 0xbd, 0x22, 0x38, 0x8b, 0xbe,
0xae, 0xd4, 0x14, 0xbe, 0xf5, 0x4b, 0x7a, 0x3d, 0x5e, 0xc5, 0xa1, 0x3d, 0x03, 0x12, 0x5e, 0x3d,
0xc8, 0xec, 0xf0, 0x3d, 0xe7, 0x1e, 0x23, 0x3e, 0x78, 0xe9, 0x17, 0xbe, 0x18, 0xcc, 0xad, 0xbd,
0x27, 0x1d, 0xd7, 0xbd, 0xec, 0x2e, 0x6d, 0xbe, 0xab, 0x08, 0xdb, 0x3d, 0xe6, 0x30, 0xbb, 0xbe,
0x5c, 0x5a, 0x92, 0xbe, 0x17, 0x34, 0x40, 0x3d, 0xb8, 0x87, 0x91, 0xbd, 0x4a, 0xc9, 0x89, 0x3d,
0xbe, 0x38, 0x86, 0xbd, 0x54, 0xc5, 0x99, 0x3e, 0xad, 0x71, 0x05, 0x3e, 0xd0, 0x20, 0xf6, 0xbd,
0x23, 0xa9, 0xa3, 0xbd, 0x35, 0x82, 0xe8, 0xbc, 0x6b, 0x73, 0x29, 0x3d, 0x76, 0xd3, 0x11, 0x3d,
0x1d, 0x28, 0x26, 0xbe, 0x08, 0xee, 0xd2, 0x3c, 0xe2, 0xd3, 0x7a, 0x3e, 0x68, 0x18, 0x3f, 0x3e,
0xa3, 0xf5, 0xb6, 0xbd, 0x6f, 0x1a, 0x9b, 0xbd, 0x42, 0x9a, 0x93, 0x3d, 0xdb, 0xdc, 0x81, 0xbd,
0x66, 0xb7, 0x6a, 0xbe, 0x16, 0xf7, 0x5a, 0xbe, 0x09, 0xb3, 0x62, 0xbe, 0xc8, 0x96, 0x03, 0x3e,
0x47, 0xbd, 0x83, 0x3e, 0x51, 0xaa, 0x04, 0x3e, 0x56, 0xf4, 0x7b, 0xbd, 0xb9, 0x1c, 0x11, 0x3d,
0x18, 0x7f, 0xb1, 0x3d, 0xa5, 0xb6, 0x95, 0xbe, 0xed, 0xa4, 0x5f, 0xbe, 0x76, 0xb7, 0xf4, 0xbd,
0xb6, 0xb7, 0x24, 0xbe, 0x50, 0x5a, 0x32, 0x3c, 0x0b, 0xf1, 0x9a, 0x3d, 0xb6, 0xa2, 0xbc, 0xbd,
0xe5, 0x03, 0x76, 0x3e, 0xd6, 0x7e, 0x12, 0xbd, 0x9f, 0x58, 0x13, 0x3e, 0x19, 0x50, 0xad, 0xbd,
0x69, 0x53, 0xf4, 0xbd, 0x23, 0xaa, 0xa7, 0x3e, 0xb4, 0x10, 0x71, 0x3e, 0xaf, 0xff, 0x84, 0xbd,
0xee, 0xe5, 0x12, 0x3e, 0x19, 0x81, 0x85, 0x3e, 0x29, 0xbc, 0xc3, 0xbc, 0x0d, 0x6b, 0x01, 0x3e,
0x6d, 0x3b, 0xf0, 0xbb, 0x21, 0xf5, 0x6d, 0xbe, 0x66, 0xd1, 0x10, 0xbb, 0xb7, 0xe9, 0xec, 0xbd,
0x65, 0xb6, 0x42, 0x3e, 0xb5, 0x51, 0x80, 0x3e, 0xb3, 0x23, 0x72, 0xbe, 0x29, 0x76, 0x14, 0x3c,
0x0a, 0x48, 0xc7, 0xbd, 0x58, 0xab, 0x82, 0xbe, 0x9e, 0x69, 0xad, 0xbd, 0x68, 0x1c, 0x8b, 0xbe,
0xfd, 0xa8, 0x8e, 0x3e, 0x4c, 0x1e, 0x4f, 0x3e, 0x61, 0xf3, 0x8c, 0x3d, 0x36, 0x61, 0x74, 0x3e,
0x2e, 0x74, 0x2f, 0xbe, 0x2b, 0x4b, 0x8b, 0x3c, 0xb5, 0x5c, 0x0d, 0x3d, 0xd3, 0x0d, 0xf2, 0x3d,
0x43, 0x80, 0x01, 0x3d, 0x8d, 0xfc, 0x72, 0xbd, 0xfe, 0xd6, 0x17, 0x3e, 0xc2, 0xad, 0x32, 0x3e,
0x24, 0xe1, 0x09, 0xbd, 0xb3, 0x04, 0x1d, 0xbd, 0x7c, 0x8f, 0x92, 0xbc, 0xdb, 0x18, 0xbb, 0x3d,
0x98, 0x2e, 0xc4, 0x3d, 0x4f, 0xea, 0x83, 0xbe, 0x1e, 0xca, 0xad, 0x3d, 0x09, 0x8a, 0x08, 0xbd,
0xa0, 0x68, 0x9c, 0xbd, 0xd7, 0xe6, 0xc2, 0x3d, 0x80, 0x16, 0x89, 0x39, 0xbf, 0x25, 0x28, 0x3d,
0x84, 0xae, 0x6d, 0xbe, 0x42, 0x42, 0x42, 0x3d, 0x92, 0xdd, 0x25, 0xbe, 0x60, 0x79, 0xc4, 0x3e,
0x74, 0xee, 0x3e, 0xbd, 0xe8, 0x19, 0xdb, 0xbd, 0x05, 0x56, 0xab, 0x3e, 0xa9, 0x18, 0x70, 0x3e,
0xf9, 0x30, 0x6d, 0xbd, 0x5f, 0x40, 0x3f, 0xbd, 0xff, 0xf2, 0x0d, 0x3d, 0xbf, 0x62, 0xb0, 0x3d,
0x81, 0xe0, 0x43, 0xbc, 0xca, 0x72, 0xbd, 0x3e, 0xe3, 0xb2, 0x2c, 0x3e, 0xc3, 0x57, 0xd5, 0x3c,
0xa8, 0xb6, 0xdc, 0x3e, 0x85, 0x80, 0x89, 0xbc, 0x38, 0x40, 0x3c, 0x3e, 0x6c, 0xd8, 0x95, 0xbe,
0x58, 0x80, 0xb8, 0xbb, 0x43, 0xca, 0x89, 0xbe, 0x67, 0x46, 0xa4, 0x3d, 0x33, 0x56, 0xee, 0xbb,
0xc7, 0x8a, 0x7a, 0x3d, 0x82, 0xd9, 0x5a, 0x3e, 0x6b, 0xb5, 0x95, 0x3e, 0x8e, 0x36, 0x8e, 0x3d,
0x44, 0xce, 0x2c, 0xbd, 0x9d, 0x31, 0x8a, 0x3d, 0xb1, 0xdf, 0x08, 0x3d, 0x96, 0x7b, 0xd2, 0x3c,
0xd3, 0xc6, 0x92, 0xbd, 0xfc, 0x17, 0x44, 0xbd, 0x65, 0x73, 0xf0, 0x3b, 0x00, 0xd2, 0x72, 0x3e,
0x97, 0xd3, 0xd1, 0xbd, 0xd5, 0x6b, 0x9f, 0xbd, 0xfe, 0x21, 0xc7, 0xbc, 0xe0, 0xae, 0x38, 0xbd,
0xfb, 0x1c, 0x50, 0xbe, 0x97, 0xa3, 0xa5, 0xbe, 0xe6, 0xe1, 0xa3, 0x3d, 0x62, 0xb9, 0x36, 0xbc,
0x61, 0xfc, 0xe5, 0xbd, 0x7c, 0xe9, 0xdc, 0x3e, 0x64, 0x62, 0x4f, 0xbe, 0x43, 0x9c, 0x35, 0xbd,
0x34, 0xd5, 0x96, 0xbe, 0x56, 0x5c, 0x4a, 0x3d, 0x31, 0xa2, 0x3d, 0xbe, 0x12, 0xd6, 0xa4, 0xbd,
0xe3, 0x9f, 0x8c, 0x3d, 0x1e, 0x4f, 0x0e, 0xbc, 0x45, 0x48, 0xf2, 0xbd, 0x49, 0x50, 0x69, 0x3e,
0xdd, 0x8f, 0xca, 0xbd, 0xb7, 0xda, 0x50, 0x3b, 0x8f, 0x09, 0x8e, 0xbe, 0x9c, 0xa7, 0xeb, 0x3d,
0x93, 0xf5, 0x96, 0xbe, 0xf6, 0x2d, 0x53, 0x3e, 0x58, 0x60, 0x20, 0x3c, 0xfe, 0x78, 0xd4, 0xbb,
0x3e, 0xec, 0xe9, 0x3b, 0x61, 0x11, 0x46, 0x3d, 0xe6, 0x3d, 0x08, 0x3e, 0x95, 0x77, 0xf4, 0xbb,
0x60, 0xe9, 0x87, 0xbb, 0xd1, 0x25, 0x30, 0xbd, 0x55, 0x37, 0xd9, 0xbd, 0x18, 0x37, 0xcf, 0x3d,
0x91, 0xac, 0x5f, 0xbc, 0x82, 0xae, 0x26, 0xbe, 0x17, 0xc4, 0x50, 0xbd, 0x96, 0x88, 0x15, 0xbe,
0x05, 0x9c, 0x57, 0xbe, 0x35, 0xb3, 0xbd, 0xbc, 0x44, 0x2b, 0xc2, 0xbd, 0xbe, 0x3c, 0x30, 0x3b,
0x3d, 0x2d, 0x35, 0x3d, 0x5b, 0x1c, 0x84, 0x3e, 0x2e, 0x02, 0xe4, 0xbd, 0xfa, 0x66, 0x7e, 0x3b,
0x0e, 0xcd, 0x33, 0x3e, 0xa2, 0x96, 0x5e, 0xbc, 0xc5, 0x79, 0xf9, 0x3c, 0xc9, 0xcd, 0x9c, 0xbd,
0xff, 0x40, 0x8f, 0xbd, 0xd0, 0x98, 0x1b, 0x3e, 0x66, 0x48, 0x44, 0x3e, 0xca, 0xca, 0xd1, 0x3d,
0x8b, 0x10, 0x57, 0xbe, 0xb1, 0x89, 0xc8, 0xba, 0x76, 0xde, 0xb3, 0xbd, 0x4b, 0x59, 0x88, 0xbe,
0xff, 0xd8, 0x17, 0xbe, 0x67, 0xbb, 0x29, 0x3d, 0xcc, 0x69, 0xa8, 0x3d, 0x7f, 0xed, 0x20, 0x3e,
0x65, 0x9d, 0xae, 0x3d, 0x34, 0xde, 0x4c, 0x3e, 0x52, 0x78, 0x43, 0xbe, 0x0e, 0x88, 0x8b, 0x3c,
0xf6, 0x77, 0x20, 0xbe, 0xb7, 0x61, 0x1a, 0xbe, 0x2b, 0x61, 0x0d, 0x3e, 0x2f, 0xf3, 0x9e, 0xbe,
0x05, 0x14, 0x4b, 0xbe, 0x7f, 0x89, 0xbb, 0x3d, 0x89, 0x34, 0x9f, 0xbe, 0xbd, 0xdf, 0x26, 0xbd,
0x60, 0x49, 0xa2, 0xbe, 0xa9, 0xe1, 0x9e, 0x3c, 0xac, 0xe7, 0xc5, 0xbb, 0x50, 0x9d, 0x73, 0xbe,
0x7f, 0xfd, 0x4e, 0xbd, 0x12, 0x1a, 0x23, 0xbe, 0x3d, 0xe3, 0x44, 0xbd, 0x1d, 0x32, 0x0e, 0x3e,
0xc4, 0xc5, 0x74, 0xbe, 0xa5, 0xee, 0xb1, 0x3e, 0xfb, 0x64, 0x2c, 0x3e, 0xd6, 0x6c, 0xc2, 0x3d,
0x66, 0x21, 0x63, 0xbe, 0xaa, 0x20, 0x24, 0xbe, 0xe5, 0x23, 0xcb, 0xbd, 0x01, 0x1b, 0x12, 0x3e,
0xd4, 0x74, 0x9a, 0x3c, 0x87, 0xa9, 0x54, 0xbd, 0x08, 0xf1, 0xfe, 0x3c, 0x7a, 0x8a, 0x8f, 0x3e,
0x22, 0xa0, 0xb0, 0x3d, 0x26, 0xf2, 0x86, 0x3e, 0xfc, 0x44, 0x31, 0x3d, 0x22, 0x49, 0x26, 0xbe,
0x6a, 0x3e, 0x0a, 0xbd, 0x24, 0x4b, 0xce, 0xbe, 0x27, 0x54, 0x6c, 0xbe, 0x52, 0x97, 0x85, 0xbe,
0x05, 0x06, 0x74, 0x3d, 0x02, 0xbd, 0x0a, 0x3d, 0x4e, 0x97, 0xda, 0x3d, 0xf9, 0xce, 0xa7, 0xbd,
0x14, 0x47, 0xd4, 0x3e, 0xf8, 0x2e, 0x10, 0xbd, 0x2c, 0xa7, 0xb3, 0x3e, 0x00, 0xad, 0x29, 0xbe,
0x6e, 0x4c, 0x8e, 0xbd, 0xb8, 0xf8, 0x84, 0x3e, 0x00, 0x3a, 0x39, 0x3e, 0xc6, 0xc6, 0x93, 0xbc,
0xbf, 0xcf, 0x51, 0xbc, 0xf2, 0xc8, 0x80, 0x3e, 0xb2, 0xb9, 0x85, 0xbd, 0xc6, 0x79, 0xd1, 0x3e,
0x74, 0xf5, 0xb8, 0xbe, 0xff, 0x12, 0xb4, 0x3d, 0xc2, 0xb9, 0x96, 0x3c, 0x9d, 0x51, 0xb5, 0x3d,
0x9a, 0xa7, 0x5a, 0xbe, 0x0b, 0x00, 0x88, 0x3e, 0x4c, 0xf4, 0x44, 0xbd, 0x04, 0xa8, 0x78, 0xbe,
0x45, 0x75, 0xdc, 0x3d, 0xf5, 0xe5, 0xd8, 0xbd, 0x11, 0x0a, 0x31, 0xbe, 0x98, 0xd2, 0x83, 0x3e,
0x99, 0x9a, 0x3e, 0xbd, 0x88, 0xff, 0x81, 0xbe, 0x83, 0xc5, 0xc5, 0x3d, 0x21, 0xc9, 0x33, 0x3e,
0xd0, 0xd1, 0x9b, 0xbc, 0x8c, 0x6d, 0x62, 0xbe, 0x46, 0x3c, 0xa5, 0x3c, 0xd6, 0xc8, 0x5e, 0xbb,
0xe7, 0x6c, 0x96, 0xbe, 0x14, 0xe6, 0xa2, 0xbd, 0x80, 0xcf, 0x76, 0x3d, 0xb4, 0x5e, 0x82, 0x3e,
0x13, 0xc2, 0xa8, 0x3d, 0x3d, 0x06, 0xa2, 0x3c, 0x7f, 0x3b, 0x35, 0x3e, 0xc3, 0xa9, 0x45, 0xbe,
0x42, 0x70, 0x07, 0x3b, 0x1d, 0xb9, 0x5c, 0xbe, 0x71, 0xd8, 0xc3, 0xbd, 0x58, 0x62, 0x1b, 0xbe,
0x5c, 0x4b, 0x10, 0xbe, 0xba, 0x57, 0x2d, 0x3c, 0x1c, 0x24, 0x30, 0xbe, 0xeb, 0xff, 0x60, 0xbd,
0x5f, 0xc2, 0x17, 0x3d, 0x2f, 0xbe, 0xb8, 0xbd, 0x1d, 0x79, 0x85, 0x3d, 0xf5, 0x88, 0xa6, 0xbd,
0xa3, 0x09, 0x6d, 0xbd, 0x76, 0x4b, 0x68, 0x3e, 0xc8, 0x7f, 0xa6, 0xbc, 0xbf, 0xb8, 0x4f, 0xbc,
0xaf, 0xc6, 0x27, 0xbe, 0x7a, 0x5a, 0x20, 0x3d, 0x13, 0xb5, 0x2d, 0xbe, 0x1c, 0x2e, 0x39, 0x3e,
0xe3, 0xe5, 0x46, 0xbe, 0xd9, 0xad, 0x09, 0xbe, 0x6b, 0x4e, 0x87, 0xbd, 0x02, 0xf0, 0x01, 0x3e,
0x37, 0x79, 0xa5, 0xbd, 0x49, 0x0b, 0x75, 0xbb, 0x78, 0x96, 0x4c, 0xbd, 0xd9, 0x0b, 0xec, 0xbd,
0x38, 0x00, 0xa2, 0x3e, 0xb3, 0x8a, 0x16, 0xbe, 0xdb, 0x5e, 0xde, 0xbd, 0xd1, 0x7f, 0xb4, 0x3e,
0x95, 0x84, 0xb7, 0xbd, 0xba, 0xdd, 0xf0, 0xbc, 0x9a, 0xa9, 0x50, 0x3e, 0x27, 0x78, 0xe8, 0x3d,
0x21, 0x70, 0x9e, 0xbd, 0xcc, 0x2c, 0x43, 0xbe, 0x68, 0x5c, 0x05, 0x3e, 0x06, 0x79, 0xfb, 0xbd,
0x37, 0x86, 0x22, 0xbe, 0x4a, 0x93, 0x48, 0x3b, 0x7d, 0x15, 0xc6, 0x3d, 0x6b, 0xee, 0x01, 0x3e,
0xc9, 0xf5, 0xb8, 0xbc, 0xa1, 0x12, 0x0b, 0x3e, 0xf6, 0xd0, 0x36, 0x3d, 0x02, 0x62, 0xaa, 0xbd,
0x1f, 0xf5, 0xa9, 0xbd, 0xd7, 0xf0, 0x18, 0x3e, 0xed, 0xc3, 0x68, 0xbd, 0x36, 0x09, 0x53, 0xbe,
0xc1, 0xcb, 0x9f, 0xbb, 0x38, 0xe3, 0xc9, 0x3d, 0xe7, 0x15, 0xcc, 0xbd, 0x8d, 0x28, 0x24, 0xbe,
0x71, 0x38, 0x83, 0x3e, 0x27, 0x19, 0x23, 0x3e, 0xf0, 0xb4, 0xa9, 0x3d, 0x27, 0x2f, 0x0d, 0xbe,
0xfd, 0xce, 0xd7, 0x3d, 0x93, 0xf1, 0x73, 0x3d, 0xed, 0xb0, 0x37, 0xbe, 0xe6, 0xf2, 0x1d, 0xbe,
0x48, 0x73, 0xb0, 0x3d, 0xe2, 0xf1, 0xb5, 0xbd, 0x9e, 0x64, 0x95, 0xbd, 0xba, 0x8b, 0x79, 0x3d,
0xbd, 0x5b, 0xfc, 0xbd, 0xdd, 0x81, 0x15, 0x3d, 0xba, 0x55, 0xb8, 0xbc, 0xc9, 0xcb, 0x02, 0x3c,
0x1b, 0x6e, 0x20, 0xbe, 0xf4, 0x29, 0x1e, 0x3e, 0xd1, 0xaf, 0x91, 0x3d, 0xb1, 0x6d, 0xb0, 0xbb,
0x57, 0x55, 0x7a, 0xbe, 0xbb, 0x0f, 0x3e, 0xbd, 0xaf, 0xa2, 0xb2, 0x3c, 0xac, 0xd5, 0x0b, 0xbd,
0x37, 0xae, 0x46, 0x3e, 0x79, 0xdb, 0x6a, 0xbe, 0xd8, 0xff, 0x95, 0xbd, 0x9c, 0xf5, 0x6d, 0xbe,
0x21, 0xbc, 0x04, 0xbe, 0xaf, 0xea, 0x8f, 0xbd, 0xf9, 0x28, 0xc0, 0xbd, 0x5a, 0xf5, 0x2a, 0xbe,
0x8e, 0x77, 0xd9, 0x3d, 0xbb, 0xd7, 0x30, 0x3d, 0x12, 0x70, 0x0d, 0x3e, 0x8e, 0x14, 0x0d, 0xbd,
0xab, 0x03, 0x7c, 0x3d, 0x00, 0x3f, 0x9d, 0x3d, 0x7c, 0x68, 0xd0, 0xbd, 0xfc, 0x3f, 0x81, 0x3c,
0xb8, 0x33, 0x00, 0xbd, 0xd4, 0x24, 0xa0, 0x3d, 0x4d, 0x70, 0x89, 0x3e, 0xe4, 0xb1, 0x00, 0x3c,
0xa9, 0xa2, 0x51, 0xbe, 0x04, 0xc7, 0x9a, 0x3d, 0x0f, 0xe5, 0x09, 0x3e, 0x3a, 0xe3, 0x5e, 0xbe,
0x01, 0xac, 0x3f, 0xbd, 0x2b, 0x85, 0x96, 0x3e, 0xf7, 0xbc, 0xba, 0xbd, 0x73, 0x69, 0xeb, 0x3c,
0x12, 0xd8, 0x5a, 0x3d, 0xf2, 0xcc, 0x0d, 0xbe, 0xc9, 0x54, 0xd1, 0xbb, 0x29, 0x2e, 0xa6, 0xbd,
0xfe, 0x00, 0x62, 0xbe, 0xea, 0xe2, 0x20, 0x3e, 0xaa, 0xf5, 0xc7, 0x3d, 0x71, 0x0d, 0x78, 0x3d,
0xf5, 0x02, 0x51, 0xbe, 0x9e, 0xa0, 0x5a, 0xbe, 0x1b, 0xf6, 0x67, 0x3b, 0x53, 0xf3, 0xc9, 0xbc,
0xc6, 0x63, 0xef, 0xbd, 0xb6, 0x89, 0x27, 0x3e, 0x7a, 0x85, 0x49, 0x3d, 0xff, 0x18, 0xf7, 0x3c,
0x5f, 0x24, 0x3a, 0xbe, 0xc7, 0xd4, 0x2d, 0xbd, 0x47, 0xe7, 0xf3, 0x3c, 0xd3, 0x34, 0x87, 0xbb,
0x28, 0x24, 0x29, 0x3e, 0x0b, 0x16, 0x63, 0xbe, 0x66, 0xf8, 0x79, 0xbd, 0x88, 0x9d, 0x4a, 0xbe,
0x08, 0x3a, 0xd0, 0xbd, 0x98, 0x10, 0x18, 0xbe, 0x4d, 0x54, 0x96, 0xbd, 0x00, 0x44, 0x44, 0xbe,
0x9b, 0xc9, 0x81, 0x3d, 0x2a, 0x53, 0x1f, 0x3d, 0x3f, 0xdf, 0x35, 0x3e, 0xf0, 0x5f, 0xae, 0xbc,
0x48, 0x6b, 0x9d, 0x3d, 0xe1, 0x2b, 0x9e, 0xbb, 0xb5, 0x27, 0x02, 0xbe, 0xa1, 0xde, 0xb4, 0x39,
0x21, 0xe3, 0xda, 0xba, 0x9b, 0x05, 0x79, 0x3d, 0x88, 0x99, 0x80, 0x3e, 0x0b, 0x0a, 0xb7, 0xbc,
0xac, 0xbd, 0x1f, 0xbe, 0x73, 0xcf, 0x9c, 0x3d, 0x33, 0xdf, 0xb5, 0x3d, 0x3b, 0x87, 0x56, 0xbe,
0x43, 0x55, 0xac, 0xbd, 0x15, 0x88, 0xa8, 0x3e, 0xd5, 0x77, 0x91, 0xbd, 0xda, 0x2f, 0xa5, 0xbb,
0x0a, 0xe7, 0x82, 0x3d, 0x02, 0x1e, 0xb4, 0xbd, 0x75, 0xd0, 0x14, 0x3d, 0xaf, 0xb2, 0xfd, 0xbd,
0xcf, 0xd3, 0x02, 0xbe, 0x47, 0x55, 0xcb, 0x3d, 0xa1, 0x13, 0x51, 0x3e, 0x8b, 0xba, 0xa7, 0x3d,
0x70, 0x10, 0x89, 0xbe, 0x6a, 0xc3, 0x3a, 0xbe, 0x40, 0x77, 0xea, 0x3d, 0xbf, 0x4d, 0x93, 0xbe,
0x64, 0xfd, 0xc4, 0xbe, 0x54, 0x33, 0x62, 0xbd, 0x03, 0x86, 0x28, 0x3e, 0xd3, 0x91, 0x03, 0xbe,
0x1c, 0xb8, 0x21, 0x3c, 0x41, 0x52, 0x05, 0x3d, 0xbd, 0x25, 0x8c, 0x3d, 0x5b, 0x5a, 0x07, 0xbe,
0x71, 0x60, 0x2b, 0xbe, 0xaa, 0xc3, 0xdc, 0x3e, 0x90, 0xc1, 0x21, 0x3e, 0xf8, 0x95, 0x6b, 0x3e,
0xa8, 0x7e, 0xff, 0xbd, 0xfe, 0x76, 0xa4, 0xbd, 0x35, 0x2f, 0x04, 0x3e, 0x94, 0xb5, 0x68, 0xbe,
0xd0, 0x59, 0x80, 0x3e, 0xc0, 0xc4, 0xfb, 0xbd, 0xf4, 0xf3, 0xe2, 0xbd, 0x8e, 0x60, 0x65, 0xbe,
0xc7, 0xc1, 0x37, 0x3d, 0xbb, 0xd9, 0xfe, 0xbd, 0x6b, 0x28, 0x00, 0xbe, 0x5e, 0xfb, 0x03, 0xbe,
0xb7, 0x46, 0x09, 0x3d, 0x64, 0x85, 0xfb, 0xbd, 0x72, 0x38, 0x0d, 0x3c, 0x54, 0x96, 0x38, 0xbe,
0x29, 0x71, 0x8c, 0xbd, 0x68, 0xf6, 0x0f, 0xbe, 0x78, 0x5e, 0x0e, 0x3d, 0x7b, 0xaa, 0x34, 0xbe,
0x03, 0x8a, 0xe1, 0x3e, 0x3d, 0x10, 0xab, 0x3d, 0x11, 0xd7, 0xa0, 0x3d, 0xd7, 0xb3, 0x95, 0xbe,
0x7d, 0xc5, 0x46, 0x3d, 0xf1, 0xef, 0xc8, 0x3d, 0x3a, 0xc5, 0x11, 0x3e, 0x79, 0x33, 0xed, 0xbd,
0x88, 0x86, 0x28, 0x3d, 0xa9, 0x2c, 0x9a, 0x3e, 0xf9, 0x37, 0xbc, 0xbb, 0x43, 0x9b, 0x01, 0x3d,
0x33, 0x83, 0x92, 0xbd, 0x07, 0x0b, 0xac, 0xbb, 0x32, 0xfc, 0xff, 0xff, 0x04, 0x00, 0x00, 0x00,
0x40, 0x00, 0x00, 0x00, 0x00, 0x00, 0x00, 0x00, 0x00, 0x00, 0x00, 0x00, 0x00, 0x00, 0x00, 0x00,
0x00, 0x00, 0x00, 0x00, 0x00, 0x00, 0x00, 0x00, 0x00, 0x00, 0x00, 0x00, 0x00, 0x00, 0x00, 0x00,
0x00, 0x00, 0x00, 0x00, 0x00, 0x00, 0x00, 0x00, 0x00, 0x00, 0x00, 0x00, 0x00, 0x00, 0x00, 0x00,
0x00, 0x00, 0x00, 0x00, 0x00, 0x00, 0x00, 0x00, 0x00, 0x00, 0x00, 0x00, 0x00, 0x00, 0x00, 0x00,
0x00, 0x00, 0x00, 0x00, 0x7e, 0xfc, 0xff, 0xff, 0x04, 0x00, 0x00, 0x00, 0x40, 0x02, 0x00, 0x00,
0x76, 0xe2, 0xce, 0x3e, 0x72, 0xb2, 0x75, 0xbe, 0xcc, 0xbd, 0x42, 0x3f, 0xcc, 0xf1, 0x59, 0xbd,
0x68, 0x31, 0x37, 0x3f, 0x38, 0x6d, 0x36, 0xbf, 0xdc, 0x6e, 0x37, 0x3e, 0x0d, 0xbe, 0xce, 0xbe,
0x7e, 0x25, 0x35, 0xbe, 0xa2, 0xf3, 0x58, 0x3f, 0x57, 0x2a, 0x22, 0xbe, 0x9c, 0x0b, 0xb4, 0x3f,
0x4e, 0xdb, 0xb1, 0xbe, 0x5a, 0x62, 0x9e, 0x3e, 0xca, 0x79, 0x52, 0xbf, 0x6a, 0xdd, 0x76, 0xbf,
0xf8, 0x90, 0x4b, 0xbe, 0xd3, 0x78, 0x06, 0xbf, 0x61, 0x0b, 0x06, 0x3d, 0x37, 0x32, 0xf7, 0xbd,
0xee, 0xc6, 0x97, 0xbe, 0x5d, 0x39, 0x36, 0x3d, 0xf4, 0x44, 0x00, 0x3f, 0x3a, 0xdf, 0x63, 0xbf,
0x84, 0xb2, 0x1f, 0x3c, 0x23, 0x40, 0xf8, 0xbe, 0x44, 0x99, 0xa7, 0xbe, 0x44, 0x01, 0x66, 0xbf,
0x23, 0x7e, 0x0c, 0x3f, 0x6b, 0x06, 0x00, 0xbf, 0xe5, 0xa3, 0x52, 0x3f, 0xf5, 0x6c, 0x85, 0xbf,
0xc3, 0xf7, 0x78, 0x3e, 0x89, 0x45, 0x59, 0xbd, 0x65, 0x48, 0x7f, 0x3e, 0x90, 0x04, 0xad, 0x3e,
0x25, 0x02, 0xcd, 0xbe, 0x81, 0x01, 0xae, 0x38, 0x2d, 0x64, 0x8d, 0xbf, 0x4a, 0xaf, 0xe1, 0x3e,
0x38, 0xb1, 0xbd, 0xbd, 0x38, 0x75, 0xdf, 0x3f, 0xe4, 0x27, 0x84, 0xbe, 0x9b, 0xc9, 0xaf, 0x3e,
0x7f, 0xe7, 0x67, 0xbe, 0x1b, 0x5e, 0x89, 0x3e, 0x35, 0x1c, 0xe8, 0x3e, 0xe1, 0x32, 0xa9, 0xbe,
0x7c, 0xc6, 0xd3, 0x3e, 0x5a, 0xbc, 0xf0, 0xbc, 0x65, 0xf3, 0xcf, 0xbe, 0x36, 0x44, 0x44, 0xbf,
0xb2, 0xbd, 0x91, 0xbe, 0xc1, 0x7a, 0x90, 0xbe, 0xea, 0x69, 0x93, 0xbd, 0xee, 0x0c, 0x2a, 0x3f,
0xa9, 0xa1, 0x9e, 0x3f, 0x07, 0x14, 0x8d, 0x3e, 0x38, 0x23, 0x53, 0xbf, 0xcd, 0xdd, 0xe2, 0xbe,
0xd5, 0xe7, 0x4f, 0xbe, 0x17, 0xa7, 0x6d, 0x3e, 0x64, 0xd0, 0x36, 0xbf, 0x6f, 0xba, 0x9a, 0x3e,
0xff, 0xc1, 0x82, 0x3e, 0xc5, 0xef, 0x7b, 0xbe, 0x31, 0xad, 0x0b, 0x3f, 0x39, 0x97, 0x23, 0xbe,
0x1f, 0xb2, 0x56, 0xbf, 0xe5, 0x5f, 0x93, 0xbe, 0x3e, 0x97, 0xb5, 0x3e, 0x4f, 0x30, 0x94, 0x3f,
0xf3, 0x2c, 0xc6, 0xbe, 0x95, 0xfa, 0x04, 0x3e, 0x7f, 0xbf, 0x16, 0xbc, 0xf9, 0xf9, 0xb3, 0xbe,
0x90, 0x48, 0x44, 0x3e, 0x3b, 0x1d, 0x31, 0x3f, 0x40, 0xc8, 0x3d, 0x3d, 0x50, 0x87, 0xca, 0xbe,
0x3a, 0xdf, 0x0d, 0x3f, 0x55, 0x4c, 0x51, 0x3f, 0xef, 0x24, 0xac, 0xbe, 0x57, 0x46, 0x63, 0x3f,
0x41, 0xba, 0x89, 0xbf, 0x66, 0x5d, 0xe8, 0x3e, 0x1b, 0xcb, 0x77, 0xbf, 0xa6, 0xa5, 0xee, 0xbd,
0x03, 0x45, 0x65, 0xbe, 0xc0, 0x8e, 0x35, 0x3e, 0x60, 0x6e, 0xbd, 0x3e, 0x30, 0x49, 0x31, 0xbe,
0x34, 0x1d, 0xba, 0xbe, 0x32, 0x19, 0x35, 0xbf, 0x41, 0x7a, 0x1f, 0x3f, 0xb4, 0x61, 0x29, 0x3f,
0x2d, 0x23, 0x76, 0x3f, 0x63, 0x1d, 0x15, 0xbf, 0xb0, 0xd5, 0x5c, 0xbf, 0x8f, 0x0e, 0x11, 0x3f,
0x8f, 0xe2, 0xca, 0x3e, 0x82, 0x6d, 0x81, 0xbe, 0x31, 0x6e, 0x50, 0xbf, 0xc3, 0x1a, 0xa6, 0xbe,
0x82, 0xea, 0x6c, 0xbf, 0xf4, 0xc9, 0x31, 0x3f, 0x6f, 0x2c, 0xae, 0x3e, 0x44, 0x6b, 0x9d, 0x3f,
0x27, 0xb3, 0x87, 0xbe, 0x3d, 0xb0, 0x87, 0x3f, 0x9e, 0x36, 0xfe, 0x3e, 0x23, 0x2e, 0xd7, 0x3d,
0xd6, 0xe0, 0x70, 0xbe, 0x6d, 0xac, 0x53, 0xbe, 0x9b, 0x17, 0x22, 0x3e, 0x30, 0x89, 0x8d, 0xbf,
0xec, 0xf4, 0xbe, 0xbe, 0x70, 0x61, 0x61, 0xbf, 0x0f, 0x52, 0x02, 0xbf, 0xf5, 0xfa, 0x08, 0x3e,
0xb6, 0x7c, 0xee, 0x3e, 0x83, 0xd2, 0x37, 0x3f, 0x15, 0x5a, 0xd9, 0x3e, 0x55, 0xb0, 0x44, 0xbf,
0x20, 0xaf, 0xf3, 0xbe, 0x1f, 0xcf, 0xc2, 0xbe, 0xd4, 0x44, 0x28, 0x3e, 0x39, 0xdc, 0x43, 0xbe,
0xfb, 0xf9, 0x31, 0xbf, 0x67, 0xd4, 0xdc, 0xbe, 0x56, 0xc7, 0x48, 0x3f, 0x21, 0xd8, 0x4d, 0x3e,
0xfc, 0x86, 0x62, 0x3d, 0x9f, 0x29, 0xe7, 0xbe, 0xb6, 0xf7, 0xbb, 0x3e, 0x85, 0x21, 0x01, 0xbf,
0xe2, 0xb5, 0x3c, 0x3e, 0x52, 0xa2, 0x5a, 0x3d, 0xfc, 0xa0, 0x48, 0xbf, 0xdd, 0x1f, 0x01, 0xbf,
0x51, 0x65, 0x0a, 0x3e, 0x31, 0xd5, 0xfd, 0x3c, 0xe2, 0xe1, 0x58, 0xbf, 0xdb, 0xfc, 0x0d, 0xbf,
0xca, 0xfe, 0xff, 0xff, 0x04, 0x00, 0x00, 0x00, 0x40, 0x00, 0x00, 0x00, 0xa8, 0x61, 0x64, 0x3e,
0xdd, 0x81, 0x56, 0xbe, 0x5f, 0x0d, 0x98, 0x3f, 0x20, 0x0d, 0xd6, 0x3f, 0x45, 0xfd, 0xc9, 0xbf,
0xf0, 0x33, 0xe8, 0x3f, 0xba, 0x94, 0xfb, 0x3e, 0xe7, 0x02, 0xb5, 0xbe, 0xf8, 0x6d, 0x8b, 0x3d,
0xfe, 0x4a, 0xed, 0x3f, 0x53, 0xc6, 0x8e, 0x3f, 0x66, 0x3e, 0x0f, 0x3f, 0x6f, 0xbc, 0xde, 0x3e,
0x43, 0x03, 0xcd, 0x3f, 0xc1, 0xd7, 0xd5, 0x3f, 0x8a, 0xd2, 0xd1, 0x3e, 0x16, 0xff, 0xff, 0xff,
0x04, 0x00, 0x00, 0x00, 0x40, 0x00, 0x00, 0x00, 0xd0, 0x78, 0x00, 0x3f, 0x34, 0xcd, 0x54, 0xbf,
0xf2, 0x1f, 0xfd, 0x3e, 0xae, 0xd4, 0x4b, 0xbd, 0xcd, 0x12, 0x9c, 0xbe, 0x18, 0xee, 0x56, 0xbd,
0xdc, 0x26, 0xe7, 0xbd, 0x60, 0x6f, 0x00, 0x3f, 0xad, 0xa6, 0xf6, 0xbe, 0x94, 0x7f, 0x65, 0xbe,
0xfe, 0x70, 0xf3, 0x3e, 0x16, 0x52, 0x38, 0xbe, 0x6e, 0x8b, 0x03, 0xbf, 0x99, 0x10, 0xd4, 0xbe,
0x8e, 0x8f, 0x3e, 0x3d, 0xde, 0xf9, 0x5c, 0xbe, 0x74, 0xef, 0xff, 0xff, 0x78, 0xef, 0xff, 0xff,
0x0f, 0x00, 0x00, 0x00, 0x4d, 0x4c, 0x49, 0x52, 0x20, 0x43, 0x6f, 0x6e, 0x76, 0x65, 0x72, 0x74,
0x65, 0x64, 0x2e, 0x00, 0x01, 0x00, 0x00, 0x00, 0x14, 0x00, 0x00, 0x00, 0x00, 0x00, 0x0e, 0x00,
0x18, 0x00, 0x14, 0x00, 0x10, 0x00, 0x0c, 0x00, 0x08, 0x00, 0x04, 0x00, 0x0e, 0x00, 0x00, 0x00,
0x14, 0x00, 0x00, 0x00, 0x1c, 0x00, 0x00, 0x00, 0x74, 0x02, 0x00, 0x00, 0x78, 0x02, 0x00, 0x00,
0x7c, 0x02, 0x00, 0x00, 0x04, 0x00, 0x00, 0x00, 0x6d, 0x61, 0x69, 0x6e, 0x00, 0x00, 0x00, 0x00,
0x0a, 0x00, 0x00, 0x00, 0x38, 0x02, 0x00, 0x00, 0xdc, 0x01, 0x00, 0x00, 0x8c, 0x01, 0x00, 0x00,
0x48, 0x01, 0x00, 0x00, 0x24, 0x01, 0x00, 0x00, 0xd0, 0x00, 0x00, 0x00, 0xac, 0x00, 0x00, 0x00,
0x78, 0x00, 0x00, 0x00, 0x40, 0x00, 0x00, 0x00, 0x04, 0x00, 0x00, 0x00, 0x56, 0xfe, 0xff, 0xff,
0x1c, 0x00, 0x00, 0x00, 0x00, 0x00, 0x00, 0x09, 0x1c, 0x00, 0x00, 0x00, 0x20, 0x00, 0x00, 0x00,
0x05, 0x00, 0x00, 0x00, 0x00, 0x00, 0x06, 0x00, 0x08, 0x00, 0x04, 0x00, 0x06, 0x00, 0x00, 0x00,
0x00, 0x00, 0x80, 0x3f, 0x01, 0x00, 0x00, 0x00, 0x16, 0x00, 0x00, 0x00, 0x01, 0x00, 0x00, 0x00,
0x15, 0x00, 0x00, 0x00, 0x8e, 0xfe, 0xff, 0xff, 0x14, 0x00, 0x00, 0x00, 0x00, 0x00, 0x00, 0x08,
0x10, 0x00, 0x00, 0x00, 0x14, 0x00, 0x00, 0x00, 0x04, 0x00, 0x00, 0x00, 0x48, 0xf0, 0xff, 0xff,
0x01, 0x00, 0x00, 0x00, 0x15, 0x00, 0x00, 0x00, 0x03, 0x00, 0x00, 0x00, 0x14, 0x00, 0x00, 0x00,
0x0c, 0x00, 0x00, 0x00, 0x0a, 0x00, 0x00, 0x00, 0xc2, 0xfe, 0xff, 0xff, 0x14, 0x00, 0x00, 0x00,
0x00, 0x00, 0x00, 0x1b, 0x10, 0x00, 0x00, 0x00, 0x14, 0x00, 0x00, 0x00, 0x03, 0x00, 0x00, 0x00,
0x7c, 0xf0, 0xff, 0xff, 0x01, 0x00, 0x00, 0x00, 0x14, 0x00, 0x00, 0x00, 0x02, 0x00, 0x00, 0x00,
0x13, 0x00, 0x00, 0x00, 0x0b, 0x00, 0x00, 0x00, 0x96, 0xfe, 0xff, 0xff, 0x08, 0x00, 0x00, 0x00,
0x0c, 0x00, 0x00, 0x00, 0x01, 0x00, 0x00, 0x00, 0x13, 0x00, 0x00, 0x00, 0x02, 0x00, 0x00, 0x00,
0x12, 0x00, 0x00, 0x00, 0x08, 0x00, 0x00, 0x00, 0x12, 0xff, 0xff, 0xff, 0x24, 0x00, 0x00, 0x00,
0x00, 0x00, 0x00, 0x05, 0x34, 0x00, 0x00, 0x00, 0x38, 0x00, 0x00, 0x00, 0x02, 0x00, 0x00, 0x00,
0x00, 0x00, 0x0e, 0x00, 0x18, 0x00, 0x17, 0x00, 0x10, 0x00, 0x0c, 0x00, 0x08, 0x00, 0x04, 0x00,
0x0e, 0x00, 0x00, 0x00, 0x02, 0x00, 0x00, 0x00, 0x01, 0x00, 0x00, 0x00, 0x02, 0x00, 0x00, 0x00,
0x01, 0x00, 0x00, 0x00, 0x00, 0x00, 0x00, 0x01, 0x01, 0x00, 0x00, 0x00, 0x12, 0x00, 0x00, 0x00,
0x01, 0x00, 0x00, 0x00, 0x11, 0x00, 0x00, 0x00, 0x06, 0xff, 0xff, 0xff, 0x08, 0x00, 0x00, 0x00,
0x0c, 0x00, 0x00, 0x00, 0x01, 0x00, 0x00, 0x00, 0x11, 0x00, 0x00, 0x00, 0x02, 0x00, 0x00, 0x00,
0x10, 0x00, 0x00, 0x00, 0x07, 0x00, 0x00, 0x00, 0x82, 0xff, 0xff, 0xff, 0x14, 0x00, 0x00, 0x00,
0x00, 0x00, 0x00, 0x01, 0x1c, 0x00, 0x00, 0x00, 0x20, 0x00, 0x00, 0x00, 0x01, 0x00, 0x00, 0x00,
0x74, 0xff, 0xff, 0xff, 0x00, 0x00, 0x00, 0x01, 0x01, 0x00, 0x00, 0x00, 0x01, 0x00, 0x00, 0x00,
0x01, 0x00, 0x00, 0x00, 0x10, 0x00, 0x00, 0x00, 0x03, 0x00, 0x00, 0x00, 0x0f, 0x00, 0x00, 0x00,
0x05, 0x00, 0x00, 0x00, 0x02, 0x00, 0x00, 0x00, 0xc2, 0xff, 0xff, 0xff, 0x14, 0x00, 0x00, 0x00,
0x00, 0x00, 0x00, 0x01, 0x18, 0x00, 0x00, 0x00, 0x1c, 0x00, 0x00, 0x00, 0x01, 0x00, 0x00, 0x00,
0x7e, 0xff, 0xff, 0xff, 0x01, 0x00, 0x00, 0x00, 0x01, 0x00, 0x00, 0x00, 0x01, 0x00, 0x00, 0x00,
0x0f, 0x00, 0x00, 0x00, 0x03, 0x00, 0x00, 0x00, 0x0e, 0x00, 0x00, 0x00, 0x09, 0x00, 0x00, 0x00,
0x04, 0x00, 0x00, 0x00, 0x00, 0x00, 0x0e, 0x00, 0x18, 0x00, 0x14, 0x00, 0x10, 0x00, 0x0c, 0x00,
0x0b, 0x00, 0x04, 0x00, 0x0e, 0x00, 0x00, 0x00, 0x20, 0x00, 0x00, 0x00, 0x00, 0x00, 0x00, 0x01,
0x28, 0x00, 0x00, 0x00, 0x2c, 0x00, 0x00, 0x00, 0x01, 0x00, 0x00, 0x00, 0x0c, 0x00, 0x10, 0x00,
0x00, 0x00, 0x0c, 0x00, 0x08, 0x00, 0x07, 0x00, 0x0c, 0x00, 0x00, 0x00, 0x00, 0x00, 0x00, 0x01,
0x01, 0x00, 0x00, 0x00, 0x02, 0x00, 0x00, 0x00, 0x01, 0x00, 0x00, 0x00, 0x0e, 0x00, 0x00, 0x00,
0x03, 0x00, 0x00, 0x00, 0x0d, 0x00, 0x00, 0x00, 0x03, 0x00, 0x00, 0x00, 0x01, 0x00, 0x00, 0x00,
0x00, 0x00, 0x0a, 0x00, 0x0c, 0x00, 0x00, 0x00, 0x08, 0x00, 0x04, 0x00, 0x0a, 0x00, 0x00, 0x00,
0x08, 0x00, 0x00, 0x00, 0x0c, 0x00, 0x00, 0x00, 0x01, 0x00, 0x00, 0x00, 0x0d, 0x00, 0x00, 0x00,
0x02, 0x00, 0x00, 0x00, 0x00, 0x00, 0x00, 0x00, 0x06, 0x00, 0x00, 0x00, 0x01, 0x00, 0x00, 0x00,
0x16, 0x00, 0x00, 0x00, 0x01, 0x00, 0x00, 0x00, 0x00, 0x00, 0x00, 0x00, 0x17, 0x00, 0x00, 0x00,
0xac, 0x0d, 0x00, 0x00, 0x30, 0x0d, 0x00, 0x00, 0xcc, 0x0c, 0x00, 0x00, 0x84, 0x0b, 0x00, 0x00,
0x24, 0x0b, 0x00, 0x00, 0x10, 0x0a, 0x00, 0x00, 0xa4, 0x09, 0x00, 0x00, 0x24, 0x09, 0x00, 0x00,
0xc0, 0x08, 0x00, 0x00, 0x54, 0x08, 0x00, 0x00, 0xe4, 0x07, 0x00, 0x00, 0x74, 0x07, 0x00, 0x00,
0x10, 0x07, 0x00, 0x00, 0x98, 0x06, 0x00, 0x00, 0xb0, 0x04, 0x00, 0x00, 0x44, 0x04, 0x00, 0x00,
0x8c, 0x02, 0x00, 0x00, 0x1c, 0x02, 0x00, 0x00, 0xb0, 0x01, 0x00, 0x00, 0x48, 0x01, 0x00, 0x00,
0xe8, 0x00, 0x00, 0x00, 0x50, 0x00, 0x00, 0x00, 0x04, 0x00, 0x00, 0x00, 0xc6, 0xf2, 0xff, 0xff,
0x00, 0x00, 0x00, 0x01, 0x10, 0x00, 0x00, 0x00, 0x10, 0x00, 0x00, 0x00, 0x17, 0x00, 0x00, 0x00,
0x28, 0x00, 0x00, 0x00, 0xb0, 0xf2, 0xff, 0xff, 0x19, 0x00, 0x00, 0x00, 0x53, 0x74, 0x61, 0x74,
0x65, 0x66, 0x75, 0x6c, 0x50, 0x61, 0x72, 0x74, 0x69, 0x74, 0x69, 0x6f, 0x6e, 0x65, 0x64, 0x43,
0x61, 0x6c, 0x6c, 0x3a, 0x30, 0x00, 0x00, 0x00, 0x02, 0x00, 0x00, 0x00, 0x01, 0x00, 0x00, 0x00,
0x02, 0x00, 0x00, 0x00, 0x0e, 0xf3, 0xff, 0xff, 0x00, 0x00, 0x00, 0x01, 0x10, 0x00, 0x00, 0x00,
0x10, 0x00, 0x00, 0x00, 0x16, 0x00, 0x00, 0x00, 0x74, 0x00, 0x00, 0x00, 0xf8, 0xf2, 0xff, 0xff,
0x64, 0x00, 0x00, 0x00, 0x6d, 0x6f, 0x64, 0x65, 0x6c, 0x2f, 0x66, 0x61, 0x6e, 0x2d, 0x61, 0x64,
0x2d, 0x63, 0x6f, 0x6e, 0x76, 0x31, 0x64, 0x2d, 0x73, 0x6d, 0x61, 0x6c, 0x6c, 0x2d, 0x73, 0x70,
0x65, 0x65, 0x64, 0x2d, 0x31, 0x2f, 0x6c, 0x61, 0x79, 0x65, 0x72, 0x5f, 0x31, 0x30, 0x2f, 0x4d,
0x61, 0x74, 0x4d, 0x75, 0x6c, 0x3b, 0x6d, 0x6f, 0x64, 0x65, 0x6c, 0x2f, 0x66, 0x61, 0x6e, 0x2d,
0x61, 0x64, 0x2d, 0x63, 0x6f, 0x6e, 0x76, 0x31, 0x64, 0x2d, 0x73, 0x6d, 0x61, 0x6c, 0x6c, 0x2d,
0x73, 0x70, 0x65, 0x65, 0x64, 0x2d, 0x31, 0x2f, 0x6c, 0x61, 0x79, 0x65, 0x72, 0x5f, 0x31, 0x30,
0x2f, 0x42, 0x69, 0x61, 0x73, 0x41, 0x64, 0x64, 0x00, 0x00, 0x00, 0x00, 0x02, 0x00, 0x00, 0x00,
0x01, 0x00, 0x00, 0x00, 0x02, 0x00, 0x00, 0x00, 0xa2, 0xf3, 0xff, 0xff, 0x00, 0x00, 0x00, 0x01,
0x10, 0x00, 0x00, 0x00, 0x10, 0x00, 0x00, 0x00, 0x15, 0x00, 0x00, 0x00, 0x3c, 0x00, 0x00, 0x00,
0x8c, 0xf3, 0xff, 0xff, 0x2e, 0x00, 0x00, 0x00, 0x6d, 0x6f, 0x64, 0x65, 0x6c, 0x2f, 0x66, 0x61,
0x6e, 0x2d, 0x61, 0x64, 0x2d, 0x63, 0x6f, 0x6e, 0x76, 0x31, 0x64, 0x2d, 0x73, 0x6d, 0x61, 0x6c,
0x6c, 0x2d, 0x73, 0x70, 0x65, 0x65, 0x64, 0x2d, 0x31, 0x2f, 0x6c, 0x61, 0x79, 0x65, 0x72, 0x5f,
0x39, 0x2f, 0x4d, 0x65, 0x61, 0x6e, 0x00, 0x00, 0x02, 0x00, 0x00, 0x00, 0x01, 0x00, 0x00, 0x00,
0x10, 0x00, 0x00, 0x00, 0xfe, 0xf3, 0xff, 0xff, 0x00, 0x00, 0x00, 0x01, 0x10, 0x00, 0x00, 0x00,
0x10, 0x00, 0x00, 0x00, 0x14, 0x00, 0x00, 0x00, 0x40, 0x00, 0x00, 0x00, 0xe8, 0xf3, 0xff, 0xff,
0x32, 0x00, 0x00, 0x00, 0x6d, 0x6f, 0x64, 0x65, 0x6c, 0x2f, 0x66, 0x61, 0x6e, 0x2d, 0x61, 0x64,
0x2d, 0x63, 0x6f, 0x6e, 0x76, 0x31, 0x64, 0x2d, 0x73, 0x6d, 0x61, 0x6c, 0x6c, 0x2d, 0x73, 0x70,
0x65, 0x65, 0x64, 0x2d, 0x31, 0x2f, 0x6c, 0x61, 0x79, 0x65, 0x72, 0x5f, 0x37, 0x2f, 0x53, 0x71,
0x75, 0x65, 0x65, 0x7a, 0x65, 0x31, 0x00, 0x00, 0x03, 0x00, 0x00, 0x00, 0x01, 0x00, 0x00, 0x00,
0x0c, 0x00, 0x00, 0x00, 0x10, 0x00, 0x00, 0x00, 0x62, 0xf4, 0xff, 0xff, 0x00, 0x00, 0x00, 0x01,
0x10, 0x00, 0x00, 0x00, 0x10, 0x00, 0x00, 0x00, 0x13, 0x00, 0x00, 0x00, 0x40, 0x00, 0x00, 0x00,
0x4c, 0xf4, 0xff, 0xff, 0x31, 0x00, 0x00, 0x00, 0x6d, 0x6f, 0x64, 0x65, 0x6c, 0x2f, 0x66, 0x61,
0x6e, 0x2d, 0x61, 0x64, 0x2d, 0x63, 0x6f, 0x6e, 0x76, 0x31, 0x64, 0x2d, 0x73, 0x6d, 0x61, 0x6c,
0x6c, 0x2d, 0x73, 0x70, 0x65, 0x65, 0x64, 0x2d, 0x31, 0x2f, 0x6c, 0x61, 0x79, 0x65, 0x72, 0x5f,
0x37, 0x2f, 0x4d, 0x61, 0x78, 0x50, 0x6f, 0x6f, 0x6c, 0x00, 0x00, 0x00, 0x04, 0x00, 0x00, 0x00,
0x01, 0x00, 0x00, 0x00, 0x0c, 0x00, 0x00, 0x00, 0x01, 0x00, 0x00, 0x00, 0x10, 0x00, 0x00, 0x00,
0xca, 0xf4, 0xff, 0xff, 0x00, 0x00, 0x00, 0x01, 0x10, 0x00, 0x00, 0x00, 0x10, 0x00, 0x00, 0x00,
0x12, 0x00, 0x00, 0x00, 0x44, 0x00, 0x00, 0x00, 0xb4, 0xf4, 0xff, 0xff, 0x35, 0x00, 0x00, 0x00,
0x6d, 0x6f, 0x64, 0x65, 0x6c, 0x2f, 0x66, 0x61, 0x6e, 0x2d, 0x61, 0x64, 0x2d, 0x63, 0x6f, 0x6e,
0x76, 0x31, 0x64, 0x2d, 0x73, 0x6d, 0x61, 0x6c, 0x6c, 0x2d, 0x73, 0x70, 0x65, 0x65, 0x64, 0x2d,
0x31, 0x2f, 0x6c, 0x61, 0x79, 0x65, 0x72, 0x5f, 0x37, 0x2f, 0x45, 0x78, 0x70, 0x61, 0x6e, 0x64,
0x44, 0x69, 0x6d, 0x73, 0x31, 0x00, 0x00, 0x00, 0x04, 0x00, 0x00, 0x00, 0x01, 0x00, 0x00, 0x00,
0x19, 0x00, 0x00, 0x00, 0x01, 0x00, 0x00, 0x00, 0x10, 0x00, 0x00, 0x00, 0x36, 0xf5, 0xff, 0xff,
0x00, 0x00, 0x00, 0x01, 0x10, 0x00, 0x00, 0x00, 0x10, 0x00, 0x00, 0x00, 0x11, 0x00, 0x00, 0x00,
0x8c, 0x01, 0x00, 0x00, 0x20, 0xf5, 0xff, 0xff, 0x7c, 0x01, 0x00, 0x00, 0x6d, 0x6f, 0x64, 0x65,
0x6c, 0x2f, 0x66, 0x61, 0x6e, 0x2d, 0x61, 0x64, 0x2d, 0x63, 0x6f, 0x6e, 0x76, 0x31, 0x64, 0x2d,
0x73, 0x6d, 0x61, 0x6c, 0x6c, 0x2d, 0x73, 0x70, 0x65, 0x65, 0x64, 0x2d, 0x31, 0x2f, 0x6c, 0x61,
0x79, 0x65, 0x72, 0x5f, 0x36, 0x2f, 0x52, 0x65, 0x6c, 0x75, 0x3b, 0x6d, 0x6f, 0x64, 0x65, 0x6c,
0x2f, 0x66, 0x61, 0x6e, 0x2d, 0x61, 0x64, 0x2d, 0x63, 0x6f, 0x6e, 0x76, 0x31, 0x64, 0x2d, 0x73,
0x6d, 0x61, 0x6c, 0x6c, 0x2d, 0x73, 0x70, 0x65, 0x65, 0x64, 0x2d, 0x31, 0x2f, 0x6c, 0x61, 0x79,
0x65, 0x72, 0x5f, 0x35, 0x2f, 0x62, 0x61, 0x74, 0x63, 0x68, 0x6e, 0x6f, 0x72, 0x6d, 0x2f, 0x61,
0x64, 0x64, 0x5f, 0x31, 0x3b, 0x6d, 0x6f, 0x64, 0x65, 0x6c, 0x2f, 0x66, 0x61, 0x6e, 0x2d, 0x61,
0x64, 0x2d, 0x63, 0x6f, 0x6e, 0x76, 0x31, 0x64, 0x2d, 0x73, 0x6d, 0x61, 0x6c, 0x6c, 0x2d, 0x73,
0x70, 0x65, 0x65, 0x64, 0x2d, 0x31, 0x2f, 0x6c, 0x61, 0x79, 0x65, 0x72, 0x5f, 0x34, 0x2f, 0x43,
0x6f, 0x6e, 0x76, 0x31, 0x44, 0x2f, 0x53, 0x71, 0x75, 0x65, 0x65, 0x7a, 0x65, 0x3b, 0x6d, 0x6f,
0x64, 0x65, 0x6c, 0x2f, 0x66, 0x61, 0x6e, 0x2d, 0x61, 0x64, 0x2d, 0x63, 0x6f, 0x6e, 0x76, 0x31,
0x64, 0x2d, 0x73, 0x6d, 0x61, 0x6c, 0x6c, 0x2d, 0x73, 0x70, 0x65, 0x65, 0x64, 0x2d, 0x31, 0x2f,
0x6c, 0x61, 0x79, 0x65, 0x72, 0x5f, 0x35, 0x2f, 0x62, 0x61, 0x74, 0x63, 0x68, 0x6e, 0x6f, 0x72,
0x6d, 0x2f, 0x6d, 0x75, 0x6c, 0x5f, 0x31, 0x3b, 0x6d, 0x6f, 0x64, 0x65, 0x6c, 0x2f, 0x66, 0x61,
0x6e, 0x2d, 0x61, 0x64, 0x2d, 0x63, 0x6f, 0x6e, 0x76, 0x31, 0x64, 0x2d, 0x73, 0x6d, 0x61, 0x6c,
0x6c, 0x2d, 0x73, 0x70, 0x65, 0x65, 0x64, 0x2d, 0x31, 0x2f, 0x6c, 0x61, 0x79, 0x65, 0x72, 0x5f,
0x35, 0x2f, 0x62, 0x61, 0x74, 0x63, 0x68, 0x6e, 0x6f, 0x72, 0x6d, 0x2f, 0x6d, 0x75, 0x6c, 0x3b,
0x6d, 0x6f, 0x64, 0x65, 0x6c, 0x2f, 0x66, 0x61, 0x6e, 0x2d, 0x61, 0x64, 0x2d, 0x63, 0x6f, 0x6e,
0x76, 0x31, 0x64, 0x2d, 0x73, 0x6d, 0x61, 0x6c, 0x6c, 0x2d, 0x73, 0x70, 0x65, 0x65, 0x64, 0x2d,
0x31, 0x2f, 0x6c, 0x61, 0x79, 0x65, 0x72, 0x5f, 0x35, 0x2f, 0x62, 0x61, 0x74, 0x63, 0x68, 0x6e,
0x6f, 0x72, 0x6d, 0x2f, 0x73, 0x75, 0x62, 0x3b, 0x6d, 0x6f, 0x64, 0x65, 0x6c, 0x2f, 0x66, 0x61,
0x6e, 0x2d, 0x61, 0x64, 0x2d, 0x63, 0x6f, 0x6e, 0x76, 0x31, 0x64, 0x2d, 0x73, 0x6d, 0x61, 0x6c,
0x6c, 0x2d, 0x73, 0x70, 0x65, 0x65, 0x64, 0x2d, 0x31, 0x2f, 0x6c, 0x61, 0x79, 0x65, 0x72, 0x5f,
0x34, 0x2f, 0x43, 0x6f, 0x6e, 0x76, 0x31, 0x44, 0x00, 0x00, 0x00, 0x00, 0x04, 0x00, 0x00, 0x00,
0x01, 0x00, 0x00, 0x00, 0x01, 0x00, 0x00, 0x00, 0x19, 0x00, 0x00, 0x00, 0x10, 0x00, 0x00, 0x00,
0xea, 0xf6, 0xff, 0xff, 0x00, 0x00, 0x00, 0x01, 0x10, 0x00, 0x00, 0x00, 0x10, 0x00, 0x00, 0x00,
0x10, 0x00, 0x00, 0x00, 0x40, 0x00, 0x00, 0x00, 0xd4, 0xf6, 0xff, 0xff, 0x31, 0x00, 0x00, 0x00,
0x6d, 0x6f, 0x64, 0x65, 0x6c, 0x2f, 0x66, 0x61, 0x6e, 0x2d, 0x61, 0x64, 0x2d, 0x63, 0x6f, 0x6e,
0x76, 0x31, 0x64, 0x2d, 0x73, 0x6d, 0x61, 0x6c, 0x6c, 0x2d, 0x73, 0x70, 0x65, 0x65, 0x64, 0x2d,
0x31, 0x2f, 0x6c, 0x61, 0x79, 0x65, 0x72, 0x5f, 0x33, 0x2f, 0x43, 0x6f, 0x6e, 0x76, 0x31, 0x44,
0x31, 0x00, 0x00, 0x00, 0x04, 0x00, 0x00, 0x00, 0x01, 0x00, 0x00, 0x00, 0x01, 0x00, 0x00, 0x00,
0x19, 0x00, 0x00, 0x00, 0x10, 0x00, 0x00, 0x00, 0x52, 0xf7, 0xff, 0xff, 0x00, 0x00, 0x00, 0x01,
0x10, 0x00, 0x00, 0x00, 0x10, 0x00, 0x00, 0x00, 0x0f, 0x00, 0x00, 0x00, 0xbc, 0x01, 0x00, 0x00,
0x3c, 0xf7, 0xff, 0xff, 0xad, 0x01, 0x00, 0x00, 0x6d, 0x6f, 0x64, 0x65, 0x6c, 0x2f, 0x66, 0x61,
0x6e, 0x2d, 0x61, 0x64, 0x2d, 0x63, 0x6f, 0x6e, 0x76, 0x31, 0x64, 0x2d, 0x73, 0x6d, 0x61, 0x6c,
0x6c, 0x2d, 0x73, 0x70, 0x65, 0x65, 0x64, 0x2d, 0x31, 0x2f, 0x6c, 0x61, 0x79, 0x65, 0x72, 0x5f,
0x32, 0x2f, 0x52, 0x65, 0x6c, 0x75, 0x3b, 0x6d, 0x6f, 0x64, 0x65, 0x6c, 0x2f, 0x66, 0x61, 0x6e,
0x2d, 0x61, 0x64, 0x2d, 0x63, 0x6f, 0x6e, 0x76, 0x31, 0x64, 0x2d, 0x73, 0x6d, 0x61, 0x6c, 0x6c,
0x2d, 0x73, 0x70, 0x65, 0x65, 0x64, 0x2d, 0x31, 0x2f, 0x6c, 0x61, 0x79, 0x65, 0x72, 0x5f, 0x31,
0x2f, 0x62, 0x61, 0x74, 0x63, 0x68, 0x6e, 0x6f, 0x72, 0x6d, 0x2f, 0x61, 0x64, 0x64, 0x5f, 0x31,
0x3b, 0x6d, 0x6f, 0x64, 0x65, 0x6c, 0x2f, 0x66, 0x61, 0x6e, 0x2d, 0x61, 0x64, 0x2d, 0x63, 0x6f,
0x6e, 0x76, 0x31, 0x64, 0x2d, 0x73, 0x6d, 0x61, 0x6c, 0x6c, 0x2d, 0x73, 0x70, 0x65, 0x65, 0x64,
0x2d, 0x31, 0x2f, 0x6c, 0x61, 0x79, 0x65, 0x72, 0x5f, 0x30, 0x2f, 0x43, 0x6f, 0x6e, 0x76, 0x31,
0x44, 0x2f, 0x53, 0x71, 0x75, 0x65, 0x65, 0x7a, 0x65, 0x3b, 0x6d, 0x6f, 0x64, 0x65, 0x6c, 0x2f,
0x66, 0x61, 0x6e, 0x2d, 0x61, 0x64, 0x2d, 0x63, 0x6f, 0x6e, 0x76, 0x31, 0x64, 0x2d, 0x73, 0x6d,
0x61, 0x6c, 0x6c, 0x2d, 0x73, 0x70, 0x65, 0x65, 0x64, 0x2d, 0x31, 0x2f, 0x6c, 0x61, 0x79, 0x65,
0x72, 0x5f, 0x31, 0x2f, 0x62, 0x61, 0x74, 0x63, 0x68, 0x6e, 0x6f, 0x72, 0x6d, 0x2f, 0x6d, 0x75,
0x6c, 0x5f, 0x31, 0x3b, 0x6d, 0x6f, 0x64, 0x65, 0x6c, 0x2f, 0x66, 0x61, 0x6e, 0x2d, 0x61, 0x64,
0x2d, 0x63, 0x6f, 0x6e, 0x76, 0x31, 0x64, 0x2d, 0x73, 0x6d, 0x61, 0x6c, 0x6c, 0x2d, 0x73, 0x70,
0x65, 0x65, 0x64, 0x2d, 0x31, 0x2f, 0x6c, 0x61, 0x79, 0x65, 0x72, 0x5f, 0x31, 0x2f, 0x62, 0x61,
0x74, 0x63, 0x68, 0x6e, 0x6f, 0x72, 0x6d, 0x2f, 0x6d, 0x75, 0x6c, 0x3b, 0x6d, 0x6f, 0x64, 0x65,
0x6c, 0x2f, 0x66, 0x61, 0x6e, 0x2d, 0x61, 0x64, 0x2d, 0x63, 0x6f, 0x6e, 0x76, 0x31, 0x64, 0x2d,
0x73, 0x6d, 0x61, 0x6c, 0x6c, 0x2d, 0x73, 0x70, 0x65, 0x65, 0x64, 0x2d, 0x31, 0x2f, 0x6c, 0x61,
0x79, 0x65, 0x72, 0x5f, 0x31, 0x2f, 0x62, 0x61, 0x74, 0x63, 0x68, 0x6e, 0x6f, 0x72, 0x6d, 0x2f,
0x73, 0x75, 0x62, 0x3b, 0x6d, 0x6f, 0x64, 0x65, 0x6c, 0x2f, 0x66, 0x61, 0x6e, 0x2d, 0x61, 0x64,
0x2d, 0x63, 0x6f, 0x6e, 0x76, 0x31, 0x64, 0x2d, 0x73, 0x6d, 0x61, 0x6c, 0x6c, 0x2d, 0x73, 0x70,
0x65, 0x65, 0x64, 0x2d, 0x31, 0x2f, 0x6c, 0x61, 0x79, 0x65, 0x72, 0x5f, 0x34, 0x2f, 0x43, 0x6f,
0x6e, 0x76, 0x31, 0x44, 0x3b, 0x6d, 0x6f, 0x64, 0x65, 0x6c, 0x2f, 0x66, 0x61, 0x6e, 0x2d, 0x61,
0x64, 0x2d, 0x63, 0x6f, 0x6e, 0x76, 0x31, 0x64, 0x2d, 0x73, 0x6d, 0x61, 0x6c, 0x6c, 0x2d, 0x73,
0x70, 0x65, 0x65, 0x64, 0x2d, 0x31, 0x2f, 0x6c, 0x61, 0x79, 0x65, 0x72, 0x5f, 0x30, 0x2f, 0x43,
0x6f, 0x6e, 0x76, 0x31, 0x44, 0x00, 0x00, 0x00, 0x04, 0x00, 0x00, 0x00, 0x01, 0x00, 0x00, 0x00,
0x01, 0x00, 0x00, 0x00, 0x19, 0x00, 0x00, 0x00, 0x10, 0x00, 0x00, 0x00, 0x36, 0xf9, 0xff, 0xff,
0x00, 0x00, 0x00, 0x01, 0x10, 0x00, 0x00, 0x00, 0x10, 0x00, 0x00, 0x00, 0x0e, 0x00, 0x00, 0x00,
0x4c, 0x00, 0x00, 0x00, 0x20, 0xf9, 0xff, 0xff, 0x3c, 0x00, 0x00, 0x00, 0x6d, 0x6f, 0x64, 0x65,
0x6c, 0x2f, 0x66, 0x61, 0x6e, 0x2d, 0x61, 0x64, 0x2d, 0x63, 0x6f, 0x6e, 0x76, 0x31, 0x64, 0x2d,
0x73, 0x6d, 0x61, 0x6c, 0x6c, 0x2d, 0x73, 0x70, 0x65, 0x65, 0x64, 0x2d, 0x31, 0x2f, 0x6c, 0x61,
0x79, 0x65, 0x72, 0x5f, 0x30, 0x2f, 0x43, 0x6f, 0x6e, 0x76, 0x31, 0x44, 0x2f, 0x45, 0x78, 0x70,
0x61, 0x6e, 0x64, 0x44, 0x69, 0x6d, 0x73, 0x31, 0x00, 0x00, 0x00, 0x00, 0x04, 0x00, 0x00, 0x00,
0x01, 0x00, 0x00, 0x00, 0x01, 0x00, 0x00, 0x00, 0x32, 0x00, 0x00, 0x00, 0x03, 0x00, 0x00, 0x00,
0xaa, 0xf9, 0xff, 0xff, 0x00, 0x00, 0x00, 0x01, 0x10, 0x00, 0x00, 0x00, 0x10, 0x00, 0x00, 0x00,
0x0d, 0x00, 0x00, 0x00, 0x40, 0x00, 0x00, 0x00, 0x94, 0xf9, 0xff, 0xff, 0x31, 0x00, 0x00, 0x00,
0x6d, 0x6f, 0x64, 0x65, 0x6c, 0x2f, 0x66, 0x61, 0x6e, 0x2d, 0x61, 0x64, 0x2d, 0x63, 0x6f, 0x6e,
0x76, 0x31, 0x64, 0x2d, 0x73, 0x6d, 0x61, 0x6c, 0x6c, 0x2d, 0x73, 0x70, 0x65, 0x65, 0x64, 0x2d,
0x31, 0x2f, 0x6c, 0x61, 0x79, 0x65, 0x72, 0x5f, 0x31, 0x30, 0x2f, 0x4d, 0x61, 0x74, 0x4d, 0x75,
0x6c, 0x00, 0x00, 0x00, 0x02, 0x00, 0x00, 0x00, 0x02, 0x00, 0x00, 0x00, 0x10, 0x00, 0x00, 0x00,
0xfa, 0xfd, 0xff, 0xff, 0x00, 0x00, 0x00, 0x01, 0x14, 0x00, 0x00, 0x00, 0x14, 0x00, 0x00, 0x00,
0x0c, 0x00, 0x00, 0x00, 0x00, 0x00, 0x00, 0x02, 0x50, 0x00, 0x00, 0x00, 0xf8, 0xf9, 0xff, 0xff,
0x40, 0x00, 0x00, 0x00, 0x6d, 0x6f, 0x64, 0x65, 0x6c, 0x2f, 0x66, 0x61, 0x6e, 0x2d, 0x61, 0x64,
0x2d, 0x63, 0x6f, 0x6e, 0x76, 0x31, 0x64, 0x2d, 0x73, 0x6d, 0x61, 0x6c, 0x6c, 0x2d, 0x73, 0x70,
0x65, 0x65, 0x64, 0x2d, 0x31, 0x2f, 0x6c, 0x61, 0x79, 0x65, 0x72, 0x5f, 0x39, 0x2f, 0x4d, 0x65,
0x61, 0x6e, 0x2f, 0x72, 0x65, 0x64, 0x75, 0x63, 0x74, 0x69, 0x6f, 0x6e, 0x5f, 0x69, 0x6e, 0x64,
0x69, 0x63, 0x65, 0x73, 0x00, 0x00, 0x00, 0x00, 0x00, 0x00, 0x00, 0x00, 0x76, 0xfa, 0xff, 0xff,
0x00, 0x00, 0x00, 0x01, 0x10, 0x00, 0x00, 0x00, 0x10, 0x00, 0x00, 0x00, 0x0b, 0x00, 0x00, 0x00,
0x50, 0x00, 0x00, 0x00, 0x60, 0xfa, 0xff, 0xff, 0x41, 0x00, 0x00, 0x00, 0x6d, 0x6f, 0x64, 0x65,
0x6c, 0x2f, 0x66, 0x61, 0x6e, 0x2d, 0x61, 0x64, 0x2d, 0x63, 0x6f, 0x6e, 0x76, 0x31, 0x64, 0x2d,
0x73, 0x6d, 0x61, 0x6c, 0x6c, 0x2d, 0x73, 0x70, 0x65, 0x65, 0x64, 0x2d, 0x31, 0x2f, 0x6c, 0x61,
0x79, 0x65, 0x72, 0x5f, 0x31, 0x30, 0x2f, 0x42, 0x69, 0x61, 0x73, 0x41, 0x64, 0x64, 0x2f, 0x52,
0x65, 0x61, 0x64, 0x56, 0x61, 0x72, 0x69, 0x61, 0x62, 0x6c, 0x65, 0x4f, 0x70, 0x00, 0x00, 0x00,
0x01, 0x00, 0x00, 0x00, 0x02, 0x00, 0x00, 0x00, 0xe2, 0xfa, 0xff, 0xff, 0x00, 0x00, 0x00, 0x01,
0x10, 0x00, 0x00, 0x00, 0x10, 0x00, 0x00, 0x00, 0x0a, 0x00, 0x00, 0x00, 0x40, 0x00, 0x00, 0x00,
0xcc, 0xfa, 0xff, 0xff, 0x30, 0x00, 0x00, 0x00, 0x6d, 0x6f, 0x64, 0x65, 0x6c, 0x2f, 0x66, 0x61,
0x6e, 0x2d, 0x61, 0x64, 0x2d, 0x63, 0x6f, 0x6e, 0x76, 0x31, 0x64, 0x2d, 0x73, 0x6d, 0x61, 0x6c,
0x6c, 0x2d, 0x73, 0x70, 0x65, 0x65, 0x64, 0x2d, 0x31, 0x2f, 0x6c, 0x61, 0x79, 0x65, 0x72, 0x5f,
0x33, 0x2f, 0x43, 0x6f, 0x6e, 0x76, 0x31, 0x44, 0x00, 0x00, 0x00, 0x00, 0x04, 0x00, 0x00, 0x00,
0x10, 0x00, 0x00, 0x00, 0x01, 0x00, 0x00, 0x00, 0x03, 0x00, 0x00, 0x00, 0x10, 0x00, 0x00, 0x00,
0x3a, 0xff, 0xff, 0xff, 0x00, 0x00, 0x00, 0x01, 0x14, 0x00, 0x00, 0x00, 0x14, 0x00, 0x00, 0x00,
0x09, 0x00, 0x00, 0x00, 0x00, 0x00, 0x00, 0x02, 0x40, 0x00, 0x00, 0x00, 0x38, 0xfb, 0xff, 0xff,
0x31, 0x00, 0x00, 0x00, 0x6d, 0x6f, 0x64, 0x65, 0x6c, 0x2f, 0x66, 0x61, 0x6e, 0x2d, 0x61, 0x64,
0x2d, 0x63, 0x6f, 0x6e, 0x76, 0x31, 0x64, 0x2d, 0x73, 0x6d, 0x61, 0x6c, 0x6c, 0x2d, 0x73, 0x70,
0x65, 0x65, 0x64, 0x2d, 0x31, 0x2f, 0x6c, 0x61, 0x79, 0x65, 0x72, 0x5f, 0x37, 0x2f, 0x53, 0x71,
0x75, 0x65, 0x65, 0x7a, 0x65, 0x00, 0x00, 0x00, 0x01, 0x00, 0x00, 0x00, 0x03, 0x00, 0x00, 0x00,
0x9a, 0xff, 0xff, 0xff, 0x00, 0x00, 0x00, 0x01, 0x14, 0x00, 0x00, 0x00, 0x14, 0x00, 0x00, 0x00,
0x08, 0x00, 0x00, 0x00, 0x00, 0x00, 0x00, 0x02, 0x44, 0x00, 0x00, 0x00, 0x98, 0xfb, 0xff, 0xff,
0x34, 0x00, 0x00, 0x00, 0x6d, 0x6f, 0x64, 0x65, 0x6c, 0x2f, 0x66, 0x61, 0x6e, 0x2d, 0x61, 0x64,
0x2d, 0x63, 0x6f, 0x6e, 0x76, 0x31, 0x64, 0x2d, 0x73, 0x6d, 0x61, 0x6c, 0x6c, 0x2d, 0x73, 0x70,
0x65, 0x65, 0x64, 0x2d, 0x31, 0x2f, 0x6c, 0x61, 0x79, 0x65, 0x72, 0x5f, 0x37, 0x2f, 0x45, 0x78,
0x70, 0x61, 0x6e, 0x64, 0x44, 0x69, 0x6d, 0x73, 0x00, 0x00, 0x00, 0x00, 0x01, 0x00, 0x00, 0x00,
0x04, 0x00, 0x00, 0x00, 0x00, 0x00, 0x16, 0x00, 0x1c, 0x00, 0x18, 0x00, 0x17, 0x00, 0x10, 0x00,
0x0c, 0x00, 0x08, 0x00, 0x00, 0x00, 0x00, 0x00, 0x00, 0x00, 0x07, 0x00, 0x16, 0x00, 0x00, 0x00,
0x00, 0x00, 0x00, 0x01, 0x14, 0x00, 0x00, 0x00, 0x14, 0x00, 0x00, 0x00, 0x07, 0x00, 0x00, 0x00,
0x00, 0x00, 0x00, 0x02, 0x48, 0x00, 0x00, 0x00, 0x14, 0xfc, 0xff, 0xff, 0x3b, 0x00, 0x00, 0x00,
0x6d, 0x6f, 0x64, 0x65, 0x6c, 0x2f, 0x66, 0x61, 0x6e, 0x2d, 0x61, 0x64, 0x2d, 0x63, 0x6f, 0x6e,
0x76, 0x31, 0x64, 0x2d, 0x73, 0x6d, 0x61, 0x6c, 0x6c, 0x2d, 0x73, 0x70, 0x65, 0x65, 0x64, 0x2d,
0x31, 0x2f, 0x6c, 0x61, 0x79, 0x65, 0x72, 0x5f, 0x30, 0x2f, 0x43, 0x6f, 0x6e, 0x76, 0x31, 0x44,
0x2f, 0x45, 0x78, 0x70, 0x61, 0x6e, 0x64, 0x44, 0x69, 0x6d, 0x73, 0x00, 0x01, 0x00, 0x00, 0x00,
0x04, 0x00, 0x00, 0x00, 0x8e, 0xfc, 0xff, 0xff, 0x00, 0x00, 0x00, 0x01, 0x10, 0x00, 0x00, 0x00,
0x10, 0x00, 0x00, 0x00, 0x06, 0x00, 0x00, 0x00, 0xe8, 0x00, 0x00, 0x00, 0x78, 0xfc, 0xff, 0xff,
0xdb, 0x00, 0x00, 0x00, 0x6d, 0x6f, 0x64, 0x65, 0x6c, 0x2f, 0x66, 0x61, 0x6e, 0x2d, 0x61, 0x64,
0x2d, 0x63, 0x6f, 0x6e, 0x76, 0x31, 0x64, 0x2d, 0x73, 0x6d, 0x61, 0x6c, 0x6c, 0x2d, 0x73, 0x70,
0x65, 0x65, 0x64, 0x2d, 0x31, 0x2f, 0x6c, 0x61, 0x79, 0x65, 0x72, 0x5f, 0x35, 0x2f, 0x62, 0x61,
0x74, 0x63, 0x68, 0x6e, 0x6f, 0x72, 0x6d, 0x2f, 0x6d, 0x75, 0x6c, 0x5f, 0x31, 0x3b, 0x6d, 0x6f,
0x64, 0x65, 0x6c, 0x2f, 0x66, 0x61, 0x6e, 0x2d, 0x61, 0x64, 0x2d, 0x63, 0x6f, 0x6e, 0x76, 0x31,
0x64, 0x2d, 0x73, 0x6d, 0x61, 0x6c, 0x6c, 0x2d, 0x73, 0x70, 0x65, 0x65, 0x64, 0x2d, 0x31, 0x2f,
0x6c, 0x61, 0x79, 0x65, 0x72, 0x5f, 0x34, 0x2f, 0x43, 0x6f, 0x6e, 0x76, 0x31, 0x44, 0x2f, 0x53,
0x71, 0x75, 0x65, 0x65, 0x7a, 0x65, 0x3b, 0x6d, 0x6f, 0x64, 0x65, 0x6c, 0x2f, 0x66, 0x61, 0x6e,
0x2d, 0x61, 0x64, 0x2d, 0x63, 0x6f, 0x6e, 0x76, 0x31, 0x64, 0x2d, 0x73, 0x6d, 0x61, 0x6c, 0x6c,
0x2d, 0x73, 0x70, 0x65, 0x65, 0x64, 0x2d, 0x31, 0x2f, 0x6c, 0x61, 0x79, 0x65, 0x72, 0x5f, 0x35,
0x2f, 0x62, 0x61, 0x74, 0x63, 0x68, 0x6e, 0x6f, 0x72, 0x6d, 0x2f, 0x6d, 0x75, 0x6c, 0x3b, 0x6d,
0x6f, 0x64, 0x65, 0x6c, 0x2f, 0x66, 0x61, 0x6e, 0x2d, 0x61, 0x64, 0x2d, 0x63, 0x6f, 0x6e, 0x76,
0x31, 0x64, 0x2d, 0x73, 0x6d, 0x61, 0x6c, 0x6c, 0x2d, 0x73, 0x70, 0x65, 0x65, 0x64, 0x2d, 0x31,
0x2f, 0x6c, 0x61, 0x79, 0x65, 0x72, 0x5f, 0x34, 0x2f, 0x43, 0x6f, 0x6e, 0x76, 0x31, 0x44, 0x00,
0x04, 0x00, 0x00, 0x00, 0x10, 0x00, 0x00, 0x00, 0x01, 0x00, 0x00, 0x00, 0x03, 0x00, 0x00, 0x00,
0x10, 0x00, 0x00, 0x00, 0x9e, 0xfd, 0xff, 0xff, 0x00, 0x00, 0x00, 0x01, 0x10, 0x00, 0x00, 0x00,
0x10, 0x00, 0x00, 0x00, 0x05, 0x00, 0x00, 0x00, 0x40, 0x00, 0x00, 0x00, 0x88, 0xfd, 0xff, 0xff,
0x30, 0x00, 0x00, 0x00, 0x6d, 0x6f, 0x64, 0x65, 0x6c, 0x2f, 0x66, 0x61, 0x6e, 0x2d, 0x61, 0x64,
0x2d, 0x63, 0x6f, 0x6e, 0x76, 0x31, 0x64, 0x2d, 0x73, 0x6d, 0x61, 0x6c, 0x6c, 0x2d, 0x73, 0x70,
0x65, 0x65, 0x64, 0x2d, 0x31, 0x2f, 0x6c, 0x61, 0x79, 0x65, 0x72, 0x5f, 0x34, 0x2f, 0x43, 0x6f,
0x6e, 0x76, 0x31, 0x44, 0x00, 0x00, 0x00, 0x00, 0x01, 0x00, 0x00, 0x00, 0x10, 0x00, 0x00, 0x00,
0xfa, 0xfd, 0xff, 0xff, 0x00, 0x00, 0x00, 0x01, 0x10, 0x00, 0x00, 0x00, 0x10, 0x00, 0x00, 0x00,
0x04, 0x00, 0x00, 0x00, 0x1c, 0x01, 0x00, 0x00, 0xe4, 0xfd, 0xff, 0xff, 0x0c, 0x01, 0x00, 0x00,
0x6d, 0x6f, 0x64, 0x65, 0x6c, 0x2f, 0x66, 0x61, 0x6e, 0x2d, 0x61, 0x64, 0x2d, 0x63, 0x6f, 0x6e,
0x76, 0x31, 0x64, 0x2d, 0x73, 0x6d, 0x61, 0x6c, 0x6c, 0x2d, 0x73, 0x70, 0x65, 0x65, 0x64, 0x2d,
0x31, 0x2f, 0x6c, 0x61, 0x79, 0x65, 0x72, 0x5f, 0x31, 0x2f, 0x62, 0x61, 0x74, 0x63, 0x68, 0x6e,
0x6f, 0x72, 0x6d, 0x2f, 0x6d, 0x75, 0x6c, 0x5f, 0x31, 0x3b, 0x6d, 0x6f, 0x64, 0x65, 0x6c, 0x2f,
0x66, 0x61, 0x6e, 0x2d, 0x61, 0x64, 0x2d, 0x63, 0x6f, 0x6e, 0x76, 0x31, 0x64, 0x2d, 0x73, 0x6d,
0x61, 0x6c, 0x6c, 0x2d, 0x73, 0x70, 0x65, 0x65, 0x64, 0x2d, 0x31, 0x2f, 0x6c, 0x61, 0x79, 0x65,
0x72, 0x5f, 0x30, 0x2f, 0x43, 0x6f, 0x6e, 0x76, 0x31, 0x44, 0x2f, 0x53, 0x71, 0x75, 0x65, 0x65,
0x7a, 0x65, 0x3b, 0x6d, 0x6f, 0x64, 0x65, 0x6c, 0x2f, 0x66, 0x61, 0x6e, 0x2d, 0x61, 0x64, 0x2d,
0x63, 0x6f, 0x6e, 0x76, 0x31, 0x64, 0x2d, 0x73, 0x6d, 0x61, 0x6c, 0x6c, 0x2d, 0x73, 0x70, 0x65,
0x65, 0x64, 0x2d, 0x31, 0x2f, 0x6c, 0x61, 0x79, 0x65, 0x72, 0x5f, 0x31, 0x2f, 0x62, 0x61, 0x74,
0x63, 0x68, 0x6e, 0x6f, 0x72, 0x6d, 0x2f, 0x6d, 0x75, 0x6c, 0x3b, 0x6d, 0x6f, 0x64, 0x65, 0x6c,
0x2f, 0x66, 0x61, 0x6e, 0x2d, 0x61, 0x64, 0x2d, 0x63, 0x6f, 0x6e, 0x76, 0x31, 0x64, 0x2d, 0x73,
0x6d, 0x61, 0x6c, 0x6c, 0x2d, 0x73, 0x70, 0x65, 0x65, 0x64, 0x2d, 0x31, 0x2f, 0x6c, 0x61, 0x79,
0x65, 0x72, 0x5f, 0x30, 0x2f, 0x43, 0x6f, 0x6e, 0x76, 0x31, 0x44, 0x3b, 0x6d, 0x6f, 0x64, 0x65,
0x6c, 0x2f, 0x66, 0x61, 0x6e, 0x2d, 0x61, 0x64, 0x2d, 0x63, 0x6f, 0x6e, 0x76, 0x31, 0x64, 0x2d,
0x73, 0x6d, 0x61, 0x6c, 0x6c, 0x2d, 0x73, 0x70, 0x65, 0x65, 0x64, 0x2d, 0x31, 0x2f, 0x6c, 0x61,
0x79, 0x65, 0x72, 0x5f, 0x34, 0x2f, 0x43, 0x6f, 0x6e, 0x76, 0x31, 0x44, 0x00, 0x00, 0x00, 0x00,
0x04, 0x00, 0x00, 0x00, 0x10, 0x00, 0x00, 0x00, 0x01, 0x00, 0x00, 0x00, 0x03, 0x00, 0x00, 0x00,
0x03, 0x00, 0x00, 0x00, 0x3e, 0xff, 0xff, 0xff, 0x00, 0x00, 0x00, 0x01, 0x10, 0x00, 0x00, 0x00,
0x10, 0x00, 0x00, 0x00, 0x03, 0x00, 0x00, 0x00, 0x44, 0x00, 0x00, 0x00, 0x28, 0xff, 0xff, 0xff,
0x37, 0x00, 0x00, 0x00, 0x6d, 0x6f, 0x64, 0x65, 0x6c, 0x2f, 0x66, 0x61, 0x6e, 0x2d, 0x61, 0x64,
0x2d, 0x63, 0x6f, 0x6e, 0x76, 0x31, 0x64, 0x2d, 0x73, 0x6d, 0x61, 0x6c, 0x6c, 0x2d, 0x73, 0x70,
0x65, 0x65, 0x64, 0x2d, 0x31, 0x2f, 0x6c, 0x61, 0x79, 0x65, 0x72, 0x5f, 0x35, 0x2f, 0x62, 0x61,
0x74, 0x63, 0x68, 0x6e, 0x6f, 0x72, 0x6d, 0x2f, 0x73, 0x75, 0x62, 0x00, 0x01, 0x00, 0x00, 0x00,
0x10, 0x00, 0x00, 0x00, 0x9e, 0xff, 0xff, 0xff, 0x00, 0x00, 0x00, 0x01, 0x10, 0x00, 0x00, 0x00,
0x10, 0x00, 0x00, 0x00, 0x02, 0x00, 0x00, 0x00, 0x44, 0x00, 0x00, 0x00, 0x88, 0xff, 0xff, 0xff,
0x37, 0x00, 0x00, 0x00, 0x6d, 0x6f, 0x64, 0x65, 0x6c, 0x2f, 0x66, 0x61, 0x6e, 0x2d, 0x61, 0x64,
0x2d, 0x63, 0x6f, 0x6e, 0x76, 0x31, 0x64, 0x2d, 0x73, 0x6d, 0x61, 0x6c, 0x6c, 0x2d, 0x73, 0x70,
0x65, 0x65, 0x64, 0x2d, 0x31, 0x2f, 0x6c, 0x61, 0x79, 0x65, 0x72, 0x5f, 0x31, 0x2f, 0x62, 0x61,
0x74, 0x63, 0x68, 0x6e, 0x6f, 0x72, 0x6d, 0x2f, 0x73, 0x75, 0x62, 0x00, 0x01, 0x00, 0x00, 0x00,
0x10, 0x00, 0x00, 0x00, 0x00, 0x00, 0x16, 0x00, 0x18, 0x00, 0x14, 0x00, 0x00, 0x00, 0x10, 0x00,
0x0c, 0x00, 0x08, 0x00, 0x00, 0x00, 0x00, 0x00, 0x00, 0x00, 0x07, 0x00, 0x16, 0x00, 0x00, 0x00,
0x00, 0x00, 0x00, 0x01, 0x14, 0x00, 0x00, 0x00, 0x14, 0x00, 0x00, 0x00, 0x01, 0x00, 0x00, 0x00,
0x2c, 0x00, 0x00, 0x00, 0x04, 0x00, 0x04, 0x00, 0x04, 0x00, 0x00, 0x00, 0x19, 0x00, 0x00, 0x00,
0x73, 0x65, 0x72, 0x76, 0x69, 0x6e, 0x67, 0x5f, 0x64, 0x65, 0x66, 0x61, 0x75, 0x6c, 0x74, 0x5f,
0x69, 0x6e, 0x70, 0x75, 0x74, 0x5f, 0x31, 0x3a, 0x30, 0x00, 0x00, 0x00, 0x03, 0x00, 0x00, 0x00,
0x01, 0x00, 0x00, 0x00, 0x32, 0x00, 0x00, 0x00, 0x03, 0x00, 0x00, 0x00, 0x06, 0x00, 0x00, 0x00,
0x60, 0x00, 0x00, 0x00, 0x44, 0x00, 0x00, 0x00, 0x34, 0x00, 0x00, 0x00, 0x24, 0x00, 0x00, 0x00,
0x14, 0x00, 0x00, 0x00, 0x04, 0x00, 0x00, 0x00, 0xc4, 0xff, 0xff, 0xff, 0x19, 0x00, 0x00, 0x00,
0x00, 0x00, 0x00, 0x19, 0xd0, 0xff, 0xff, 0xff, 0x09, 0x00, 0x00, 0x00, 0x00, 0x00, 0x00, 0x09,
0xdc, 0xff, 0xff, 0xff, 0x28, 0x00, 0x00, 0x00, 0x00, 0x00, 0x00, 0x28, 0xe8, 0xff, 0xff, 0xff,
0x11, 0x00, 0x00, 0x00, 0x00, 0x00, 0x00, 0x11, 0xf4, 0xff, 0xff, 0xff, 0x03, 0x00, 0x00, 0x00,
0x00, 0x00, 0x00, 0x03, 0x0c, 0x00, 0x0c, 0x00, 0x0b, 0x00, 0x00, 0x00, 0x00, 0x00, 0x04, 0x00,
0x0c, 0x00, 0x00, 0x00, 0x16, 0x00, 0x00, 0x00, 0x00, 0x00, 0x00, 0x16
};

